1824
0.211512	-0.211512	-0.211512
0.0164692	-0.0164722	-0.0164618
0.00333194	-0.0594937	0.0587044
-0.0666403	-1.56925	1.56943
-0.023003	-0.0231812	0.0231832
0.0404526	-0.0404526	-0.0404526
-0.00267269	1.12253	-1.1228
-0.00269231	0.00280496	-0.0026932
-0.0241992	-0.0203343	0.0203216
-0.0164938	0.0164942	0.0164928
0.00724224	-0.00724542	-0.0072346
0.0248855	-0.0287589	0.0291122
-0.00642884	-0.00994159	0.00994608
-0.0144556	-0.0346622	0.0346947
0.00433241	-0.0043323	-0.00433266
0.0234782	0.541126	-0.542297
-0.0203378	0.0201083	-0.0201135
0.0153126	0.0212995	-0.0213136
0.0175152	-0.0175153	-0.0175151
0.0362096	-0.0362094	-0.0362101
-0.0408532	0.0504243	-0.0503803
-0.0505087	-0.0721151	0.0720938
0.0125231	0.0083769	-0.00837629
-0.00110222	0.00110255	0.00110146
-0.0130631	0.458414	-0.457669
-0.00736446	0.0101332	-0.0101635
3.56267e-05	0.0334557	-0.0334208
0.0145342	-0.0145343	-0.0145341
0.0259089	-0.0259237	-0.0258742
-0.0225422	0.0220556	-0.0221261
0.0534461	0.133113	-0.132984
-0.0252097	-0.0224386	0.0224387
0.00523595	-0.00523547	-0.00523711
-0.0373282	0.0189484	-0.0184088
-0.017372	0.132282	-0.132455
-0.00133648	-0.00969427	0.00970561
0.0152446	-0.0152445	-0.0152449
0.0243103	-0.0243028	-0.0243286
-0.0338051	0.0338653	-0.0338436
-0.119957	-0.0078298	0.00789542
-0.00541138	0.00230404	-0.00230308
0.0164692	-0.0164722	-0.0164618
-0.0170141	0.462096	-0.461376
-0.0218886	0.0757083	-0.075738
-0.023003	-0.0231812	0.0231832
-0.0115716	0.0115718	0.0115711
0.0190571	-0.0190595	-0.0190514
-0.00269231	0.00280496	-0.0026932
-0.0216568	-0.283901	0.277775
-0.0201472	-0.0119988	0.0119986
0.00724224	-0.00724542	-0.0072346
-0.045986	0.0285212	-0.0288374
0.000234125	0.121508	-0.121411
-0.0144556	-0.0346622	0.0346947
-0.00410289	0.00410277	0.00410317
-0.009785	0.00978473	0.00978563
-0.0203378	0.0201083	-0.0201135
-0.029035	-0.188268	0.188898
-0.0024096	0.00193755	-0.00192516
0.0362096	-0.0362094	-0.0362101
-0.011312	0.125338	-0.125591
0.0140673	0.252201	-0.252666
0.0125231	0.0083769	-0.00837629
0.0117108	-0.0117113	-0.0117097
0.0125864	-0.0125866	-0.012586
-0.00736446	0.0101332	-0.0101635
-0.0121102	-0.0897622	0.0916669
-0.00753604	-0.0450792	0.0450803
0.0259089	-0.0259237	-0.0258742
-0.0408183	0.0149149	-0.0150867
-0.0150343	0.0267551	-0.0266339
-0.0252097	-0.0224386	0.0224387
0.000514265	-0.000514199	-0.00051442
0.013076	-0.0130761	-0.0130759
-0.017372	0.132282	-0.132455
-0.0298525	-0.23215	0.2322
-0.0317931	-0.0817895	0.081793
0.0243103	-0.0243028	-0.0243286
-0.0652203	0.0655137	-0.0655096
-0.0196989	0.192491	-0.190368
-0.00541138	0.00230404	-0.00230308
-0.00887768	0.00887787	0.00887723
0.0328466	-0.0328471	-0.0328455
-0.0218886	0.0757083	-0.075738
-0.019024	-0.181285	0.181376
-0.0338378	-0.0700345	0.0780729
0.0190571	-0.0190595	-0.0190514
-0.111644	0.111248	-0.111296
0.000394668	0.20006	-0.200635
-0.0201472	-0.0119988	0.0119986
0.0413774	-0.0413774	-0.0413772
0.0211607	-0.0211604	-0.0211617
0.000234125	0.121508	-0.121411
-0.0354938	-0.0542379	0.0542936
0.00723196	-0.0510806	0.0485492
-0.009785	0.00978473	0.00978563
-0.123751	0.278936	-0.260306
-0.0144746	0.0293079	-0.0286973
-0.0024096	0.00193755	-0.00192516
-0.00307923	0.00307778	0.00308265
0.152361	-0.127149	-0.148743
0.0140673	0.252201	-0.252666
-0.0225217	0.0412073	-0.0412067
-0.0707296	-0.0692513	0.0692514
0.0125864	-0.0125866	-0.012586
-0.00736446	0.0101332	-0.0101635
-0.110449	1.41102	-1.40302
-0.00753604	-0.0450792	0.0450803
0.0259089	-0.0259237	-0.0258742
-0.0195428	0.167074	-0.167077
-0.0150343	0.0267551	-0.0266339
-0.0252097	-0.0224386	0.0224387
0.00705834	-0.00705841	-0.00705816
0.013076	-0.0130761	-0.0130759
-0.017372	0.132282	-0.132455
-0.0230625	-1.2055	1.20525
-0.0317931	-0.0817895	0.081793
0.0243103	-0.0243028	-0.0243286
0.0177431	0.17652	-0.175922
-0.0196989	0.192491	-0.190368
-0.00541138	0.00230404	-0.00230308
-0.0129248	0.0129245	0.0129257
0.0328466	-0.0328471	-0.0328455
-0.0218886	0.0757083	-0.075738
0.00503598	-1.72096	1.72136
-0.0338378	-0.0700345	0.0780729
0.0190571	-0.0190595	-0.0190514
0.00987862	-0.127665	0.127273
0.000394668	0.20006	-0.200635
-0.0201472	-0.0119988	0.0119986
0.0716287	-0.0716289	-0.0716283
0.0211607	-0.0211604	-0.0211617
0.000234125	0.121508	-0.121411
-0.0185728	-0.968051	0.964543
0.00723196	-0.0510806	0.0485492
-0.009785	0.00978473	0.00978563
0.0354846	-0.0376426	0.0382718
-0.0144746	0.0293079	-0.0286973
-0.0024096	0.00193755	-0.00192516
0.0402834	-0.0402836	-0.0402828
0.0507709	-0.0420931	-0.0493801
0.0140673	0.252201	-0.252666
-0.00468605	-0.17108	0.164022
-0.0229485	-0.253203	0.254339
0.0125864	-0.0125866	-0.012586
-0.0422943	0.0321824	-0.0329644
-0.0235865	-0.0763669	0.0763982
-0.00753604	-0.0450792	0.0450803
0.0824376	-0.0824377	-0.0824375
0.0367834	-0.0340871	-0.0362922
-0.0150343	0.0267551	-0.0266339
0.0090348	-1.72761	1.7271
-0.0285036	-0.135779	0.139579
0.013076	-0.0130761	-0.0130759
-0.0271761	0.0499752	-0.0498908
0.00503598	0.279039	-0.278639
-0.0317931	-0.0817895	0.081793
-0.0148651	0.0148651	0.0148649
0.0431555	-0.0456387	-0.037357
-0.0196989	0.192491	-0.190368
-0.0868048	-0.0813328	0.0813322
-0.0119256	-0.305654	0.30409
0.0328466	-0.0328471	-0.0328455
0.00662992	1.09945	-1.11012
-0.0092294	0.186495	-0.184627
-0.0338378	-0.0700345	0.0780729
0.0934502	-0.0934499	-0.093451
0.0474695	-0.0474781	-0.0475893
0.000394668	0.20006	-0.200635
0.0104063	0.0108809	-0.010881
-0.00751162	-0.445392	0.444994
0.0211607	-0.0211604	-0.0211617
-0.0142495	0.177217	-0.176451
-0.0176197	0.0144634	-0.015152
0.00723196	-0.0510806	0.0485492
0.00127994	-0.00128059	-0.00127843
0.00841036	-0.00840703	-0.00841816
-0.0144746	0.0293079	-0.0286973
-0.0638818	-0.0684885	0.0684888
0.0260309	0.018566	-0.0185668
0.0507709	-0.0420931	-0.0493801
-0.0149036	0.42424	-0.425267
0.00333194	-0.0594937	0.0587044
-0.0229485	-0.253203	0.254339
-0.0111946	0.0111941	0.0111957
0.0404526	-0.0404526	-0.0404526
-0.0235865	-0.0763669	0.0763982
-0.0128966	-0.0210264	0.0210444
-0.0241992	-0.0203343	0.0203216
0.0367834	-0.0340871	-0.0362922
-0.0388618	0.076812	-0.0781074
0.0248855	-0.0287589	0.0291122
-0.0285036	-0.135779	0.139579
0.0872673	-0.0872677	-0.0872661
0.00433241	-0.0043323	-0.00433266
0.00503598	0.279039	-0.278639
-0.0583457	-0.0689649	0.0689639
0.0153126	0.0212995	-0.0213136
0.0431555	-0.0456387	-0.037357
-0.0110044	-0.187293	0.189583
-0.0408532	0.0504243	-0.0503803
-0.0119256	-0.305654	0.30409
0.00816716	-0.00816367	-0.00817552
-0.00110222	0.00110255	0.00110146
-0.0092294	0.186495	-0.184627
-0.0124717	0.00298134	-0.00293177
3.56267e-05	0.0334557	-0.0334208
0.0474695	-0.0474781	-0.0475893
0.0167426	0.143736	-0.144564
0.0251435	-0.0360826	0.0361418
-0.00751162	-0.445392	0.444994
0.0371176	-0.0371186	-0.0371152
0.0780572	-0.0780607	-0.078049
-0.0176197	0.0144634	-0.015152
0.00723196	-0.0510806	0.0485492
0.0104063	0.0108809	-0.010881
0.00841036	-0.00840703	-0.00841816
-0.0144746	0.0293079	-0.0286973
-0.134721	-0.130669	0.130668
0.0260309	0.018566	-0.0185668
0.0507709	-0.0420931	-0.0493801
-0.00763845	1.22748	-1.22523
0.00333194	-0.0594937	0.0587044
-0.0229485	-0.253203	0.254339
0.0940891	-0.0940891	-0.0940891
0.0404526	-0.0404526	-0.0404526
-0.0235865	-0.0763669	0.0763982
-0.15754	-0.156047	0.156047
-0.0241992	-0.0203343	0.0203216
0.0367834	-0.0340871	-0.0362922
0.0148779	-0.0713528	0.0716948
0.0248855	-0.0287589	0.0291122
-0.0285036	-0.135779	0.139579
0.0203742	-0.0203762	-0.0203696
0.00433241	-0.0043323	-0.00433266
0.00503598	0.279039	-0.278639
-0.0458284	-0.00645164	0.00644929
0.0153126	0.0212995	-0.0213136
0.0431555	-0.0456387	-0.037357
-0.0602735	0.0507229	-0.0509328
-0.0408532	0.0504243	-0.0503803
-0.0119256	-0.305654	0.30409
0.109681	-0.109682	-0.109678
-0.00110222	0.00110255	0.00110146
-0.0092294	0.186495	-0.184627
-0.0200469	-0.0182195	0.0182197
3.56267e-05	0.0334557	-0.0334208
0.0474695	-0.0474781	-0.0475893
-0.0423956	0.78067	-0.778673
-0.0225422	0.0220556	-0.0221261
-0.00751162	-0.445392	0.444994
-0.00548552	0.00548472	0.00548739
0.00523595	-0.00523547	-0.00523711
-0.0176197	0.0144634	-0.015152
-0.0348874	-0.231267	0.230768
-0.00133648	-0.00969427	0.00970561
0.00841036	-0.00840703	-0.00841816
0.00192349	1.20195	-1.20775
-0.0338051	0.0338653	-0.0338436
0.0260309	0.018566	-0.0185668
0.0279701	-0.0279697	-0.0279712
0.0164692	-0.0164722	-0.0164618
0.00333194	-0.0594937	0.0587044
-0.0767817	-0.074934	0.0749342
-0.023003	-0.0231812	0.0231832
0.0404526	-0.0404526	-0.0404526
-0.0100429	0.0108137	-0.0109658
-0.00269231	0.00280496	-0.0026932
-0.0241992	-0.0203343	0.0203216
-0.0140958	0.0140956	0.0140961
0.00724224	-0.00724542	-0.0072346
0.0248855	-0.0287589	0.0291122
-0.0028792	0.00968057	-0.00969201
-0.0144556	-0.0346622	0.0346947
0.00433241	-0.0043323	-0.00433266
-0.0298986	-0.0543272	0.0539735
-0.0203378	0.0201083	-0.0201135
0.0153126	0.0212995	-0.0213136
0.0942648	-0.0942549	-0.0942878
0.0362096	-0.0362094	-0.0362101
-0.0408532	0.0504243	-0.0503803
-0.00226056	0.0444617	-0.044264
0.0125231	0.0083769	-0.00837629
-0.00110222	0.00110255	0.00110146
-0.00580505	0.23864	-0.239578
-0.00736446	0.0101332	-0.0101635
3.56267e-05	0.0334557	-0.0334208
0.00559957	-0.00559994	-0.00559869
0.0259089	-0.0259237	-0.0258742
-0.0225422	0.0220556	-0.0221261
-0.0213922	-0.190896	0.190933
-0.0252097	-0.0224386	0.0224387
0.00523595	-0.00523547	-0.00523711
-0.00410528	-0.119134	0.119419
-0.017372	0.132282	-0.132455
-0.00133648	-0.00969427	0.00970561
-0.00546193	0.00546213	0.00546147
0.0243103	-0.0243028	-0.0243286
-0.0338051	0.0338653	-0.0338436
0.0234782	-1.45887	1.4577
-0.00541138	0.00230404	-0.00230308
0.0164692	-0.0164722	-0.0164618
-0.0531429	0.0945562	-0.0920616
-0.0218886	0.0757083	-0.075738
-0.023003	-0.0231812	0.0231832
-0.0115716	0.0115718	0.0115711
0.0190571	-0.0190595	-0.0190514
-0.00269231	0.00280496	-0.0026932
-0.0216568	-0.283901	0.277775
-0.0201472	-0.0119988	0.0119986
0.00724224	-0.00724542	-0.0072346
-0.045986	0.0285212	-0.0288374
0.000234125	0.121508	-0.121411
-0.0144556	-0.0346622	0.0346947
-0.00410289	0.00410277	0.00410317
-0.009785	0.00978473	0.00978563
-0.0203378	0.0201083	-0.0201135
-0.029035	-0.188268	0.188898
-0.118329	-0.00900632	0.00891586
0.0362096	-0.0362094	-0.0362101
-0.0408532	0.0504243	-0.0503803
-0.140541	0.529658	-0.528897
0.0125231	0.0083769	-0.00837629
-0.00110222	0.00110255	0.00110146
0.0591797	-0.0591795	-0.0591802
-0.00736446	0.0101332	-0.0101635
3.56267e-05	0.0334557	-0.0334208
-0.0183507	0.0183506	0.018351
0.0259089	-0.0259237	-0.0258742
-0.0225422	0.0220556	-0.0221261
0.00858231	0.0280466	-0.0280723
-0.0252097	-0.0224386	0.0224387
0.00523595	-0.00523547	-0.00523711
-0.0991882	0.152813	-0.15318
-0.017372	0.132282	-0.132455
-0.00133648	-0.00969427	0.00970561
0.0152446	-0.0152445	-0.0152449
0.0243103	-0.0243028	-0.0243286
-0.0338051	0.0338653	-0.0338436
-0.119957	-0.0078298	0.00789542
-0.00541138	0.00230404	-0.00230308
0.0164692	-0.0164722	-0.0164618
-0.0170141	0.462096	-0.461376
-0.0218886	0.0757083	-0.075738
-0.023003	-0.0231812	0.0231832
0.0136201	-0.0136201	-0.0136202
0.0190571	-0.0190595	-0.0190514
-0.00269231	0.00280496	-0.0026932
-0.0806026	-0.0819413	0.081915
-0.0201472	-0.0119988	0.0119986
0.00724224	-0.00724542	-0.0072346
-0.017361	0.251158	-0.249952
0.000234125	0.121508	-0.121411
-0.0144556	-0.0346622	0.0346947
-0.00763431	0.00763428	0.00763438
-0.009785	0.00978473	0.00978563
-0.0203378	0.0201083	-0.0201135
0.0181547	0.0901764	-0.0901458
-0.0024096	0.00193755	-0.00192516
0.0362096	-0.0362094	-0.0362101
-0.0533338	0.0958596	-0.0971774
0.0140673	0.252201	-0.252666
0.0125231	0.0083769	-0.00837629
0.041425	-0.041425	-0.0414252
0.0125864	-0.0125866	-0.012586
-0.00736446	0.0101332	-0.0101635
0.00184918	-0.0714533	0.0715559
-0.00753604	-0.0450792	0.0450803
0.0259089	-0.0259237	-0.0258742
-0.0408183	0.0149149	-0.0150867
-0.0150343	0.0267551	-0.0266339
-0.0252097	-0.0224386	0.0224387
0.000514265	-0.000514199	-0.00051442
0.013076	-0.0130761	-0.0130759
-0.017372	0.132282	-0.132455
-0.0298525	-0.23215	0.2322
-0.0317931	-0.0817895	0.081793
0.0243103	-0.0243028	-0.0243286
-0.0652203	0.0655137	-0.0655096
-0.0196989	0.192491	-0.190368
-0.00541138	0.00230404	-0.00230308
-0.00887768	0.00887787	0.00887723
0.0328466	-0.0328471	-0.0328455
-0.0218886	0.0757083	-0.075738
-0.019024	-0.181285	0.181376
-0.0338378	-0.0700345	0.0780729
0.0190571	-0.0190595	-0.0190514
-0.111644	0.111248	-0.111296
0.000394668	0.20006	-0.200635
-0.0201472	-0.0119988	0.0119986
0.0413774	-0.0413774	-0.0413772
0.0211607	-0.0211604	-0.0211617
0.000234125	0.121508	-0.121411
-0.0354938	-0.0542379	0.0542936
0.00723196	-0.0510806	0.0485492
-0.009785	0.00978473	0.00978563
-0.123751	0.278936	-0.260306
-0.0144746	0.0293079	-0.0286973
-0.0024096	0.00193755	-0.00192516
-0.00307923	0.00307778	0.00308265
0.0507709	-0.0420931	-0.0493801
0.0140673	0.252201	-0.252666
-0.0225217	0.0412073	-0.0412067
-0.0229485	-0.253203	0.254339
0.0125864	-0.0125866	-0.012586
-0.0684853	0.070342	-0.0704395
-0.0235865	-0.0763669	0.0763982
-0.00753604	-0.0450792	0.0450803
-0.0374494	0.0374493	0.0374495
0.0367834	-0.0340871	-0.0362922
-0.0150343	0.0267551	-0.0266339
-0.0522483	-0.098848	0.0986194
-0.0285036	-0.135779	0.139579
0.013076	-0.0130761	-0.0130759
-0.0271761	0.0499752	-0.0498908
0.00503598	0.279039	-0.278639
-0.0317931	-0.0817895	0.081793
-0.0148651	0.0148651	0.0148649
0.0431555	-0.0456387	-0.037357
-0.0196989	0.192491	-0.190368
-0.0868048	-0.0813328	0.0813322
-0.0119256	-0.305654	0.30409
0.0328466	-0.0328471	-0.0328455
0.00662992	1.09945	-1.11012
-0.0092294	0.186495	-0.184627
-0.0338378	-0.0700345	0.0780729
0.0934502	-0.0934499	-0.093451
-0.00754416	0.00752614	0.007586
0.000394668	0.20006	-0.200635
-0.0201472	-0.0119988	0.0119986
-0.222961	-0.413713	0.413838
0.0211607	-0.0211604	-0.0211617
0.000234125	0.121508	-0.121411
-0.365071	0.364775	-0.364778
0.00723196	-0.0510806	0.0485492
-0.009785	0.00978473	0.00978563
-0.0269258	0.371045	-0.37034
-0.0144746	0.0293079	-0.0286973
-0.0024096	0.00193755	-0.00192516
0.0245932	-0.0245819	-0.0246203
0.0507709	-0.0420931	-0.0493801
0.0140673	0.252201	-0.252666
-0.195975	-0.182035	0.182042
-0.0229485	-0.253203	0.254339
0.0125864	-0.0125866	-0.012586
-0.0422943	0.0321824	-0.0329644
-0.0235865	-0.0763669	0.0763982
-0.00753604	-0.0450792	0.0450803
0.0824376	-0.0824377	-0.0824375
0.0367834	-0.0340871	-0.0362922
-0.0150343	0.0267551	-0.0266339
0.0090348	-1.72761	1.7271
-0.0285036	-0.135779	0.139579
0.013076	-0.0130761	-0.0130759
-0.0130314	0.337812	-0.33879
0.00503598	0.279039	-0.278639
-0.0317931	-0.0817895	0.081793
0.0157417	-0.0157418	-0.0157416
0.0431555	-0.0456387	-0.037357
-0.0196989	0.192491	-0.190368
-0.0194215	-0.0231608	0.0231752
-0.0119256	-0.305654	0.30409
0.0328466	-0.0328471	-0.0328455
-0.0876513	0.0412181	-0.0402348
-0.0092294	0.186495	-0.184627
-0.0338378	-0.0700345	0.0780729
0.209649	-0.209649	-0.209649
0.0474695	-0.0474781	-0.0475893
0.000394668	0.20006	-0.200635
-0.0932227	-0.0985517	0.0985462
-0.00751162	-0.445392	0.444994
0.0211607	-0.0211604	-0.0211617
-0.00402667	-0.060776	0.0604797
-0.0176197	0.0144634	-0.015152
0.00723196	-0.0510806	0.0485492
0.0490935	-0.0490921	-0.0490967
0.00841036	-0.00840703	-0.00841816
-0.0144746	0.0293079	-0.0286973
-0.0638818	-0.0684885	0.0684888
0.0260309	0.018566	-0.0185668
0.0507709	-0.0420931	-0.0493801
-0.0149036	0.42424	-0.425267
0.00333194	-0.0594937	0.0587044
-0.0229485	-0.253203	0.254339
-0.0111946	0.0111941	0.0111957
0.0404526	-0.0404526	-0.0404526
-0.0235865	-0.0763669	0.0763982
-0.0128966	-0.0210264	0.0210444
-0.0241992	-0.0203343	0.0203216
0.0367834	-0.0340871	-0.0362922
-0.0388618	0.076812	-0.0781074
0.0248855	-0.0287589	0.0291122
-0.0285036	-0.135779	0.139579
0.0872673	-0.0872677	-0.0872661
0.00433241	-0.0043323	-0.00433266
0.00503598	0.279039	-0.278639
-0.0583457	-0.0689649	0.0689639
0.0153126	0.0212995	-0.0213136
0.0431555	-0.0456387	-0.037357
-0.0110044	-0.187293	0.189583
-0.0408532	0.0504243	-0.0503803
-0.0119256	-0.305654	0.30409
0.00816716	-0.00816367	-0.00817552
-0.00110222	0.00110255	0.00110146
-0.0092294	0.186495	-0.184627
-0.0124717	0.00298134	-0.00293177
3.56267e-05	0.0334557	-0.0334208
0.0474695	-0.0474781	-0.0475893
0.0167426	0.143736	-0.144564
-0.0225422	0.0220556	-0.0221261
-0.00751162	-0.445392	0.444994
0.0371176	-0.0371186	-0.0371152
0.00523595	-0.00523547	-0.00523711
-0.0176197	0.0144634	-0.015152
-0.00777389	-0.245984	0.245609
-0.00133648	-0.00969427	0.00970561
0.00841036	-0.00840703	-0.00841816
-0.0234306	-0.03773	0.0376801
-0.0338051	0.0338653	-0.0338436
0.0260309	0.018566	-0.0185668
0.0279701	-0.0279697	-0.0279712
0.0164692	-0.0164722	-0.0164618
0.00333194	-0.0594937	0.0587044
-0.0767817	-0.074934	0.0749342
-0.023003	-0.0231812	0.0231832
0.0404526	-0.0404526	-0.0404526
-0.0100429	0.0108137	-0.0109658
-0.00269231	0.00280496	-0.0026932
-0.0241992	-0.0203343	0.0203216
-0.0140958	0.0140956	0.0140961
0.00724224	-0.00724542	-0.0072346
0.0248855	-0.0287589	0.0291122
-0.0028792	0.00968057	-0.00969201
-0.0144556	-0.0346622	0.0346947
0.00433241	-0.0043323	-0.00433266
-0.0298986	-0.0543272	0.0539735
0.0760486	-0.0765231	0.0764978
0.0153126	0.0212995	-0.0213136
0.0431555	-0.0456387	-0.037357
0.17238	-0.17238	-0.172378
-0.0408532	0.0504243	-0.0503803
-0.0119256	-0.305654	0.30409
-0.0407993	-0.164158	0.164159
-0.00110222	0.00110255	0.00110146
-0.0092294	0.186495	-0.184627
-0.00956128	-0.562055	0.545227
3.56267e-05	0.0334557	-0.0334208
0.0474695	-0.0474781	-0.0475893
-0.0213196	-0.0690092	0.0712935
-0.0225422	0.0220556	-0.0221261
-0.00751162	-0.445392	0.444994
-0.0263807	0.0263814	0.0263789
0.00523595	-0.00523547	-0.00523711
-0.0176197	0.0144634	-0.015152
-0.0348874	-0.231267	0.230768
-0.00133648	-0.00969427	0.00970561
0.00841036	-0.00840703	-0.00841816
0.00192349	1.20195	-1.20775
-0.0338051	0.0338653	-0.0338436
0.0260309	0.018566	-0.0185668
0.0964271	-0.0964272	-0.0964269
0.0164692	-0.0164722	-0.0164618
0.00333194	-0.0594937	0.0587044
0.0142117	0.00459444	-0.00457157
-0.023003	-0.0231812	0.0231832
0.0404526	-0.0404526	-0.0404526
-0.100438	1.40415	-1.40432
-0.00269231	0.00280496	-0.0026932
-0.0241992	-0.0203343	0.0203216
-0.0164938	0.0164942	0.0164928
0.00724224	-0.00724542	-0.0072346
0.0248855	-0.0287589	0.0291122
-0.00642884	-0.00994159	0.00994608
-0.0144556	-0.0346622	0.0346947
0.00433241	-0.0043323	-0.00433266
0.0234782	0.541126	-0.542297
-0.0203378	0.0201083	-0.0201135
0.0153126	0.0212995	-0.0213136
0.0175152	-0.0175153	-0.0175151
0.0362096	-0.0362094	-0.0362101
-0.0408532	0.0504243	-0.0503803
-0.0505087	-0.0721151	0.0720938
0.0125231	0.0083769	-0.00837629
-0.00110222	0.00110255	0.00110146
-0.0130631	0.458414	-0.457669
-0.00736446	0.0101332	-0.0101635
3.56267e-05	0.0334557	-0.0334208
0.00559957	-0.00559994	-0.00559869
0.0259089	-0.0259237	-0.0258742
-0.0225422	0.0220556	-0.0221261
-0.0213922	-0.190896	0.190933
-0.0252097	-0.0224386	0.0224387
0.00523595	-0.00523547	-0.00523711
-0.00410528	-0.119134	0.119419
-0.017372	0.132282	-0.132455
-0.00133648	-0.00969427	0.00970561
-0.00546193	0.00546213	0.00546147
0.0243103	-0.0243028	-0.0243286
-0.0338051	0.0338653	-0.0338436
0.0234782	-1.45887	1.4577
-0.00541138	0.00230404	-0.00230308
0.0164692	-0.0164722	-0.0164618
-0.0531429	0.0945562	-0.0920616
-0.0218886	0.0757083	-0.075738
-0.023003	-0.0231812	0.0231832
-0.0115716	0.0115718	0.0115711
0.0190571	-0.0190595	-0.0190514
-0.00269231	0.00280496	-0.0026932
-0.0216568	-0.283901	0.277775
-0.0201472	-0.0119988	0.0119986
0.00724224	-0.00724542	-0.0072346
-0.045986	0.0285212	-0.0288374
0.000234125	0.121508	-0.121411
-0.0144556	-0.0346622	0.0346947
-0.00410289	0.00410277	0.00410317
-0.009785	0.00978473	0.00978563
-0.0203378	0.0201083	-0.0201135
-0.029035	-0.188268	0.188898
-0.0024096	0.00193755	-0.00192516
0.0362096	-0.0362094	-0.0362101
-0.011312	0.125338	-0.125591
0.0140673	0.252201	-0.252666
0.0125231	0.0083769	-0.00837629
0.0117108	-0.0117113	-0.0117097
0.0125864	-0.0125866	-0.012586
-0.00736446	0.0101332	-0.0101635
-0.0121102	-0.0897622	0.0916669
-0.00753604	-0.0450792	0.0450803
0.0259089	-0.0259237	-0.0258742
-0.0408183	0.0149149	-0.0150867
-0.0150343	0.0267551	-0.0266339
-0.0252097	-0.0224386	0.0224387
0.000514265	-0.000514199	-0.00051442
0.013076	-0.0130761	-0.0130759
-0.017372	0.132282	-0.132455
-0.0298525	-0.23215	0.2322
-0.0317931	-0.0817895	0.081793
0.0243103	-0.0243028	-0.0243286
-0.0652203	0.0655137	-0.0655096
-0.0196989	0.192491	-0.190368
-0.00541138	0.00230404	-0.00230308
-0.00887768	0.00887787	0.00887723
0.0328466	-0.0328471	-0.0328455
-0.0218886	0.0757083	-0.075738
-0.019024	-0.181285	0.181376
-0.366648	-0.235908	0.264917
0.0190571	-0.0190595	-0.0190514
-0.00269231	0.00280496	-0.0026932
-0.178264	0.24697	-0.217997
-0.0201472	-0.0119988	0.0119986
0.00724224	-0.00724542	-0.0072346
0.286187	-0.286187	-0.286186
0.000234125	0.121508	-0.121411
-0.0144556	-0.0346622	0.0346947
0.000544528	-0.000544264	-0.000545143
-0.009785	0.00978473	0.00978563
-0.0203378	0.0201083	-0.0201135
-0.00720059	-0.261911	0.261835
-0.0024096	0.00193755	-0.00192516
0.0362096	-0.0362094	-0.0362101
-0.0533338	0.0958596	-0.0971774
0.0140673	0.252201	-0.252666
0.0125231	0.0083769	-0.00837629
0.041425	-0.041425	-0.0414252
0.0125864	-0.0125866	-0.012586
-0.00736446	0.0101332	-0.0101635
0.00184918	-0.0714533	0.0715559
-0.00753604	-0.0450792	0.0450803
0.0259089	-0.0259237	-0.0258742
0.038339	-0.061765	0.0617178
-0.0150343	0.0267551	-0.0266339
-0.0252097	-0.0224386	0.0224387
0.0117467	-0.0117472	-0.0117456
0.013076	-0.0130761	-0.0130759
-0.017372	0.132282	-0.132455
-0.0946023	-0.760824	0.786796
-0.0317931	-0.0817895	0.081793
0.0243103	-0.0243028	-0.0243286
0.0177431	0.17652	-0.175922
-0.0196989	0.192491	-0.190368
-0.00541138	0.00230404	-0.00230308
-0.0129248	0.0129245	0.0129257
0.0328466	-0.0328471	-0.0328455
-0.0218886	0.0757083	-0.075738
0.00503598	-1.72096	1.72136
-0.0338378	-0.0700345	0.0780729
0.0190571	-0.0190595	-0.0190514
0.00987862	-0.127665	0.127273
0.000394668	0.20006	-0.200635
-0.0201472	-0.0119988	0.0119986
0.0716287	-0.0716289	-0.0716283
0.0211607	-0.0211604	-0.0211617
0.000234125	0.121508	-0.121411
-0.0185728	-0.968051	0.964543
0.00723196	-0.0510806	0.0485492
-0.009785	0.00978473	0.00978563
-0.123751	0.278936	-0.260306
-0.0144746	0.0293079	-0.0286973
-0.0024096	0.00193755	-0.00192516
-0.00307923	0.00307778	0.00308265
0.0507709	-0.0420931	-0.0493801
0.0140673	0.252201	-0.252666
-0.0225217	0.0412073	-0.0412067
-0.0229485	-0.253203	0.254339
0.0125864	-0.0125866	-0.012586
-0.0684853	0.070342	-0.0704395
-0.0235865	-0.0763669	0.0763982
-0.00753604	-0.0450792	0.0450803
-0.0374494	0.0374493	0.0374495
0.0367834	-0.0340871	-0.0362922
-0.0150343	0.0267551	-0.0266339
-0.0522483	-0.098848	0.0986194
-0.0285036	-0.135779	0.139579
0.013076	-0.0130761	-0.0130759
-0.0271761	0.0499752	-0.0498908
0.00503598	0.279039	-0.278639
-0.0317931	-0.0817895	0.081793
-0.0148651	0.0148651	0.0148649
0.0431555	-0.0456387	-0.037357
-0.0196989	0.192491	-0.190368
-0.0868048	-0.0813328	0.0813322
-0.0119256	-0.305654	0.30409
0.0328466	-0.0328471	-0.0328455
0.00662992	1.09945	-1.11012
-0.0092294	0.186495	-0.184627
-0.0338378	-0.0700345	0.0780729
0.0934502	-0.0934499	-0.093451
0.0474695	-0.0474781	-0.0475893
0.000394668	0.20006	-0.200635
0.0104063	0.0108809	-0.010881
-0.00751162	-0.445392	0.444994
0.0211607	-0.0211604	-0.0211617
-0.0142495	0.177217	-0.176451
-0.0176197	0.0144634	-0.015152
0.00723196	-0.0510806	0.0485492
0.00127994	-0.00128059	-0.00127843
0.00841036	-0.00840703	-0.00841816
-0.0144746	0.0293079	-0.0286973
-0.0638818	-0.0684885	0.0684888
0.0260309	0.018566	-0.0185668
0.0507709	-0.0420931	-0.0493801
-0.0149036	0.42424	-0.425267
0.00333194	-0.0594937	0.0587044
-0.0229485	-0.253203	0.254339
-0.0111946	0.0111941	0.0111957
0.0404526	-0.0404526	-0.0404526
-0.0235865	-0.0763669	0.0763982
-0.0128966	-0.0210264	0.0210444
-0.0241992	-0.0203343	0.0203216
0.0367834	-0.0340871	-0.0362922
-0.0388618	0.076812	-0.0781074
0.0248855	-0.0287589	0.0291122
-0.0285036	-0.135779	0.139579
0.0872673	-0.0872677	-0.0872661
0.010184	-0.0101873	-0.0101762
0.00503598	0.279039	-0.278639
-0.0317931	-0.0817895	0.081793
-0.0144951	-0.0201116	0.0201275
0.0431555	-0.0456387	-0.037357
-0.0196989	0.192491	-0.190368
-0.0580199	-0.690291	0.690293
-0.0119256	-0.305654	0.30409
0.0328466	-0.0328471	-0.0328455
-0.047622	0.726133	-0.732813
-0.0092294	0.186495	-0.184627
-0.0338378	-0.0700345	0.0780729
0.0264735	-0.0264733	-0.0264739
0.0474695	-0.0474781	-0.0475893
0.000394668	0.20006	-0.200635
-0.0932227	-0.0985517	0.0985462
-0.00751162	-0.445392	0.444994
0.0211607	-0.0211604	-0.0211617
-0.00402667	-0.060776	0.0604797
-0.0176197	0.0144634	-0.015152
0.00723196	-0.0510806	0.0485492
0.0490935	-0.0490921	-0.0490967
0.00841036	-0.00840703	-0.00841816
-0.0144746	0.0293079	-0.0286973
-0.0315577	-0.0346304	0.0346304
0.0260309	0.018566	-0.0185668
0.0507709	-0.0420931	-0.0493801
-0.0696776	0.801883	-0.801899
0.00333194	-0.0594937	0.0587044
-0.0229485	-0.253203	0.254339
0.0504261	-0.0504311	-0.0504143
0.0404526	-0.0404526	-0.0404526
-0.0235865	-0.0763669	0.0763982
-0.15754	-0.156047	0.156047
-0.0241992	-0.0203343	0.0203216
0.0367834	-0.0340871	-0.0362922
0.0148779	-0.0713528	0.0716948
0.0248855	-0.0287589	0.0291122
-0.0285036	-0.135779	0.139579
0.0203742	-0.0203762	-0.0203696
0.00433241	-0.0043323	-0.00433266
0.00503598	0.279039	-0.278639
-0.0458284	-0.00645164	0.00644929
0.0153126	0.0212995	-0.0213136
0.0431555	-0.0456387	-0.037357
-0.0602735	0.0507229	-0.0509328
-0.0408532	0.0504243	-0.0503803
-0.0119256	-0.305654	0.30409
0.109681	-0.109682	-0.109678
-0.00110222	0.00110255	0.00110146
-0.0092294	0.186495	-0.184627
-0.0124717	0.00298134	-0.00293177
3.56267e-05	0.0334557	-0.0334208
0.0474695	-0.0474781	-0.0475893
0.0167426	0.143736	-0.144564
-0.0225422	0.0220556	-0.0221261
-0.00751162	-0.445392	0.444994
0.0371176	-0.0371186	-0.0371152
0.00523595	-0.00523547	-0.00523711
-0.0176197	0.0144634	-0.015152
-0.00777389	-0.245984	0.245609
-0.00133648	-0.00969427	0.00970561
0.00841036	-0.00840703	-0.00841816
-0.0234306	-0.03773	0.0376801
-0.0338051	0.0338653	-0.0338436
0.0260309	0.018566	-0.0185668
0.0279701	-0.0279697	-0.0279712
0.0164692	-0.0164722	-0.0164618
0.00333194	-0.0594937	0.0587044
-0.0767817	-0.074934	0.0749342
-0.023003	-0.0231812	0.0231832
0.0404526	-0.0404526	-0.0404526
-0.0100429	0.0108137	-0.0109658
-0.00269231	0.00280496	-0.0026932
-0.0241992	-0.0203343	0.0203216
-0.0140958	0.0140956	0.0140961
0.00724224	-0.00724542	-0.0072346
0.0248855	-0.0287589	0.0291122
-0.0028792	0.00968057	-0.00969201
-0.0144556	-0.0346622	0.0346947
0.00433241	-0.0043323	-0.00433266
-0.0298986	-0.0543272	0.0539735
-0.0203378	0.0201083	-0.0201135
0.0153126	0.0212995	-0.0213136
0.0942648	-0.0942549	-0.0942878
0.0362096	-0.0362094	-0.0362101
-0.0408532	0.0504243	-0.0503803
-0.00226056	0.0444617	-0.044264
0.0125231	0.0083769	-0.00837629
-0.00110222	0.00110255	0.00110146
-0.00580505	0.23864	-0.239578
-0.00736446	0.0101332	-0.0101635
3.56267e-05	0.0334557	-0.0334208
0.00559957	-0.00559994	-0.00559869
0.0259089	-0.0259237	-0.0258742
-0.0225422	0.0220556	-0.0221261
-0.0213922	-0.190896	0.190933
-0.0252097	-0.0224386	0.0224387
0.00523595	-0.00523547	-0.00523711
-0.00410528	-0.119134	0.119419
-0.017372	0.132282	-0.132455
-0.00133648	-0.00969427	0.00970561
-0.00546193	0.00546213	0.00546147
0.0243103	-0.0243028	-0.0243286
-0.0338051	0.0338653	-0.0338436
0.0234782	-1.45887	1.4577
0.00858231	0.0280466	-0.0280723
0.0164692	-0.0164722	-0.0164618
-0.0531429	0.0945562	-0.0920616
-0.018127	0.145163	-0.145321
-0.023003	-0.0231812	0.0231832
0.0404526	-0.0404526	-0.0404526
0.0227733	-0.0227715	-0.0227776
-0.00269231	0.00280496	-0.0026932
-0.0241992	-0.0203343	0.0203216
0.0464779	-0.0464764	-0.0464815
0.00724224	-0.00724542	-0.0072346
0.0248855	-0.0287589	0.0291122
-0.0695791	-0.877524	0.879218
-0.0144556	-0.0346622	0.0346947
0.00433241	-0.0043323	-0.00433266
-0.139831	0.177501	-0.176833
-0.0203378	0.0201083	-0.0201135
0.0153126	0.0212995	-0.0213136
0.0175152	-0.0175153	-0.0175151
0.0362096	-0.0362094	-0.0362101
-0.0408532	0.0504243	-0.0503803
-0.0505087	-0.0721151	0.0720938
0.0125231	0.0083769	-0.00837629
-0.00110222	0.00110255	0.00110146
-0.0130631	0.458414	-0.457669
-0.00736446	0.0101332	-0.0101635
3.56267e-05	0.0334557	-0.0334208
0.0145342	-0.0145343	-0.0145341
0.0259089	-0.0259237	-0.0258742
-0.0225422	0.0220556	-0.0221261
0.0534461	0.133113	-0.132984
-0.0252097	-0.0224386	0.0224387
0.00523595	-0.00523547	-0.00523711
-0.0373282	0.0189484	-0.0184088
-0.017372	0.132282	-0.132455
-0.00133648	-0.00969427	0.00970561
0.0152446	-0.0152445	-0.0152449
0.0243103	-0.0243028	-0.0243286
-0.0338051	0.0338653	-0.0338436
-0.119957	-0.0078298	0.00789542
-0.00541138	0.00230404	-0.00230308
0.0164692	-0.0164722	-0.0164618
-0.0170141	0.462096	-0.461376
-0.0218886	0.0757083	-0.075738
-0.023003	-0.0231812	0.0231832
0.0136201	-0.0136201	-0.0136202
0.0190571	-0.0190595	-0.0190514
-0.00269231	0.00280496	-0.0026932
-0.0806026	-0.0819413	0.081915
-0.0201472	-0.0119988	0.0119986
0.00724224	-0.00724542	-0.0072346
-0.017361	0.251158	-0.249952
0.000234125	0.121508	-0.121411
-0.0144556	-0.0346622	0.0346947
-0.00410289	0.00410277	0.00410317
-0.009785	0.00978473	0.00978563
-0.0203378	0.0201083	-0.0201135
-0.029035	-0.188268	0.188898
-0.0024096	0.00193755	-0.00192516
0.0362096	-0.0362094	-0.0362101
-0.011312	0.125338	-0.125591
0.0140673	0.252201	-0.252666
0.0125231	0.0083769	-0.00837629
0.0117108	-0.0117113	-0.0117097
0.0125864	-0.0125866	-0.012586
-0.00736446	0.0101332	-0.0101635
-0.0121102	-0.0897622	0.0916669
-0.00753604	-0.0450792	0.0450803
0.0259089	-0.0259237	-0.0258742
-0.0408183	0.0149149	-0.0150867
-0.0150343	0.0267551	-0.0266339
-0.0252097	-0.0224386	0.0224387
0.000514265	-0.000514199	-0.00051442
0.013076	-0.0130761	-0.0130759
-0.017372	0.132282	-0.132455
-0.0298525	-0.23215	0.2322
-0.0317931	-0.0817895	0.081793
0.0243103	-0.0243028	-0.0243286
-0.0652203	0.0655137	-0.0655096
-0.0196989	0.192491	-0.190368
-0.00541138	0.00230404	-0.00230308
-0.00887768	0.00887787	0.00887723
0.0328466	-0.0328471	-0.0328455
-0.0218886	0.0757083	-0.075738
-0.019024	-0.181285	0.181376
-0.0338378	-0.0700345	0.0780729
0.0190571	-0.0190595	-0.0190514
-0.111644	0.111248	-0.111296
0.000394668	0.20006	-0.200635
-0.0201472	-0.0119988	0.0119986
0.0413774	-0.0413774	-0.0413772
0.0211607	-0.0211604	-0.0211617
0.000234125	0.121508	-0.121411
-0.0354938	-0.0542379	0.0542936
0.00723196	-0.0510806	0.0485492
-0.009785	0.00978473	0.00978563
-0.123751	0.278936	-0.260306
-0.0144746	0.0293079	-0.0286973
-0.0024096	0.00193755	-0.00192516
-0.00307923	0.00307778	0.00308265
0.0507709	-0.0420931	-0.0493801
0.0140673	0.252201	-0.252666
-0.0225217	0.0412073	-0.0412067
-0.0229485	-0.253203	0.254339
0.0125864	-0.0125866	-0.012586
-0.0684853	0.070342	-0.0704395
-0.0235865	-0.0763669	0.0763982
-0.00753604	-0.0450792	0.0450803
-0.0374494	0.0374493	0.0374495
0.142568	-0.136594	-0.156949
-0.0150343	0.0267551	-0.0266339
-0.0522483	-0.098848	0.0986194
-0.0814583	-0.109664	0.109835
0.013076	-0.0130761	-0.0130759
-0.017372	0.132282	-0.132455
-0.171853	1.03358	-1.03529
-0.0317931	-0.0817895	0.081793
0.0243103	-0.0243028	-0.0243286
-0.139657	0.656652	-0.656362
-0.0196989	0.192491	-0.190368
-0.00541138	0.00230404	-0.00230308
0.0821599	-0.0821599	-0.0821597
0.0328466	-0.0328471	-0.0328455
-0.0218886	0.0757083	-0.075738
-0.0635373	0.00185738	-0.00195857
-0.0338378	-0.0700345	0.0780729
0.0190571	-0.0190595	-0.0190514
0.00987862	-0.127665	0.127273
0.000394668	0.20006	-0.200635
-0.0201472	-0.0119988	0.0119986
0.0716287	-0.0716289	-0.0716283
0.0211607	-0.0211604	-0.0211617
0.000234125	0.121508	-0.121411
-0.0185728	-0.968051	0.964543
0.00723196	-0.0510806	0.0485492
-0.009785	0.00978473	0.00978563
0.0354846	-0.0376426	0.0382718
-0.0144746	0.0293079	-0.0286973
-0.0024096	0.00193755	-0.00192516
0.0402834	-0.0402836	-0.0402828
0.0507709	-0.0420931	-0.0493801
0.0140673	0.252201	-0.252666
-0.00468605	-0.17108	0.164022
-0.0229485	-0.253203	0.254339
0.0125864	-0.0125866	-0.012586
-0.0422943	0.0321824	-0.0329644
-0.0235865	-0.0763669	0.0763982
-0.00753604	-0.0450792	0.0450803
0.0824376	-0.0824377	-0.0824375
0.0367834	-0.0340871	-0.0362922
-0.0150343	0.0267551	-0.0266339
0.0090348	-1.72761	1.7271
-0.0285036	-0.135779	0.139579
0.013076	-0.0130761	-0.0130759
-0.0130314	0.337812	-0.33879
0.00503598	0.279039	-0.278639
-0.0317931	-0.0817895	0.081793
0.0157417	-0.0157418	-0.0157416
0.0431555	-0.0456387	-0.037357
-0.0196989	0.192491	-0.190368
-0.0868048	-0.0813328	0.0813322
-0.0119256	-0.305654	0.30409
0.0328466	-0.0328471	-0.0328455
0.00662992	1.09945	-1.11012
-0.0092294	0.186495	-0.184627
-0.0338378	-0.0700345	0.0780729
0.0934502	-0.0934499	-0.093451
0.0474695	-0.0474781	-0.0475893
0.000394668	0.20006	-0.200635
0.0104063	0.0108809	-0.010881
-0.00751162	-0.445392	0.444994
0.0211607	-0.0211604	-0.0211617
-0.0142495	0.177217	-0.176451
-0.0176197	0.0144634	-0.015152
0.00723196	-0.0510806	0.0485492
0.00127994	-0.00128059	-0.00127843
0.00841036	-0.00840703	-0.00841816
-0.0144746	0.0293079	-0.0286973
-0.0638818	-0.0684885	0.0684888
0.0260309	0.018566	-0.0185668
0.0507709	-0.0420931	-0.0493801
-0.0149036	0.42424	-0.425267
0.00333194	-0.0594937	0.0587044
-0.0229485	-0.253203	0.254339
-0.0111946	0.0111941	0.0111957
0.0404526	-0.0404526	-0.0404526
-0.0235865	-0.0763669	0.0763982
-0.0128966	-0.0210264	0.0210444
-0.0241992	-0.0203343	0.0203216
0.0367834	-0.0340871	-0.0362922
-0.0388618	0.076812	-0.0781074
0.0248855	-0.0287589	0.0291122
-0.0285036	-0.135779	0.139579
0.0872673	-0.0872677	-0.0872661
0.00433241	-0.0043323	-0.00433266
0.00503598	0.279039	-0.278639
-0.0583457	-0.0689649	0.0689639
0.0153126	0.0212995	-0.0213136
0.0431555	-0.0456387	-0.037357
-0.0110044	-0.187293	0.189583
-0.0408532	0.0504243	-0.0503803
-0.0119256	-0.305654	0.30409
0.00816716	-0.00816367	-0.00817552
-0.00110222	0.00110255	0.00110146
-0.0092294	0.186495	-0.184627
-0.0124717	0.00298134	-0.00293177
3.56267e-05	0.0334557	-0.0334208
0.0474695	-0.0474781	-0.0475893
0.0167426	0.143736	-0.144564
-0.0225422	0.0220556	-0.0221261
-0.00751162	-0.445392	0.444994
0.0371176	-0.0371186	-0.0371152
0.00523595	-0.00523547	-0.00523711
-0.0176197	0.0144634	-0.015152
-0.00777389	-0.245984	0.245609
-0.00133648	-0.00969427	0.00970561
0.00841036	-0.00840703	-0.00841816
-0.0234306	-0.03773	0.0376801
-0.0890158	-0.0242608	0.0241553
0.0260309	0.018566	-0.0185668
0.0507709	-0.0420931	-0.0493801
0.254485	-0.25391	-0.255825
0.00333194	-0.0594937	0.0587044
-0.0229485	-0.253203	0.254339
-0.157602	0.024651	-0.0248741
0.0404526	-0.0404526	-0.0404526
-0.0235865	-0.0763669	0.0763982
-0.0535002	-0.753034	0.753365
-0.0241992	-0.0203343	0.0203216
0.0367834	-0.0340871	-0.0362922
0.00685969	-0.127243	0.12688
0.0248855	-0.0287589	0.0291122
-0.0285036	-0.135779	0.139579
-0.0287285	0.0287295	0.0287263
0.00433241	-0.0043323	-0.00433266
0.00503598	0.279039	-0.278639
-0.0458284	-0.00645164	0.00644929
0.0153126	0.0212995	-0.0213136
0.0431555	-0.0456387	-0.037357
-0.0602735	0.0507229	-0.0509328
-0.0408532	0.0504243	-0.0503803
-0.0119256	-0.305654	0.30409
0.109681	-0.109682	-0.109678
-0.00110222	0.00110255	0.00110146
-0.0092294	0.186495	-0.184627
-0.0200469	-0.0182195	0.0182197
3.56267e-05	0.0334557	-0.0334208
0.0474695	-0.0474781	-0.0475893
-0.0423956	0.78067	-0.778673
-0.0225422	0.0220556	-0.0221261
-0.00751162	-0.445392	0.444994
-0.00548552	0.00548472	0.00548739
0.00523595	-0.00523547	-0.00523711
-0.0176197	0.0144634	-0.015152
-0.0348874	-0.231267	0.230768
-0.00133648	-0.00969427	0.00970561
0.00841036	-0.00840703	-0.00841816
0.00192349	1.20195	-1.20775
-0.0338051	0.0338653	-0.0338436
0.0260309	0.018566	-0.0185668
0.0964271	-0.0964272	-0.0964269
0.0164692	-0.0164722	-0.0164618
0.00333194	-0.0594937	0.0587044
0.0142117	0.00459444	-0.00457157
-0.023003	-0.0231812	0.0231832
0.0404526	-0.0404526	-0.0404526
-0.100438	1.40415	-1.40432
-0.00269231	0.00280496	-0.0026932
-0.0241992	-0.0203343	0.0203216
-0.0140958	0.0140956	0.0140961
0.00724224	-0.00724542	-0.0072346
0.0248855	-0.0287589	0.0291122
-0.0028792	0.00968057	-0.00969201
-0.0144556	-0.0346622	0.0346947
0.00433241	-0.0043323	-0.00433266
-0.0298986	-0.0543272	0.0539735
-0.0203378	0.0201083	-0.0201135
0.0153126	0.0212995	-0.0213136
0.0942648	-0.0942549	-0.0942878
0.0362096	-0.0362094	-0.0362101
-0.0408532	0.0504243	-0.0503803
-0.00226056	0.0444617	-0.044264
0.0125231	0.0083769	-0.00837629
-0.00110222	0.00110255	0.00110146
-0.00580505	0.23864	-0.239578
-0.00736446	0.0101332	-0.0101635
3.56267e-05	0.0334557	-0.0334208
0.00559957	-0.00559994	-0.00559869
0.0259089	-0.0259237	-0.0258742
-0.0225422	0.0220556	-0.0221261
-0.0213922	-0.190896	0.190933
-0.0252097	-0.0224386	0.0224387
0.00523595	-0.00523547	-0.00523711
-0.00410528	-0.119134	0.119419
-0.017372	0.132282	-0.132455
-0.00133648	-0.00969427	0.00970561
-0.00546193	0.00546213	0.00546147
0.0243103	-0.0243028	-0.0243286
-0.0338051	0.0338653	-0.0338436
0.0234782	-1.45887	1.4577
-0.00541138	0.00230404	-0.00230308
0.0164692	-0.0164722	-0.0164618
-0.0531429	0.0945562	-0.0920616
-0.0218886	0.0757083	-0.075738
-0.023003	-0.0231812	0.0231832
-0.0115716	0.0115718	0.0115711
0.0190571	-0.0190595	-0.0190514
-0.00269231	0.00280496	-0.0026932
-0.0216568	-0.283901	0.277775
-0.0201472	-0.0119988	0.0119986
0.00724224	-0.00724542	-0.0072346
-0.045986	0.0285212	-0.0288374
0.000234125	0.121508	-0.121411
-0.0144556	-0.0346622	0.0346947
-0.00410289	0.00410277	0.00410317
-0.009785	0.00978473	0.00978563
-0.0203378	0.0201083	-0.0201135
-0.029035	-0.188268	0.188898
-0.0024096	0.00193755	-0.00192516
0.0362096	-0.0362094	-0.0362101
-0.011312	0.125338	-0.125591
0.0140673	0.252201	-0.252666
0.0125231	0.0083769	-0.00837629
0.0117108	-0.0117113	-0.0117097
0.0125864	-0.0125866	-0.012586
-0.00736446	0.0101332	-0.0101635
-0.0121102	-0.0897622	0.0916669
-0.0278281	0.0113728	-0.0113759
0.0259089	-0.0259237	-0.0258742
-0.0225422	0.0220556	-0.0221261
-0.0193196	0.878039	-0.891302
-0.0252097	-0.0224386	0.0224387
0.00523595	-0.00523547	-0.00523711
0.0764196	-0.0764208	-0.0764165
-0.017372	0.132282	-0.132455
-0.00133648	-0.00969427	0.00970561
0.0622226	-0.0622222	-0.0622234
0.0243103	-0.0243028	-0.0243286
-0.0338051	0.0338653	-0.0338436
0.0239281	0.0702205	-0.0702146
-0.00541138	0.00230404	-0.00230308
0.0164692	-0.0164722	-0.0164618
0.0089854	-0.172339	0.172135
-0.0218886	0.0757083	-0.075738
-0.023003	-0.0231812	0.0231832
0.0136201	-0.0136201	-0.0136202
0.0190571	-0.0190595	-0.0190514
-0.00269231	0.00280496	-0.0026932
-0.0806026	-0.0819413	0.081915
-0.0201472	-0.0119988	0.0119986
0.00724224	-0.00724542	-0.0072346
-0.017361	0.251158	-0.249952
0.000234125	0.121508	-0.121411
-0.0144556	-0.0346622	0.0346947
-0.00763431	0.00763428	0.00763438
-0.009785	0.00978473	0.00978563
-0.0203378	0.0201083	-0.0201135
0.0181547	0.0901764	-0.0901458
-0.0024096	0.00193755	-0.00192516
0.0362096	-0.0362094	-0.0362101
-0.0533338	0.0958596	-0.0971774
0.0140673	0.252201	-0.252666
0.0125231	0.0083769	-0.00837629
0.041425	-0.041425	-0.0414252
0.0125864	-0.0125866	-0.012586
-0.00736446	0.0101332	-0.0101635
0.00184918	-0.0714533	0.0715559
-0.00753604	-0.0450792	0.0450803
0.0259089	-0.0259237	-0.0258742
0.038339	-0.061765	0.0617178
-0.0150343	0.0267551	-0.0266339
-0.0252097	-0.0224386	0.0224387
0.0117467	-0.0117472	-0.0117456
0.013076	-0.0130761	-0.0130759
-0.017372	0.132282	-0.132455
-0.0946023	-0.760824	0.786796
-0.0317931	-0.0817895	0.081793
0.0243103	-0.0243028	-0.0243286
-0.0652203	0.0655137	-0.0655096
-0.0196989	0.192491	-0.190368
-0.00541138	0.00230404	-0.00230308
-0.00887768	0.00887787	0.00887723
0.0328466	-0.0328471	-0.0328455
-0.0218886	0.0757083	-0.075738
-0.019024	-0.181285	0.181376
-0.0338378	-0.0700345	0.0780729
0.0190571	-0.0190595	-0.0190514
-0.111644	0.111248	-0.111296
0.000394668	0.20006	-0.200635
-0.0201472	-0.0119988	0.0119986
0.0413774	-0.0413774	-0.0413772
0.0211607	-0.0211604	-0.0211617
0.000234125	0.121508	-0.121411
-0.0354938	-0.0542379	0.0542936
0.00723196	-0.0510806	0.0485492
-0.009785	0.00978473	0.00978563
-0.123751	0.278936	-0.260306
-0.0144746	0.0293079	-0.0286973
-0.0024096	0.00193755	-0.00192516
-0.00307923	0.00307778	0.00308265
0.0507709	-0.0420931	-0.0493801
0.0140673	0.252201	-0.252666
-0.0225217	0.0412073	-0.0412067
-0.0229485	-0.253203	0.254339
0.0125864	-0.0125866	-0.012586
-0.0684853	0.070342	-0.0704395
-0.0235865	-0.0763669	0.0763982
-0.00753604	-0.0450792	0.0450803
-0.0374494	0.0374493	0.0374495
0.0367834	-0.0340871	-0.0362922
-0.0150343	0.0267551	-0.0266339
-0.0522483	-0.098848	0.0986194
-0.0285036	-0.135779	0.139579
0.013076	-0.0130761	-0.0130759
-0.0271761	0.0499752	-0.0498908
0.00503598	0.279039	-0.278639
-0.0317931	-0.0817895	0.081793
-0.0148651	0.0148651	0.0148649
0.0431555	-0.0456387	-0.037357
-0.0196989	0.192491	-0.190368
-0.0868048	-0.0813328	0.0813322
-0.0119256	-0.305654	0.30409
0.0328466	-0.0328471	-0.0328455
0.00662992	1.09945	-1.11012
-0.0092294	0.186495	-0.184627
-0.0338378	-0.0700345	0.0780729
0.0934502	-0.0934499	-0.093451
0.0474695	-0.0474781	-0.0475893
0.000394668	0.20006	-0.200635
0.0104063	0.0108809	-0.010881
-0.00751162	-0.445392	0.444994
0.0211607	-0.0211604	-0.0211617
-0.0142495	0.177217	-0.176451
-0.0176197	0.0144634	-0.015152
0.00723196	-0.0510806	0.0485492
0.00127994	-0.00128059	-0.00127843
0.0392578	-0.0392482	-0.0392803
-0.0144746	0.0293079	-0.0286973
-0.0024096	0.00193755	-0.00192516
-0.226713	-0.138025	0.138036
0.0507709	-0.0420931	-0.0493801
0.0140673	0.252201	-0.252666
0.0264643	0.118031	-0.11883
-0.0229485	-0.253203	0.254339
0.0125864	-0.0125866	-0.012586
-0.00580083	2.02221	-2.01898
-0.0235865	-0.0763669	0.0763982
-0.00753604	-0.0450792	0.0450803
0.0221331	-0.0221338	-0.0221317
0.0367834	-0.0340871	-0.0362922
-0.0150343	0.0267551	-0.0266339
-0.114596	-0.14002	0.140016
-0.0285036	-0.135779	0.139579
0.013076	-0.0130761	-0.0130759
-0.0130314	0.337812	-0.33879
0.00503598	0.279039	-0.278639
-0.0317931	-0.0817895	0.081793
0.0157417	-0.0157418	-0.0157416
0.0431555	-0.0456387	-0.037357
-0.0196989	0.192491	-0.190368
-0.0194215	-0.0231608	0.0231752
-0.0119256	-0.305654	0.30409
0.0328466	-0.0328471	-0.0328455
-0.0876513	0.0412181	-0.0402348
-0.0092294	0.186495	-0.184627
-0.0338378	-0.0700345	0.0780729
0.209649	-0.209649	-0.209649
0.0474695	-0.0474781	-0.0475893
0.000394668	0.20006	-0.200635
-0.0932227	-0.0985517	0.0985462
-0.00751162	-0.445392	0.444994
0.0211607	-0.0211604	-0.0211617
-0.00402667	-0.060776	0.0604797
-0.0176197	0.0144634	-0.015152
0.00723196	-0.0510806	0.0485492
0.0490935	-0.0490921	-0.0490967
0.00841036	-0.00840703	-0.00841816
-0.0144746	0.0293079	-0.0286973
-0.0315577	-0.0346304	0.0346304
0.0260309	0.018566	-0.0185668
0.0507709	-0.0420931	-0.0493801
-0.0696776	0.801883	-0.801899
0.00333194	-0.0594937	0.0587044
-0.0229485	-0.253203	0.254339
0.0504261	-0.0504311	-0.0504143
0.0404526	-0.0404526	-0.0404526
-0.0235865	-0.0763669	0.0763982
-0.0128966	-0.0210264	0.0210444
-0.0241992	-0.0203343	0.0203216
0.0367834	-0.0340871	-0.0362922
-0.0388618	0.076812	-0.0781074
0.0248855	-0.0287589	0.0291122
-0.0285036	-0.135779	0.139579
0.0872673	-0.0872677	-0.0872661
0.00433241	-0.0043323	-0.00433266
0.00503598	0.279039	-0.278639
-0.0583457	-0.0689649	0.0689639
0.0153126	0.0212995	-0.0213136
0.0431555	-0.0456387	-0.037357
-0.0110044	-0.187293	0.189583
-0.0408532	0.0504243	-0.0503803
-0.0119256	-0.305654	0.30409
0.00816716	-0.00816367	-0.00817552
-0.00110222	0.00110255	0.00110146
-0.0092294	0.186495	-0.184627
-0.0124717	0.00298134	-0.00293177
3.56267e-05	0.0334557	-0.0334208
0.0474695	-0.0474781	-0.0475893
0.0167426	0.143736	-0.144564
-0.0225422	0.0220556	-0.0221261
-0.00751162	-0.445392	0.444994
0.0371176	-0.0371186	-0.0371152
0.00523595	-0.00523547	-0.00523711
-0.0176197	0.0144634	-0.015152
-0.00777389	-0.245984	0.245609
-0.00133648	-0.00969427	0.00970561
0.00841036	-0.00840703	-0.00841816
-0.0234306	-0.03773	0.0376801
-0.0338051	0.0338653	-0.0338436
0.0260309	0.018566	-0.0185668
0.0279701	-0.0279697	-0.0279712
0.0164692	-0.0164722	-0.0164618
0.00333194	-0.0594937	0.0587044
-0.0767817	-0.074934	0.0749342
-0.023003	-0.0231812	0.0231832
0.0404526	-0.0404526	-0.0404526
-0.0100429	0.0108137	-0.0109658
-0.00269231	0.00280496	-0.0026932
-0.0241992	-0.0203343	0.0203216
-0.0140958	0.0140956	0.0140961
0.00724224	-0.00724542	-0.0072346
0.0248855	-0.0287589	0.0291122
-0.0028792	0.00968057	-0.00969201
-0.0144556	-0.0346622	0.0346947
0.00433241	-0.0043323	-0.00433266
-0.0298986	-0.0543272	0.0539735
-0.0203378	0.0201083	-0.0201135
0.0153126	0.0212995	-0.0213136
0.0942648	-0.0942549	-0.0942878
0.0362096	-0.0362094	-0.0362101
-0.0408532	0.0504243	-0.0503803
-0.00226056	0.0444617	-0.044264
0.0125231	0.0083769	-0.00837629
-0.00110222	0.00110255	0.00110146
-0.00580505	0.23864	-0.239578
0.0840963	-0.0860694	0.0857852
3.56267e-05	0.0334557	-0.0334208
0.0474695	-0.0474781	-0.0475893
0.129701	-0.129701	-0.1297
-0.0225422	0.0220556	-0.0221261
-0.00751162	-0.445392	0.444994
0.0179395	0.0180488	-0.0180489
0.00523595	-0.00523547	-0.00523711
-0.0176197	0.0144634	-0.015152
-0.00807178	-0.815348	0.803745
-0.00133648	-0.00969427	0.00970561
0.00841036	-0.00840703	-0.00841816
0.0354797	0.0131006	-0.013247
-0.0338051	0.0338653	-0.0338436
0.0260309	0.018566	-0.0185668
0.0964271	-0.0964272	-0.0964269
0.0164692	-0.0164722	-0.0164618
0.00333194	-0.0594937	0.0587044
0.0142117	0.00459444	-0.00457157
-0.023003	-0.0231812	0.0231832
0.0404526	-0.0404526	-0.0404526
-0.100438	1.40415	-1.40432
-0.00269231	0.00280496	-0.0026932
-0.0241992	-0.0203343	0.0203216
-0.0164938	0.0164942	0.0164928
0.00724224	-0.00724542	-0.0072346
0.0248855	-0.0287589	0.0291122
-0.00642884	-0.00994159	0.00994608
-0.0144556	-0.0346622	0.0346947
0.00433241	-0.0043323	-0.00433266
0.0234782	0.541126	-0.542297
-0.0203378	0.0201083	-0.0201135
0.0153126	0.0212995	-0.0213136
0.0175152	-0.0175153	-0.0175151
0.0362096	-0.0362094	-0.0362101
-0.0408532	0.0504243	-0.0503803
-0.0505087	-0.0721151	0.0720938
0.0125231	0.0083769	-0.00837629
-0.00110222	0.00110255	0.00110146
-0.0130631	0.458414	-0.457669
-0.00736446	0.0101332	-0.0101635
3.56267e-05	0.0334557	-0.0334208
0.0145342	-0.0145343	-0.0145341
0.0259089	-0.0259237	-0.0258742
-0.0225422	0.0220556	-0.0221261
0.0534461	0.133113	-0.132984
-0.0252097	-0.0224386	0.0224387
0.00523595	-0.00523547	-0.00523711
-0.0373282	0.0189484	-0.0184088
-0.017372	0.132282	-0.132455
-0.00133648	-0.00969427	0.00970561
-0.00546193	0.00546213	0.00546147
0.0243103	-0.0243028	-0.0243286
-0.0338051	0.0338653	-0.0338436
0.0234782	-1.45887	1.4577
-0.00541138	0.00230404	-0.00230308
0.0164692	-0.0164722	-0.0164618
-0.0531429	0.0945562	-0.0920616
-0.0218886	0.0757083	-0.075738
-0.023003	-0.0231812	0.0231832
-0.0115716	0.0115718	0.0115711
0.0190571	-0.0190595	-0.0190514
-0.00269231	0.00280496	-0.0026932
-0.0216568	-0.283901	0.277775
-0.0201472	-0.0119988	0.0119986
0.00724224	-0.00724542	-0.0072346
-0.045986	0.0285212	-0.0288374
0.000234125	0.121508	-0.121411
-0.0144556	-0.0346622	0.0346947
-0.00410289	0.00410277	0.00410317
-0.009785	0.00978473	0.00978563
-0.0203378	0.0201083	-0.0201135
-0.029035	-0.188268	0.188898
-0.0024096	0.00193755	-0.00192516
0.0362096	-0.0362094	-0.0362101
-0.011312	0.125338	-0.125591
0.0140673	0.252201	-0.252666
0.0125231	0.0083769	-0.00837629
0.0117108	-0.0117113	-0.0117097
0.0125864	-0.0125866	-0.012586
-0.00736446	0.0101332	-0.0101635
-0.0121102	-0.0897622	0.0916669
-0.00753604	-0.0450792	0.0450803
0.0259089	-0.0259237	-0.0258742
-0.0408183	0.0149149	-0.0150867
-0.0150343	0.0267551	-0.0266339
-0.0252097	-0.0224386	0.0224387
0.000514265	-0.000514199	-0.00051442
0.013076	-0.0130761	-0.0130759
-0.017372	0.132282	-0.132455
-0.0298525	-0.23215	0.2322
-0.0317931	-0.0817895	0.081793
0.0243103	-0.0243028	-0.0243286
-0.0652203	0.0655137	-0.0655096
-0.0196989	0.192491	-0.190368
-0.00541138	0.00230404	-0.00230308
-0.00887768	0.00887787	0.00887723
0.0328466	-0.0328471	-0.0328455
-0.0218886	0.0757083	-0.075738
-0.019024	-0.181285	0.181376
-0.0338378	-0.0700345	0.0780729
0.0190571	-0.0190595	-0.0190514
-0.111644	0.111248	-0.111296
0.000394668	0.20006	-0.200635
-0.0201472	-0.0119988	0.0119986
0.0413774	-0.0413774	-0.0413772
0.0211607	-0.0211604	-0.0211617
0.000234125	0.121508	-0.121411
-0.0354938	-0.0542379	0.0542936
-0.376741	-0.805406	0.830848
-0.009785	0.00978473	0.00978563
-0.0203378	0.0201083	-0.0201135
-0.183383	0.491578	-0.484257
-0.0024096	0.00193755	-0.00192516
0.0362096	-0.0362094	-0.0362101
-0.0283918	-0.175099	0.177188
0.0140673	0.252201	-0.252666
0.0125231	0.0083769	-0.00837629
-0.0078181	0.00782033	0.0078128
0.0125864	-0.0125866	-0.012586
-0.00736446	0.0101332	-0.0101635
-0.116476	-0.504895	0.504255
-0.00753604	-0.0450792	0.0450803
0.0259089	-0.0259237	-0.0258742
0.038339	-0.061765	0.0617178
-0.0150343	0.0267551	-0.0266339
-0.0252097	-0.0224386	0.0224387
0.0117467	-0.0117472	-0.0117456
0.013076	-0.0130761	-0.0130759
-0.017372	0.132282	-0.132455
-0.0946023	-0.760824	0.786796
-0.0317931	-0.0817895	0.081793
0.0243103	-0.0243028	-0.0243286
0.0177431	0.17652	-0.175922
-0.0196989	0.192491	-0.190368
-0.00541138	0.00230404	-0.00230308
-0.0129248	0.0129245	0.0129257
0.0328466	-0.0328471	-0.0328455
-0.0218886	0.0757083	-0.075738
0.00503598	-1.72096	1.72136
-0.0338378	-0.0700345	0.0780729
0.0190571	-0.0190595	-0.0190514
0.00987862	-0.127665	0.127273
0.000394668	0.20006	-0.200635
-0.0201472	-0.0119988	0.0119986
0.0716287	-0.0716289	-0.0716283
0.0211607	-0.0211604	-0.0211617
0.000234125	0.121508	-0.121411
-0.0185728	-0.968051	0.964543
0.00723196	-0.0510806	0.0485492
-0.009785	0.00978473	0.00978563
0.0354846	-0.0376426	0.0382718
-0.0144746	0.0293079	-0.0286973
-0.0024096	0.00193755	-0.00192516
0.0402834	-0.0402836	-0.0402828
0.0507709	-0.0420931	-0.0493801
0.0140673	0.252201	-0.252666
-0.00468605	-0.17108	0.164022
-0.0229485	-0.253203	0.254339
0.0125864	-0.0125866	-0.012586
-0.0684853	0.070342	-0.0704395
-0.0235865	-0.0763669	0.0763982
-0.00753604	-0.0450792	0.0450803
-0.0374494	0.0374493	0.0374495
0.0367834	-0.0340871	-0.0362922
-0.0150343	0.0267551	-0.0266339
-0.0522483	-0.098848	0.0986194
-0.0285036	-0.135779	0.139579
0.013076	-0.0130761	-0.0130759
-0.0271761	0.0499752	-0.0498908
0.00503598	0.279039	-0.278639
-0.0317931	-0.0817895	0.081793
-0.0148651	0.0148651	0.0148649
0.0431555	-0.0456387	-0.037357
-0.0196989	0.192491	-0.190368
-0.0868048	-0.0813328	0.0813322
-0.0119256	-0.305654	0.30409
0.0328466	-0.0328471	-0.0328455
0.00662992	1.09945	-1.11012
-0.0092294	0.186495	-0.184627
-0.0338378	-0.0700345	0.0780729
0.0934502	-0.0934499	-0.093451
0.0474695	-0.0474781	-0.0475893
0.000394668	0.20006	-0.200635
0.0104063	0.0108809	-0.010881
-0.00751162	-0.445392	0.444994
0.0211607	-0.0211604	-0.0211617
-0.0142495	0.177217	-0.176451
-0.0176197	0.0144634	-0.015152
0.00723196	-0.0510806	0.0485492
0.00127994	-0.00128059	-0.00127843
0.00841036	-0.00840703	-0.00841816
-0.0144746	0.0293079	-0.0286973
-0.0638818	-0.0684885	0.0684888
0.0260309	0.018566	-0.0185668
0.0507709	-0.0420931	-0.0493801
-0.0149036	0.42424	-0.425267
0.00333194	-0.0594937	0.0587044
-0.0229485	-0.253203	0.254339
-0.0111946	0.0111941	0.0111957
0.0404526	-0.0404526	-0.0404526
-0.0235865	-0.0763669	0.0763982
-0.0128966	-0.0210264	0.0210444
-0.0241992	-0.0203343	0.0203216
0.0367834	-0.0340871	-0.0362922
-0.0388618	0.076812	-0.0781074
0.0248855	-0.0287589	0.0291122
-0.0285036	-0.135779	0.139579
0.0872673	-0.0872677	-0.0872661
0.00433241	-0.0043323	-0.00433266
0.00503598	0.279039	-0.278639
-0.0583457	-0.0689649	0.0689639
0.0153126	0.0212995	-0.0213136
0.0431555	-0.0456387	-0.037357
-0.0110044	-0.187293	0.189583
0.0209461	0.206138	-0.205422
-0.0119256	-0.305654	0.30409
0.00816716	-0.00816367	-0.00817552
0.00536116	-0.00535711	-0.00537069
-0.0092294	0.186495	-0.184627
-0.0338378	-0.0700345	0.0780729
-0.0379532	-0.0155214	0.0155185
0.0474695	-0.0474781	-0.0475893
0.000394668	0.20006	-0.200635
-0.00402728	-0.262339	0.262349
-0.00751162	-0.445392	0.444994
0.0211607	-0.0211604	-0.0211617
-0.109007	0.253474	-0.251061
-0.0176197	0.0144634	-0.015152
0.00723196	-0.0510806	0.0485492
0.00469721	-0.0046974	-0.00469675
0.00841036	-0.00840703	-0.00841816
-0.0144746	0.0293079	-0.0286973
-0.0315577	-0.0346304	0.0346304
0.0260309	0.018566	-0.0185668
0.0507709	-0.0420931	-0.0493801
-0.0696776	0.801883	-0.801899
0.00333194	-0.0594937	0.0587044
-0.0229485	-0.253203	0.254339
0.0504261	-0.0504311	-0.0504143
0.0404526	-0.0404526	-0.0404526
-0.0235865	-0.0763669	0.0763982
-0.15754	-0.156047	0.156047
-0.0241992	-0.0203343	0.0203216
0.0367834	-0.0340871	-0.0362922
0.0148779	-0.0713528	0.0716948
0.0248855	-0.0287589	0.0291122
-0.0285036	-0.135779	0.139579
0.0203742	-0.0203762	-0.0203696
0.00433241	-0.0043323	-0.00433266
0.00503598	0.279039	-0.278639
-0.0458284	-0.00645164	0.00644929
0.0153126	0.0212995	-0.0213136
0.0431555	-0.0456387	-0.037357
-0.0602735	0.0507229	-0.0509328
-0.0408532	0.0504243	-0.0503803
-0.0119256	-0.305654	0.30409
0.109681	-0.109682	-0.109678
-0.00110222	0.00110255	0.00110146
-0.0092294	0.186495	-0.184627
-0.0200469	-0.0182195	0.0182197
3.56267e-05	0.0334557	-0.0334208
0.0474695	-0.0474781	-0.0475893
-0.0423956	0.78067	-0.778673
-0.0225422	0.0220556	-0.0221261
-0.00751162	-0.445392	0.444994
-0.00548552	0.00548472	0.00548739
0.00523595	-0.00523547	-0.00523711
-0.0176197	0.0144634	-0.015152
-0.00777389	-0.245984	0.245609
-0.00133648	-0.00969427	0.00970561
0.00841036	-0.00840703	-0.00841816
-0.0234306	-0.03773	0.0376801
-0.0338051	0.0338653	-0.0338436
0.0260309	0.018566	-0.0185668
0.0279701	-0.0279697	-0.0279712
0.0164692	-0.0164722	-0.0164618
0.00333194	-0.0594937	0.0587044
-0.0767817	-0.074934	0.0749342
-0.023003	-0.0231812	0.0231832
0.0404526	-0.0404526	-0.0404526
-0.0100429	0.0108137	-0.0109658
-0.00269231	0.00280496	-0.0026932
-0.0241992	-0.0203343	0.0203216
-0.0140958	0.0140956	0.0140961
0.00724224	-0.00724542	-0.0072346
0.0248855	-0.0287589	0.0291122
-0.0028792	0.00968057	-0.00969201
-0.0144556	-0.0346622	0.0346947
0.00433241	-0.0043323	-0.00433266
-0.0298986	-0.0543272	0.0539735
-0.0203378	0.0201083	-0.0201135
0.0153126	0.0212995	-0.0213136
0.0942648	-0.0942549	-0.0942878
0.0362096	-0.0362094	-0.0362101
-0.0408532	0.0504243	-0.0503803
-0.00226056	0.0444617	-0.044264
0.0125231	0.0083769	-0.00837629
-0.00110222	0.00110255	0.00110146
-0.00580505	0.23864	-0.239578
-0.00736446	0.0101332	-0.0101635
3.56267e-05	0.0334557	-0.0334208
0.00559957	-0.00559994	-0.00559869
0.0259089	-0.0259237	-0.0258742
-0.0225422	0.0220556	-0.0221261
-0.0213922	-0.190896	0.190933
-0.0252097	-0.0224386	0.0224387
0.00523595	-0.00523547	-0.00523711
-0.00410528	-0.119134	0.119419
-0.017372	0.132282	-0.132455
-0.00133648	-0.00969427	0.00970561
-0.00546193	0.00546213	0.00546147
0.0243103	-0.0243028	-0.0243286
-0.0338051	0.0338653	-0.0338436
0.0234782	-1.45887	1.4577
-0.00541138	0.00230404	-0.00230308
0.0164692	-0.0164722	-0.0164618
-0.0531429	0.0945562	-0.0920616
-0.0218886	0.0757083	-0.075738
-0.023003	-0.0231812	0.0231832
-0.0115716	0.0115718	0.0115711
0.0190571	-0.0190595	-0.0190514
-0.00269231	0.00280496	-0.0026932
-0.0216568	-0.283901	0.277775
-0.0502765	-0.0293697	0.0293473
0.00724224	-0.00724542	-0.0072346
-0.045986	0.0285212	-0.0288374
0.0232234	-0.0593058	0.0593312
-0.0144556	-0.0346622	0.0346947
0.00433241	-0.0043323	-0.00433266
0.143961	-0.143963	-0.143957
-0.0203378	0.0201083	-0.0201135
0.0153126	0.0212995	-0.0213136
0.00893244	-0.0089333	-0.00893044
0.0362096	-0.0362094	-0.0362101
-0.0408532	0.0504243	-0.0503803
-0.0611002	-1.56772	1.56834
0.0125231	0.0083769	-0.00837629
-0.00110222	0.00110255	0.00110146
-0.0224077	-0.138632	0.13792
-0.00736446	0.0101332	-0.0101635
3.56267e-05	0.0334557	-0.0334208
0.0145342	-0.0145343	-0.0145341
0.0259089	-0.0259237	-0.0258742
-0.0225422	0.0220556	-0.0221261
0.0534461	0.133113	-0.132984
-0.0252097	-0.0224386	0.0224387
0.00523595	-0.00523547	-0.00523711
-0.0373282	0.0189484	-0.0184088
-0.017372	0.132282	-0.132455
-0.00133648	-0.00969427	0.00970561
0.0152446	-0.0152445	-0.0152449
0.0243103	-0.0243028	-0.0243286
-0.0338051	0.0338653	-0.0338436
-0.119957	-0.0078298	0.00789542
-0.00541138	0.00230404	-0.00230308
0.0164692	-0.0164722	-0.0164618
-0.0170141	0.462096	-0.461376
-0.0218886	0.0757083	-0.075738
-0.023003	-0.0231812	0.0231832
0.0136201	-0.0136201	-0.0136202
0.0190571	-0.0190595	-0.0190514
-0.00269231	0.00280496	-0.0026932
-0.0806026	-0.0819413	0.081915
-0.0201472	-0.0119988	0.0119986
0.00724224	-0.00724542	-0.0072346
-0.017361	0.251158	-0.249952
0.000234125	0.121508	-0.121411
-0.0144556	-0.0346622	0.0346947
-0.00763431	0.00763428	0.00763438
-0.009785	0.00978473	0.00978563
-0.0203378	0.0201083	-0.0201135
0.0181547	0.0901764	-0.0901458
-0.0024096	0.00193755	-0.00192516
0.0362096	-0.0362094	-0.0362101
-0.011312	0.125338	-0.125591
0.0140673	0.252201	-0.252666
0.0125231	0.0083769	-0.00837629
0.0117108	-0.0117113	-0.0117097
0.0125864	-0.0125866	-0.012586
-0.00736446	0.0101332	-0.0101635
-0.0121102	-0.0897622	0.0916669
-0.00753604	-0.0450792	0.0450803
0.0259089	-0.0259237	-0.0258742
-0.0408183	0.0149149	-0.0150867
-0.0150343	0.0267551	-0.0266339
-0.0252097	-0.0224386	0.0224387
0.000514265	-0.000514199	-0.00051442
0.013076	-0.0130761	-0.0130759
-0.017372	0.132282	-0.132455
-0.0298525	-0.23215	0.2322
-0.0317931	-0.0817895	0.081793
0.0243103	-0.0243028	-0.0243286
-0.0652203	0.0655137	-0.0655096
-0.0196989	0.192491	-0.190368
-0.00541138	0.00230404	-0.00230308
-0.00887768	0.00887787	0.00887723
0.0328466	-0.0328471	-0.0328455
-0.0218886	0.0757083	-0.075738
-0.019024	-0.181285	0.181376
-0.0338378	-0.0700345	0.0780729
0.0190571	-0.0190595	-0.0190514
-0.111644	0.111248	-0.111296
0.000394668	0.20006	-0.200635
-0.0201472	-0.0119988	0.0119986
0.0413774	-0.0413774	-0.0413772
0.0211607	-0.0211604	-0.0211617
0.000234125	0.121508	-0.121411
-0.0354938	-0.0542379	0.0542936
0.00723196	-0.0510806	0.0485492
-0.009785	0.00978473	0.00978563
-0.123751	0.278936	-0.260306
-0.0144746	0.0293079	-0.0286973
-0.0024096	0.00193755	-0.00192516
-0.00307923	0.00307778	0.00308265
0.0507709	-0.0420931	-0.0493801
0.0140673	0.252201	-0.252666
-0.0225217	0.0412073	-0.0412067
-0.0229485	-0.253203	0.254339
