14400
-0.0213473	0.0215739	0.0213257
0.00464721	-0.0434492	0.0435531
0.00510414	0.0292497	-0.0270947
0.0111086	-0.011217	-0.0116063
0.003827	-0.0449012	0.044858
-0.00505459	0.00586867	0.00398577
0.00422096	-0.00977888	0.00982642
0.000899351	0.00068912	-0.000909602
-0.00123243	0.00498629	0.00178723
0.000107906	-0.0098497	0.0106031
-0.0160134	0.0160197	0.015996
0.00391078	-0.0411235	0.0408489
0.00666064	0.0255049	-0.0273612
-0.0127603	0.0155456	0.00859441
-0.0555226	-0.153333	0.154317
0.0106963	-0.00600056	-0.00929595
-0.000859577	0.0674315	-0.0678888
0.00607222	0.00334141	-0.00612219
-0.00930988	-0.0139536	0.017145
-0.0186983	-0.0191565	0.0186839
0.0108575	-0.0113923	-0.00939353
0.00325417	-0.0480926	0.0472035
-0.0543783	-0.0579182	0.0547884
-0.000572183	-0.0208873	0.0226157
-0.0206369	-0.0144049	0.02065
-0.0177168	0.0158194	0.0177196
0.0103457	-0.0263044	0.0265678
-0.00832554	0.00849237	0.00691026
0.00311428	-0.0459792	0.0458363
-0.0037194	0.00871102	-0.00579027
-0.00783744	0.00706732	0.00753339
-0.00139079	-0.0190482	0.0228198
-0.00242805	0.0077212	0.00141273
0.000435099	-0.0213834	0.021493
-0.023891	-0.00691531	0.0238945
-0.00346842	0.00768291	0.00364317
0.00282318	0.00637193	-0.00541734
0.0216646	-0.0101456	-0.0216717
0.00357458	-0.0446629	0.0447005
-0.00184564	0.00206198	0.0026978
0.00620005	-0.00725859	-0.0071289
-0.0459398	-0.045998	0.0459317
-0.00687215	0.00493729	0.0091499
-0.018442	-0.0018413	0.00198438
0.00607222	0.00334141	-0.00612219
-0.00794636	-0.00987417	0.0130176
-0.00213987	0.00502895	0.00166605
0.000477865	0.000430861	0.00151251
0.00032108	0.0161454	-0.0150324
-0.00765611	0.00530256	0.00788447
0.00113725	-0.0396014	0.0403402
0.00562374	0.00183335	-0.00568236
-0.010105	0.00855554	0.0105272
0.00254411	-0.0492205	0.0493496
-0.00483748	0.00539553	0.00449994
-0.000316201	0.0259328	-0.0257755
0.00966889	0.00545702	-0.00964286
-0.00561334	0.00486288	0.00557257
0.0149846	0.0156631	-0.0253801
0.0466565	-0.047706	-0.0465677
0.00454807	-0.047834	0.0467746
0.00427904	0.000932675	-0.00389088
0.00282921	0.00309913	-0.00387424
-0.0026742	0.00272734	0.00305391
-0.00592867	0.00551982	0.00608873
0.00754345	-0.0241125	0.0242393
-0.0108961	-0.0110697	0.0109129
0.00243404	-0.0104721	0.0121369
-0.000333604	-0.00206048	0.00379002
-0.0162081	0.014036	0.0142928
0.000455236	0.0499475	-0.050548
-0.145655	-0.00288426	0.142991
-0.00220825	0.0598494	-0.0624984
-0.000191276	-0.00503538	0.000139542
-0.00310103	0.00463293	0.00157834
0.00357458	-0.0446629	0.0447005
0.0102568	-0.00984815	-0.0102999
-0.0316685	0.0861079	-0.085626
-0.000494638	-0.0353837	0.0371921
0.00218195	0.00209489	-0.000336869
-0.0149181	0.0232696	-0.0275929
-0.0220661	0.0222132	0.0220677
0.00224181	-0.00961671	0.00798526
0.000336142	0.00229309	-0.000513103
-0.000838955	0.00418668	3.93946e-05
0.00491588	0.0279485	-0.0256431
-0.00865109	0.0112439	0.0051641
0.0104753	0.0226443	-0.0224917
-0.000993828	-0.00111198	0.000990859
0.00317701	-0.0262343	0.0265328
-0.116263	-0.0967216	0.10952
0.0180312	-0.0177991	-0.0181836
-0.00211378	0.2164	-0.214063
-0.000438819	4.90408e-05	0.000469706
0.0132088	-0.0185789	0.014347
-0.00506241	-0.00537279	0.00505335
0.0176789	-0.017804	-0.0166881
-0.0752882	0.103362	-0.10712
-0.00563663	0.00154101	0.00875796
0.00357115	-0.0486847	0.0493447
-0.000922956	0.0271611	-0.0205796
-0.0126197	0.0129873	0.0121646
0.00485975	-0.0631507	0.0617499
0.00545263	-0.005485	-0.0050732
0.0009325	0.0810875	-0.0801294
0.00309581	0.0375728	-0.0372085
-0.00399985	0.00759902	0.00304177
-0.0278065	-0.0217083	0.00922884
0.0730462	-0.0727893	-0.0730458
-0.00308658	0.0572146	-0.0572415
0.00333854	0.0149611	-0.0177321
0.123082	-0.122883	-0.123137
0.000909242	-0.00471677	0.00579662
0.0121836	-0.0142366	-0.0125753
0.00320582	-0.0541444	0.0537287
0.00363642	0.00484575	-0.00359186
-0.0501311	0.0502813	-0.022324
-0.0233152	0.231795	-0.230637
0.0316165	-0.0296739	-0.0301453
0.00224181	-0.00961671	0.00798526
-0.0135764	-0.000506281	0.0134871
0.00757445	-0.0300009	0.0299486
-0.0128685	0.0361773	-0.0356918
0.0327598	-0.0437436	-0.0189446
0.00374547	0.0627116	-0.0625365
-0.01661	0.0133487	0.0129253
-0.00253815	0.0117357	-0.0120554
0.00793762	-0.570188	0.572196
0.0109791	-0.0123595	-0.0109124
-0.0120842	-0.0348326	0.0276953
0.0145669	-0.0131559	-0.0144781
-0.00501045	0.0470238	-0.0482942
0.00134177	0.00235127	-0.00137931
0.0225567	-0.0229097	-0.0225646
-0.00519789	0.00634904	0.00557312
-0.0175486	0.0103079	0.0174118
0.00298411	-0.0477036	0.0475678
0.00083616	0.0047789	-0.000908941
0.00233647	-0.0166715	0.0194907
0.00573271	0.00479499	-0.00568099
0.0609624	-0.0608048	-0.0609637
0.00238536	-0.039292	0.0393437
-0.017339	-0.0243318	0.02302
0.00736762	-0.0317659	0.0304874
-0.0136541	-0.0129637	0.0136734
-0.00462967	0.0112684	0.00479282
-0.0119997	0.437608	-0.435761
-0.0109471	0.0117371	0.00713458
0.00376901	-0.00121934	0.000798251
0.00146143	0.00111628	-0.00146876
0.0147156	-0.0148323	-0.0112584
0.0015904	0.0295722	-0.0286269
-0.00772443	0.00656612	0.00795908
-0.00151891	0.0123452	-0.0123557
-0.0131452	-0.0169276	0.0159124
0.115131	-0.115352	-0.115058
-0.00430328	-0.0329398	0.0341395
-0.0196172	0.0192204	0.0198338
-0.0179085	0.0392378	-0.0391529
0.0143395	0.0119699	-0.0136562
-0.0227565	0.0138088	0.0225024
0.00237544	-0.0247318	0.00177876
-0.0233292	0.00502273	0.0216758
0.00654371	-0.0304188	0.030391
0.00316853	0.00045137	-0.00283152
-0.0159977	0.238305	-0.232699
0.00510548	-0.097655	0.0959811
-0.0119308	0.0116218	0.0100434
0.00325417	-0.0480926	0.0472035
-0.000856001	-0.014142	0.0157911
0.00248829	-0.0289333	0.0299696
-0.00994742	-0.0134512	0.00978815
-0.0135767	0.00570454	0.0173758
-0.000316201	0.0259328	-0.0257755
-0.0104117	0.0107001	0.0103955
0.00485975	-0.0631507	0.0617499
0.000686131	0.000355162	-0.000690173
0.0100235	-0.00767517	-0.0129246
0.00371871	0.0659889	-0.0704622
-0.0128924	0.0095432	0.0136851
0.00259971	0.00748751	-0.00951281
0.00248048	0.00316704	-0.00247955
0.0188181	-0.00889336	-0.0173138
0.000478947	-0.00398224	0.007434
0.0767844	-0.0690664	-0.0767916
-0.00550063	0.011707	-0.0117828
-0.000171664	0.00368093	-1.79603e-05
0.0055203	-0.0221716	0.0211501
0.00634889	0.00524022	-0.0050867
-0.0313744	0.00083974	0.0301604
-0.00897466	-0.0109042	0.0113535
-0.0014017	-0.00133344	0.0013938
0.00492144	-0.0122276	0.0105362
0.00134177	0.00235127	-0.00137931
0.0690694	-0.0694974	-0.0693586
0.00538918	-0.0421209	0.0419317
-0.003646	0.00364181	0.0022333
0.00214401	-0.0441992	0.0441684
0.00962694	0.0442283	-0.0473368
0.00256381	-0.00372938	-0.00254351
0.00714368	-0.0110021	0.00849031
-0.00553022	0.00400166	0.00808858
0.000455236	0.0499475	-0.050548
-0.0426747	-0.0440651	0.0426532
-0.0112543	0.0119735	0.0112453
-0.00716027	0.00523726	0.00525309
-0.0460277	0.00649326	0.0469722
-0.00127252	0.0470718	-0.0466506
0.00812	0.069917	-0.0712917
-0.00684339	0.00682572	0.00679309
-0.0313542	-0.023243	0.0313498
0.0185946	-0.0166161	-0.0149138
0.00183911	0.0356455	-0.0386835
0.0035622	0.00135135	-0.00316765
0.0116597	-0.0276629	0.0231636
0.000752325	0.0034655	-0.000837539
0.00191577	-0.00105169	-0.000508961
0.00338085	-0.0205198	0.0207173
-0.00938536	0.00862737	0.00946119
-0.0227585	0.137074	-0.135588
-0.00346448	-0.00293228	0.00346453
-0.0219803	0.0178726	0.0219939
0.00327518	-0.0495054	0.0500848
-0.00244662	0.00190739	0.00275992
-0.00580585	0.103984	-0.103494
0.0034608	0.00267682	-0.0034397
-0.00474808	0.00424171	0.00601205
-0.0321549	0.00849988	0.0210976
0.0203968	-0.0133723	-0.0199639
0.00280557	-0.0176664	0.0183507
0.00509703	0.00789501	-0.00917777
0.0737195	-0.0719496	-0.0737194
-0.0403054	-0.0944669	0.0848676
-0.0118064	0.00704903	0.00982563
-0.00308658	0.0572146	-0.0572415
0.00846839	0.00830397	-0.0084774
-0.00414494	-0.0063317	0.00855585
0.001155	0.000937097	-0.00116858
-0.00370693	0.00507372	0.00727429
-0.000666907	0.0826312	-0.0834732
-0.00573491	-0.0220933	0.0256168
0.00411735	-0.0089587	0.00671463
-0.00994742	-0.0134512	0.00978815
0.00450346	0.00115243	-0.0058541
0.00739797	-0.00371492	0.00386697
-0.00233397	0.00203256	0.00359245
0.00477288	-0.0466254	0.0451832
-0.00356486	-0.181559	0.18451
0.0599939	-0.0599797	-0.0599992
0.00680809	-0.021516	0.0205005
0.00488927	0.00710119	-0.00533339
0.00454807	-0.047834	0.0467746
0.0035622	0.00135135	-0.00316765
-0.0114646	0.0114106	0.0113797
-0.0026742	0.00272734	0.00305391
0.0292507	0.0102038	-0.0313951
0.002472	-0.0255208	0.0256415
-0.0216343	-0.0754447	0.0768496
0.00159724	0.000463794	-0.0043566
0.00598634	0.028649	-0.0293204
0.00181406	-0.000449945	0.000886442
-0.0021366	0.000977307	0.00298486
0.00607222	0.00334141	-0.00612219
-0.00086813	-0.0179541	0.021307
0.000752325	0.0034655	-0.000837539
-0.00643836	0.00655632	0.00741633
-0.0379139	0.0606777	-0.0612662
-0.00997107	0.00653644	0.00708924
0.00289727	-0.00794107	0.00783969
0.00658242	0.0408562	-0.0429722
0.0401558	-0.0411193	-0.0390322
-0.00740086	0.140202	-0.130774
-0.017347	0.0136801	0.0174328
-0.000882045	-0.0198742	0.0209046
0.00579598	0.00430597	-0.00578402
-0.00659666	0.012351	0.00494263
-1.42585	-0.177599	1.42581
0.000978169	-0.000996746	-0.0010809
0.00669411	-0.0206454	0.0209085
-0.0139544	0.0866908	-0.0889363
0.0677159	-0.0688704	-0.0664914
-0.00152036	-0.0217616	0.0229238
0.0376152	-0.0335761	-0.0177791
0.00293863	-0.00936054	0.00965169
0.00562374	0.00183335	-0.00568236
0.00844579	-0.00937269	0.00398833
-0.00546341	-0.207312	0.207456
0.00249403	-0.00133431	-0.0031056
0.00189008	-0.0139488	0.0126096
-0.00247535	0.000124882	0.00107942
0.00137613	-0.0175915	0.017786
-0.0416198	-0.035347	0.038314
-0.015091	0.00536145	0.0184965
-0.00718296	0.0606115	-0.0602458
-0.0021919	0.000399126	0.00348398
0.00254411	-0.0492205	0.0493496
0.00149235	2.61746e-05	-0.00136617
-0.000858798	0.0009933	0.0021691
-0.00239225	-0.00124351	0.00322894
0.0250178	-0.0101889	-0.0273744
0.00348709	-0.0199488	0.0185261
0.000223058	0.0144118	-0.0155955
0.00157281	-0.00215583	0.000437078
0.00148913	0.000283361	0.00166995
0.00382168	-0.00585533	-0.00472945
-0.0345255	0.0902311	-0.0918466
0.00243658	0.00489786	-0.00201079
0.0140894	-0.0173654	0.0129395
-0.000349644	0.0214903	-0.0266993
-0.00546855	0.00926753	0.00574493
0.0145902	-0.0134526	0.0179585
0.00603323	0.00741529	-0.00736828
0.00910805	-0.0270937	0.0239222
0.00674364	0.00425581	-0.00674003
-0.000903648	-0.00221702	0.00524927
0.00881801	-0.0733382	0.0735546
-0.00297921	0.00452091	0.00330259
-0.00672488	0.0503368	-0.0501923
0.00312036	0.000377987	0.000402741
0.00267875	-0.00401881	-0.00275927
-0.0941578	0.0943353	-0.0940374
0.105691	-0.106417	-0.105654
0.00611969	-0.0108375	0.00988033
0.0035622	0.00135135	-0.00316765
-0.00912249	0.0111877	0.00898457
0.00455961	0.00899478	-0.0079753
-0.00214052	0.00401978	0.00210481
0.00475693	-0.00489602	0.00487918
-0.0103488	-0.0105704	0.0103456
-0.00755	0.00740859	0.0083058
-0.0223761	0.0126227	0.00651305
0.00331002	-0.0032178	-0.0024621
-0.00292774	0.0191474	-0.0197819
0.00363642	0.00484575	-0.00359186
-0.112076	0.112237	-0.0864461
0.00483996	0.00125753	-0.00444634
-0.00603718	0.00714645	0.00573495
-0.000519769	0.00464304	-0.00476641
-0.0191361	-0.0386771	0.0398729
0.000229878	0.0114413	-0.0106965
-0.00239225	-0.00124351	0.00322894
-0.0217817	0.00933226	0.0260673
-0.0112845	0.051811	-0.0517301
-0.00151202	0.0030598	0.00165159
0.000312802	-0.036845	0.0381562
-0.00353656	0.0967387	-0.0874212
0.00336285	-0.00339104	-0.00337621
-0.0605452	-0.0566454	0.0574723
-0.0126466	0.00916872	0.0134068
0.00722705	-0.00464756	0.0025781
0.00771371	0.0063185	-0.00756391
0.018836	-0.0189549	-0.0188737
0.000569381	-0.0187641	0.0189317
-0.0198797	0.014935	0.0190059
-0.0457816	0.0566792	-0.0557149
-0.00158674	0.0267283	-0.0180517
0.0135196	0.0483637	-0.0567782
0.00401806	0.00222629	-0.00408468
-0.022785	0.015045	0.0227954
-0.0136647	-0.00748758	0.00875121
0.00876697	0.00296977	-0.00421515
-0.0294604	0.0801985	-0.0815705
0.00846839	0.00830397	-0.0084774
-0.00659666	0.012351	0.00494263
-0.00157421	0.0278054	-0.0274054
-0.00185394	0.00177312	0.00178015
5.05708e-05	-0.0261806	0.0270598
0.00713397	0.00480273	-0.00682863
-0.0192226	0.0104378	0.0190892
-0.00385312	0.0114569	-0.0118131
0.0330203	-0.0386415	-0.0330254
0.000455236	0.0499475	-0.050548
0.00598634	0.028649	-0.0293204
0.0185009	-0.0153376	-0.0180136
-0.0960979	-0.0416828	0.10182
0.0447601	-0.00660842	-0.0453715
0.00418939	-0.0056105	0.0063943
0.00807332	0.00414918	-0.00689389
0.0706352	-0.0711452	-0.0706103
0.00440519	0.00236528	-0.00447047
0.074399	-0.0729642	-0.0747881
-0.00501045	0.0470238	-0.0482942
0.00458485	0.00317315	-0.00346143
-0.0100658	1.92204	-1.90586
0.0052435	0.00416495	-0.00479531
-0.0164061	0.0163216	0.0166704
-0.00334125	0.0467887	-0.046414
-0.00496	-8.66742e-05	0.00907371
0.000961504	-0.0249958	0.0263591
0.00344878	0.00620005	-0.00564875
-0.0228277	0.0236069	0.022824
0.00145059	-0.0387199	0.0383845
-0.0116458	0.0113606	0.0115699
0.0339538	-0.034234	0.0284051
-0.0677549	0.090991	-0.0930622
-0.0128613	0.00692286	0.0128011
0.00377869	0.00985793	-0.00816654
0.0819672	-0.0824648	-0.0819795
0.00459554	0.0150244	-0.0139711
-0.0206369	-0.0144049	0.02065
-0.00291623	0.00740711	0.00163467
-0.00683899	-0.211173	0.220552
0.0122014	-0.014457	-0.00897581
-0.00611712	0.0109204	-0.0113866
-0.00087701	-3.01391e-05	0.000906197
-0.00012866	-0.00513072	0.00877569
-0.00087701	-3.01391e-05	0.000906197
-0.00260405	-0.000780518	0.00243038
-0.0151142	0.0270879	-0.0299405
-0.0075266	0.0223065	-0.00874735
-0.00367832	-0.00231557	0.00472645
-0.0109502	-0.0139017	0.0260567
-0.00160592	-0.00595274	0.00192284
0.0124218	0.015149	-0.0147644
-0.0107527	0.0106672	0.0106667
0.00325417	-0.0480926	0.0472035
-0.0133815	-0.0146712	0.0133648
0.21697	-0.217779	-0.216614
-0.00139079	-0.0190482	0.0228198
0.0108977	-0.00847728	-0.0106284
0.00389068	-0.0336258	0.032715
0.00164696	0.0112818	-0.00209368
-0.0238496	0.0236185	0.0238506
0.0146396	0.0288998	-0.0353795
0.0144135	-0.00480113	-0.0130302
-0.00381419	0.0747174	-0.0740477
0.00531402	0.0310037	-0.030303
-0.00540721	0.0963222	-0.106684
0.00243658	0.00489786	-0.00201079
-0.0146574	0.0148317	0.0148465
-0.0196112	0.100723	-0.101921
0.00155414	0.00114027	-0.00159527
-0.0704276	0.0798841	-0.0773694
0.00426548	0.0196339	-0.0151646
-0.0176139	0.00354653	0.015837
4.76469e-05	-0.0110183	0.0111078
-0.00184993	0.00288352	0.00209475
0.000671423	0.00693081	-0.00682065
-0.0131452	-0.0169276	0.0159124
-0.0111222	0.00866619	0.0100068
-0.00490007	-0.00577666	0.00676004
0.00370573	-0.0117842	-0.000312906
-0.0131001	0.0348399	-0.0327688
-0.00087701	-3.01391e-05	0.000906197
0.00292966	-0.00305392	-0.00271976
0.00488919	0.0523329	-0.0476467
0.0422826	-0.0424792	-0.042272
-0.00896772	0.203918	-0.203151
0.00284968	0.00138252	-0.00269087
0.0913913	-0.0841253	-0.0913212
-0.00892143	-0.0126267	0.0081541
0.012003	-0.0107404	-0.00971899
0.00334239	-0.030597	0.030955
0.00146143	0.00111628	-0.00146876
-0.0444282	0.0445638	-0.033347
0.000899351	0.00068912	-0.000909602
0.0324005	-0.0345695	-0.0323436
0.00485975	-0.0631507	0.0617499
-0.0264926	0.0835294	-0.0775512
0.0131236	-0.012802	0.0148501
0.00710006	-0.647167	0.645396
0.0185946	-0.0166161	-0.0149138
-0.00202235	0.45612	-0.453922
-0.0239663	0.0244313	0.0239742
-0.00494098	-0.0216581	0.021689
0.00401806	0.00222629	-0.00408468
0.0267299	-0.0243646	-0.0268254
0.00107174	-0.0494711	0.0529111
0.0276116	-0.027607	-0.0276116
0.00387757	-0.0243931	0.0241767
-0.0265851	-0.00761812	0.0267856
-0.00825428	0.00703429	0.00829233
-0.0146282	0.0159147	-0.003286
0.0105409	-0.0189259	-0.0105412
0.000674679	0.0306208	-0.0302298
-0.0115531	-0.0033109	0.0116456
-0.00118968	-0.0166557	0.0189256
-0.0068646	-0.0177523	0.0172326
-0.0113735	0.00296357	0.0121698
-0.0253659	0.0218478	-0.017965
-0.00199018	0.00384827	0.0020169
0.00829561	-0.018296	0.0153511
0.000985472	0.000680581	-0.000990824
-0.00213002	0.00504763	0.00256743
0.0114865	0.0432307	-0.0427004
0.0603696	-0.062367	-0.060489
0.003827	-0.0449012	0.044858
-0.00224082	0.0220163	-0.0120376
-0.00705998	0.00669814	0.00437442
0.00425555	-0.0486036	0.0485202
0.147234	-0.0340792	-0.14721
-0.00566512	0.047626	-0.0473474
0.00146143	0.00111628	-0.00146876
-0.0122821	0.00898034	0.0129221
-0.106057	-0.0999287	0.111595
0.0321898	-0.0325201	-0.0320756
0.00205784	-0.047216	0.0471342
-3.13543e-05	0.00407975	7.28949e-05
-0.00781027	0.00833263	0.00808714
0.0052435	0.00416495	-0.00479531
0.00181406	-0.000449945	0.000886442
-0.00415699	-0.000168089	0.00278217
-0.0304291	-0.00743	0.0302339
-0.0630613	0.0621682	-0.00562642
-0.00236927	0.00376443	0.00239424
0.0141617	-0.0191272	-0.0159684
0.00400728	-0.0613734	0.0604257
0.0317078	0.0432482	-0.0645834
-0.000316201	0.0259328	-0.0257755
0.00318225	0.087851	-0.0851303
-0.0148746	-0.00318994	0.0166762
0.00392293	-0.0343985	0.0343678
-0.00118346	0.00128476	0.00136823
-0.00140925	-0.00919948	0.00933658
0.00205609	-0.507471	0.509429
0.0168935	-0.0212456	-0.0168649
-0.0690549	-0.143681	0.146459
-0.0200005	0.017588	0.018878
0.00248118	-0.00339615	0.00170511
0.00771371	0.0063185	-0.00756391
0.00157281	-0.00215583	0.000437078
0.000478947	-0.00398224	0.007434
-0.0214252	0.0214194	0.0214267
0.00473633	-0.00659508	0.00640329
-0.0113585	0.000734652	-0.00170534
-0.00357809	0.227563	-0.243731
-0.0213335	-0.0198919	0.0211795
0.0223528	-0.0201109	-0.0203729
-0.0293865	0.0755462	-0.0748802
-0.00177248	-0.000231787	0.00176794
0.00852813	-0.00987867	0.00635268
-0.0014017	-0.00133344	0.0013938
0.0104165	0.00439323	-0.0115392
0.00606209	-0.0480769	0.0478008
-0.00784435	0.00817681	0.00796508
0.00254328	0.0147841	-0.0147611
0.00401806	0.00222629	-0.00408468
0.0112261	-0.0116659	-0.0111127
0.00227386	0.00287909	0.000119936
0.00224508	-0.00204183	-0.00188952
0.00425555	-0.0486036	0.0485202
0.00620415	-0.162834	0.166239
-0.0183636	0.0182413	0.018368
0.0244102	0.0233194	-0.0418295
0.012003	-0.0107404	-0.00971899
0.00298411	-0.0477036	0.0475678
0.00888539	0.0046121	-0.00548348
0.000505503	-0.00064812	-0.000613243
-0.00912451	-0.245338	0.249124
0.0569195	-0.0524128	-0.0569194
-0.00140509	0.01201	-0.0121259
-0.000780643	0.00378052	0.000886147
-6.50498e-05	-0.0373373	0.0404159
0.00435877	0.00465529	-0.00435447
-0.00083888	-0.00208104	0.000787054
0.00257804	0.00184991	-0.00340386
-0.00302721	0.0034428	0.00477958
0.00660737	-0.0185219	0.0182691
-0.00987199	-0.000676358	4.18192e-05
0.00342744	0.00477082	-0.00550292
0.00555544	-0.0445978	0.0431562
-0.0192446	0.0183512	0.0193161
-0.00345592	0.0712213	-0.0711902
-0.0037194	0.00871102	-0.00579027
0.00382168	-0.00585533	-0.00472945
0.00728906	0.00593058	-0.00772365
-0.00478149	0.00714128	0.00593014
0.00176763	-0.0511878	0.0530862
0.00228744	0.00289965	-0.00272973
0.00642412	-0.00106314	-0.00648819
0.0474097	-0.270495	0.222984
0.00777369	-0.00452996	-0.00719204
-0.00907069	0.0251503	-0.0243219
0.00155414	0.00114027	-0.00159527
-0.00597967	0.00613124	-0.0058706
0.0169752	0.0173734	-0.0169675
-0.00450111	0.00560654	0.00680242
-0.0100975	-0.0107682	0.0120484
-0.00280574	0.0215574	-0.0118663
0.00337192	-0.0686992	0.0717027
0.00282318	0.00637193	-0.00541734
-0.00659666	0.012351	0.00494263
-0.00151891	0.0123452	-0.0123557
0.00380261	-0.00353268	-0.00445152
0.00621005	-0.00610449	0.00583689
-0.00184564	0.00206198	0.0026978
0.030338	-0.0361471	-0.0304816
0.00472733	-0.017958	0.0169595
0.0997788	-0.0997733	-0.0996922
0.0010748	-0.0195268	0.0210249
0.00443087	-0.046582	0.0463674
-0.00242805	0.0077212	0.00141273
0.0100169	-0.00131166	-0.000371085
0.147234	-0.0340792	-0.14721
-0.00288817	-0.00547763	0.00550257
0.00228744	0.00289965	-0.00272973
-0.0108071	0.0112413	-0.000944768
0.00562374	0.00183335	-0.00568236
-0.00430173	0.00190342	0.00299728
0.00499861	-0.0397446	0.0378701
-0.000993828	-0.00111198	0.000990859
-0.0233134	0.0217312	-0.0100015
0.00736375	0.00741534	-0.00735829
-0.0132277	0.00853468	0.0130783
0.00154482	-0.0137671	0.0128812
0.024324	-0.0242737	-0.024397
0.0012352	0.0213562	-0.0214609
0.00843349	0.0027536	-0.00586012
0.0826222	-0.0778932	-0.0826135
-0.0249699	0.0629242	-0.0654715
-0.0222876	0.0222953	0.0221646
0.00133205	-0.020693	0.0207063
0.000397169	0.00036794	-0.000383493
-0.0204806	0.018643	0.0204054
0.0258636	0.00209111	-0.0188639
0.0315893	-0.0322227	-0.0317061
-0.00284317	0.0713915	-0.0709122
0.00131065	0.071903	-0.0732697
-0.0142695	0.00885262	0.0153743
-0.00306296	-0.00721972	0.00946981
0.0215876	-0.0283399	-0.0215842
0.00205784	-0.047216	0.0471342
0.000985472	0.000680581	-0.000990824
0.00616404	-0.00676927	0.00142585
-0.000190669	-0.00886118	0.000628209
0.0289095	-0.0283333	-0.026667
0.00100382	0.0412455	-0.0414319
0.00371871	0.0659889	-0.0704622
0.000923721	-0.025621	0.0235612
0.00503938	0.0533033	-0.0532074
-0.0072052	0.00817115	0.000752428
-0.0331653	0.103242	-0.102987
-0.0179566	0.0171232	0.0180836
-0.0107118	0.0522973	-0.0528158
-0.019421	-0.0207271	0.0194236
0.0313315	-0.0328468	-0.0313274
-0.0123648	0.0136544	-0.0191929
0.00588309	-0.00660913	-0.00571182
0.00248118	-0.00339615	0.00170511
0.0109757	0.0115011	-0.010972
-0.0127603	0.0155456	0.00859441
0.0378052	0.0423669	-0.0735335
-0.0194496	0.01136	0.0132682
-0.00148575	0.043831	-0.0436376
-0.000171664	0.00368093	-1.79603e-05
0.00212749	-0.00208497	0.00485381
0.00243858	0.00208389	-0.00168819
-0.00771249	0.00496918	0.00596242
0.00272368	-0.0479499	0.0479455
0.00284968	0.00138252	-0.00269087
-0.00681951	-0.00903082	0.0118434
0.00177589	0.00108393	-0.00174751
0.00227006	-0.00166496	0.000315102
-0.00128514	0.0164168	-0.0161731
-0.0056557	0.00553772	0.00577447
-0.0177272	0.0503659	-0.0503749
0.00148913	0.000283361	0.00166995
0.0542115	-0.0539445	-0.0541964
0.0040729	-0.048292	0.0486077
0.00434393	-0.00433039	-0.000370431
-0.00364945	0.00216328	-0.00171545
0.0035622	0.00135135	-0.00316765
0.00186587	-0.00276323	-0.00264
0.0100169	-0.00131166	-0.000371085
0.00554837	-0.00657508	-0.00554854
0.00720095	-0.0320025	0.0318538
-0.00367916	-0.00368596	0.00364659
0.011196	-0.0113012	-0.0112184
-0.0155746	0.00958744	-0.00637524
-0.0508602	0.0101524	0.0511019
-0.00853701	0.102119	-0.101447
-0.0240043	-0.00978869	0.0234056
-0.0521113	0.0522558	-0.0293562
0.00639407	0.00303823	-0.00320399
-0.00781476	0.00476038	0.0073733
-0.00261852	0.0812281	-0.0814611
-0.112225	0.00809075	0.0926001
-0.00465861	0.0460784	-0.0461043
-8.79993e-05	0.042024	-0.0348437
-0.00698735	-0.00144639	0.00695737
-0.0196252	0.0922749	-0.0895171
0.00713552	-0.0101177	-0.00609318
-0.00477011	0.0402009	-0.0428192
0.00572834	-0.0513104	0.0508087
-0.0077791	0.00735062	0.00557509
0.00345528	-0.00744847	0.00349949
0.00617731	0.00818133	-0.00640601
0.00248118	-0.00339615	0.00170511
-0.0102681	-0.029943	0.0271359
0.0271727	-0.0276669	-0.0254588
-0.0340311	-0.0980835	0.101815
0.0030383	-0.00117996	-0.00329729
-0.00381419	0.0747174	-0.0740477
0.00455961	0.00899478	-0.0079753
-0.050905	0.0509834	-0.0248846
-0.00607738	-0.0059471	0.00610466
0.00172875	0.00675908	-0.00250478
0.00145059	-0.0387199	0.0383845
0.00241931	-0.0093588	0.00911773
-0.0108079	0.00568377	-0.00462527
-0.00104607	-0.0331653	0.0326185
0.00461298	0.00861345	-0.00538077
-0.0482738	0.0792231	-0.0805595
0.020484	-0.0215817	-0.0206716
-0.00285126	0.00451091	-0.00384163
0.00641883	-0.138577	0.138401
0.021994	-0.0233141	-0.0206451
-0.0101872	0.0445438	-0.0427177
0.0185367	-0.0183621	-0.0179352
0.00439835	-0.0485569	0.0479878
0.0108324	0.00488718	-0.00936343
0.0424183	-0.0431239	-0.0423007
-0.00150786	0.0137711	-0.0072131
0.0494942	-0.0507434	-0.0362872
-0.00550063	0.011707	-0.0117828
-0.0131431	-0.0125534	0.0131233
-0.00431671	0.00590547	0.00433105
0.00598634	0.028649	-0.0293204
-0.0318008	0.0163695	0.0311362
-0.0278488	0.0262712	-0.024711
0.00771062	0.00625801	-0.005816
0.00317701	-0.0262343	0.0265328
-0.00199018	0.00384827	0.0020169
0.0311569	-0.0314027	-0.0317203
0.00224181	-0.00961671	0.00798526
0.0470318	-0.0300396	-0.0468971
-0.00277721	0.0547621	-0.0546914
0.00698477	0.0375054	-0.0393566
-0.00927632	0.00857164	0.00645404
0.00477288	-0.0466254	0.0451832
-0.0302381	0.0116615	0.0303365
-0.00274886	-0.0212869	0.022413
0.00309581	0.0375728	-0.0372085
0.00483922	-0.00931457	-0.00499256
0.00344878	0.00620005	-0.00564875
0.0763776	-0.0742624	-0.0763775
0.00260028	0.00367518	-0.00498029
-0.00346448	-0.00293228	0.00346453
0.0022974	0.00785714	-0.00314086
-0.0037194	0.00871102	-0.00579027
-0.00397477	0.00545692	0.00590431
0.00627732	-0.0241898	0.024438
-0.00204701	-0.00233113	0.00204203
-0.0124511	0.0257328	-0.0270769
-0.00715474	-0.00752849	0.00714519
-0.015021	0.0151289	0.0117608
-0.000383524	0.0178221	-0.017789
-0.0242992	0.00469196	0.017806
-0.0422059	0.123111	-0.0861528
0.0052435	0.00416495	-0.00479531
-0.0031777	0.00446567	0.00415284
0.00800039	-0.0495952	0.0494849
0.0324625	-0.030953	-0.032297
0.00255107	-0.0130513	0.0133137
0.00443087	-0.046582	0.0463674
0.0180209	-0.0182644	-0.0130978
0.0117316	0.0644799	-0.0727788
0.0337982	-0.00684833	-0.0351078
0.0012753	0.00530074	-0.00543531
-0.00622636	-0.0107317	0.00612203
-0.0248463	0.00543961	0.0305713
0.000569381	-0.0187641	0.0189317
-0.0237836	0.0120566	0.0237794
0.00757445	-0.0300009	0.0299486
0.00674364	0.00425581	-0.00674003
0.0082319	-0.0122699	-0.00878909
-0.0385113	0.00267136	0.0383698
-0.00326304	0.0018821	0.00780209
0.00477288	-0.0466254	0.0451832
-0.00607738	-0.0059471	0.00610466
-0.0296094	0.0116953	0.00290213
0.00479473	0.00551182	-0.00478836
0.00369784	-0.00359157	-0.00354958
-0.00332491	0.0661878	-0.066087
-0.00376234	0.0044462	0.00244819
0.00720095	-0.0320025	0.0318538
-0.00224082	0.0220163	-0.0120376
0.00805191	-0.0133699	-0.00360991
0.00325417	-0.0480926	0.0472035
-0.00832023	-0.00448716	0.00830173
0.0155858	-0.0149119	0.0184683
-0.0106346	0.0401855	-0.0403066
0.00783019	-0.00439066	-0.00495167
-0.00341518	0.00304037	-0.00214989
0.0324492	-0.0342414	-0.0339437
0.00425555	-0.0486036	0.0485202
0.00633323	0.00101118	-0.0022015
-0.00923785	0.0103975	0.00871847
0.0100169	-0.00131166	-0.000371085
0.139936	-0.120141	-0.136883
0.0042012	-0.00993774	0.00975422
0.00605448	0.00652304	-0.00603482
0.00667406	-0.0299628	0.027919
-0.00755305	-0.0114209	0.0050139
-0.0103062	0.00804594	0.0109184
-0.00332491	0.0661878	-0.066087
-0.0347101	0.00957981	0.022532
-0.00883869	0.0257261	-0.0225698
-0.0342282	0.0295479	-0.0272634
0.0106963	-0.00600056	-0.00929595
-0.0200767	0.0395116	-0.0393637
-0.00764147	0.00631311	0.00971006
0.00260028	0.00367518	-0.00498029
0.00736375	0.00741534	-0.00735829
0.0299968	-0.0443088	0.00105397
0.00317701	-0.0262343	0.0265328
0.4211	-0.0600903	-0.407146
0.0024676	0.244195	-0.245876
-0.00416357	0.00916026	0.00430255
-0.0145818	0.0118635	0.0115197
0.00728906	0.00593058	-0.00772365
0.0335023	-0.0331818	-0.0154092
-0.00216661	0.00114943	-0.000803283
-0.00124909	0.000932382	0.00113605
0.00757349	-0.00847554	0.004548
0.0260912	0.0188483	-0.0260948
-0.00123994	0.00419326	0.00232851
0.00227097	-0.0453161	0.0455883
0.00771371	0.0063185	-0.00756391
-0.0450009	0.0439496	-0.0423049
0.00440519	0.00236528	-0.00447047
-0.00487433	0.000935773	0.00766571
-0.0121331	-0.0395096	0.0397409
0.0212812	-0.0225177	-0.021105
0.00337953	0.00974983	-0.00977692
0.0012395	0.0201736	-0.0188986
-0.0195309	0.00934189	0.0197317
0.00189008	-0.0139488	0.0126096
0.00100405	-0.00139072	0.000850262
0.00469839	-0.0119186	0.0131037
-0.00110984	0.054685	-0.0576924
0.00896409	-0.0129617	-0.00927993
-0.190475	0.0677701	0.0961315
-0.00185879	0.000741242	0.00187757
4.76469e-05	-0.0110183	0.0111078
0.00845688	0.00736769	-0.00845373
-0.00700856	0.00593597	0.0073963
-0.00524292	0.0109147	-0.00517945
-0.000858798	0.0009933	0.0021691
-0.00272141	0.0151025	-0.015109
-0.00346448	-0.00293228	0.00346453
0.00667406	-0.0299628	0.027919
-0.000191392	-0.00523749	0.000199827
-0.0142323	-0.00434304	0.0129789
0.00327518	-0.0495054	0.0500848
0.0172666	0.0136295	-0.0231335
0.00409914	-0.00509493	0.00449344
-0.00450722	0.13877	-0.140067
-0.00400733	0.0082944	0.00379374
-0.00260095	0.0181243	-0.0192612
0.00292966	-0.00305392	-0.00271976
0.00841466	-0.0123475	0.01419
0.00573271	0.00479499	-0.00568099
0.0120539	-0.0140445	-0.0115913
0.0155217	0.0202793	-0.0334476
-0.00591301	0.00887488	0.00557435
0.00264694	0.000593223	-0.00158321
-0.00124586	-0.235509	0.233934
-0.00440774	0.00407847	0.00585375
0.000138021	0.0208294	-0.0136171
0.235996	-0.0687388	-0.236242
-0.0073325	-0.0243808	0.0241965
-0.00374745	-0.394346	0.392938
-0.00139079	-0.0190482	0.0228198
0.00888965	0.0558954	-0.0580848
-0.0023776	0.0123928	0.00242364
0.00257804	0.00184991	-0.00340386
-0.0246803	-0.0207903	0.0251781
-0.00139079	-0.0190482	0.0228198
0.00346731	0.00400752	-0.00335503
-0.00404873	0.00281475	0.00471821
0.00478099	0.0150338	-0.0147861
-0.00989336	0.00983397	0.0102343
0.0010247	-0.0424859	0.0422599
0.00146143	0.00111628	-0.00146876
0.00911169	-0.015087	-0.00937846
-0.00632891	0.0276003	-0.0314006
0.00393389	-0.00347526	-0.00251291
0.00157853	-0.0379186	0.0378432
0.00587583	-0.091193	0.0879376
-0.0113029	0.0124111	0.0074236
-0.0590598	-0.0673137	0.0902794
-0.00195716	-0.00105657	0.00169838
-0.00763346	0.64053	-0.640933
0.00410734	0.0368651	-0.0387229
0.0644698	-0.0611051	-0.0640583
0.00466668	0.0721717	-0.0719309
0.0508182	0.00671405	-0.0636502
0.00350773	-0.00615025	0.00638643
0.00316853	0.00045137	-0.00283152
0.00358881	0.00325853	-0.00176607
0.00146294	0.00130271	-0.00146385
0.0172781	-0.0160931	-0.0171925
0.0024676	0.244195	-0.245876
0.00470002	-0.0030385	-0.00431635
0.00739288	-0.0259311	0.0258911
0.00426548	0.0196339	-0.0151646
-0.0179986	0.00636272	0.021081
0.00667704	-0.0105615	0.00938036
0.0249368	-0.024666	-0.0237479
-0.0484888	0.0482584	-0.0423306
-0.00502979	-0.00664494	0.00498452
0.0274875	-0.0282371	-0.0255346
0.00455961	0.00899478	-0.0079753
0.122853	-0.122498	-0.122853
0.00314031	-0.0419671	0.0406003
-0.00469946	0.0128882	-0.0104213
-0.0122075	0.00957696	0.0124032
-0.0080765	0.00854282	-0.00437374
-0.00227094	0.00560948	0.00223583
0.000671423	0.00693081	-0.00682065
0.00846839	0.00830397	-0.0084774
0.00317701	-0.0262343	0.0265328
-0.00413473	-0.00951775	0.00407481
-0.00204513	0.00534825	0.00420769
0.00145059	-0.0387199	0.0383845
-0.000410975	0.00422639	-1.56537e-05
0.00358881	0.00325853	-0.00176607
-0.00354781	-0.00326487	0.00351313
-0.00671373	0.00380145	0.00615962
-0.00199351	0.00827255	-0.00764806
0.0095508	-0.00975028	-0.0095945
0.00800039	-0.0495952	0.0494849
0.00584778	0.0121732	-0.0107301
-0.00800724	0.00139187	0.00655494
0.00730647	0.0500361	-0.056845
-0.00562287	-0.00316618	0.00651193
-0.00334313	0.0268824	-0.025892
0.00509016	0.00516569	-0.00510829
-0.027216	0.00870408	0.0251008
0.0274874	0.0042837	-0.0219666
-0.0364653	0.0303905	0.0364651
0.000125435	-0.00719201	0.00725781
0.0160852	0.010054	-0.0131577
-0.0173032	0.00854137	0.0172767
-0.00416039	-0.004012	0.00416712
-0.0144144	0.0121832	0.014758
-0.00274886	-0.0212869	0.022413
0.00846839	0.00830397	-0.0084774
-0.0128881	0.027133	-0.0261622
0.00316853	0.00045137	-0.00283152
-0.0122127	0.00695894	0.0122021
-0.00863804	0.191392	-0.190856
0.0114547	-0.0123633	-0.0117176
0.0012245	-0.0400809	0.0400716
-0.00296085	0.004888	-0.00246584
-0.0115676	0.0106938	0.00540269
-0.00191529	0.00757376	-0.00845571
0.00816451	-0.00661877	-0.0054167
0.00223891	-0.0122598	0.0119967
-0.000389952	-0.0184798	0.0259218
0.112349	-0.116406	-0.11237
0.00459822	-0.00952192	0.00615669
-0.00429213	0.0041926	0.0042815
0.00383197	-0.000498071	0.000428832
-0.00306296	-0.00721972	0.00946981
0.0557203	-0.0543474	-0.0569641
-0.000809859	0.0777541	-0.0773529
-0.0145195	0.0140788	0.010407
0.00640425	-0.0486543	0.0485753
0.000397169	0.00036794	-0.000383493
-0.0203055	-0.00335607	-0.000837275
0.00187996	0.027925	-0.0242372
0.0248187	-0.0243991	-0.0246811
0.00273665	-0.0308955	0.0287758
-0.00128066	0.00354275	-0.0028762
-0.0367822	0.138292	-0.10514
0.00521599	-0.133721	0.133135
-0.00181025	0.0110764	0.000268993
-0.0329812	0.11849	-0.119122
0.0102967	-0.00107775	-0.0146239
0.00113725	-0.0396014	0.0403402
-0.00639602	-0.00701508	0.00638207
-0.00926016	0.00834001	0.0092082
-0.00842175	0.036492	-0.0404299
-0.00516141	0.00575608	0.00577088
0.00327518	-0.0495054	0.0500848
-1.92344	-0.0108636	1.92419
-0.00210303	0.00921868	0.00240671
-0.0347101	0.00957981	0.022532
0.133617	-0.130549	-0.133615
0.00400203	-0.00300607	0.00345118
-0.00492912	-0.00173137	0.000632116
-0.000572183	-0.0208873	0.0226157
0.00517514	0.00216196	-0.00517902
-0.00353825	0.0125351	0.00366332
0.00233115	-0.0310992	0.0316543
0.00603323	0.00741529	-0.00736828
-0.000572183	-0.0208873	0.0226157
-0.000888282	-0.00539832	0.0021484
-0.00589088	0.00628937	0.00564597
-0.0361568	0.0886386	-0.0884721
-0.00704459	0.00758971	0.00773988
0.00405386	-0.0119983	0.012731
0.00445163	-0.000113071	-0.00157947
-0.00980639	0.0100823	0.00468777
-0.00119924	0.062218	-0.0627203
0.0760373	-0.00137035	-0.0759941
0.00508997	0.00443682	-0.00417529
-0.0150086	-0.0108039	0.0146366
0.0290921	-0.0300988	-0.0143636
0.0229342	0.0287405	-0.0424817
-0.00757895	0.0073804	0.0078239
0.00547191	-0.0046378	0.00460631
0.00290214	-0.000178136	-0.00300295
-0.00370529	0.00414501	0.0049148
-0.00277805	-0.29744	0.309446
-0.00766775	0.0087879	0.00839561
0.00164713	-0.0200026	0.0214355
0.001155	0.000937097	-0.00116858
-0.00254363	-0.0191158	0.019212
-0.00346448	-0.00293228	0.00346453
-0.00692509	0.00604497	0.00701155
-0.0100975	-0.0107682	0.0120484
0.00345528	-0.00744847	0.00349949
-0.00161906	0.0542711	-0.0536944
-0.00137432	-0.212355	0.209395
-0.0169563	-0.00512609	0.0209486
-0.00239357	0.030339	-0.0316417
-0.00709481	0.00698758	0.00671454
-0.00775313	0.00308076	-0.00481363
0.000402527	0.00144092	-0.000409592
-0.0138379	0.0140023	0.0139123
-0.0284954	-0.0793872	0.0798936
0.0124298	-0.014662	-0.0122733
0.00602056	0.000930517	-0.00129667
-0.000335004	0.00281551	0.000568637
0.00276608	-0.0043898	-0.00340766
0.00173248	-0.0140489	0.0139528
-0.017384	0.00363661	0.0167355
0.00639357	-0.0203494	0.0202223
0.00132618	0.00141045	-0.00133559
-0.00458497	-0.00216689	0.003149
0.00771371	0.0063185	-0.00756391
-0.0148412	0.0145798	0.0139581
0.000455236	0.0499475	-0.050548
-0.0190096	-0.00248773	0.0190654
0.00730647	0.0500361	-0.056845
-0.0189868	-0.00804334	0.018065
-0.00142968	0.000248933	-0.00199915
0.00694552	-0.0215	0.0217552
-0.0229252	0.0222062	0.0232776
-0.0961285	0.0479191	-0.0522648
-0.109924	-0.109031	0.109946
0.186807	-0.186467	-0.187381
-0.00710082	0.0602598	-0.0626187
0.00568054	-0.00476971	-0.00801096
0.00151846	-0.0166356	0.0180506
-0.0014017	-0.00133344	0.0013938
-0.0232247	0.0125934	0.0183118
0.00603323	0.00741529	-0.00736828
0.0216365	-0.0160601	-0.0213687
0.0069095	-0.0125621	0.0125706
0.00501365	0.00534748	-0.00502684
-0.0189568	-0.00169596	0.0189546
-0.00524292	0.0109147	-0.00517945
-0.00485005	-0.0111791	0.00849636
0.0017064	-0.0396792	0.0403337
0.00967257	0.00991799	-0.00967979
-0.00577018	0.0058746	-0.00643811
0.00605448	0.00652304	-0.00603482
-6.45896e-05	-0.000649638	7.67664e-05
0.00185118	-0.0346444	0.0339272
0.0129382	0.00820757	-0.0165934
0.00205784	-0.047216	0.0471342
0.00226944	0.00348082	-0.00308103
-0.00980639	0.0100823	0.00468777
-0.00924109	0.0507875	-0.0523708
0.00181406	-0.000449945	0.000886442
-0.0115281	0.069701	-0.0689969
0.000832996	0.0241536	-0.0170212
-0.0098025	0.00965219	0.00633172
0.00953271	-0.00500411	-0.00155278
-0.00475103	0.00850851	0.00492424
-0.000853522	0.193612	-0.190775
0.00401806	0.00222629	-0.00408468
0.00261815	-0.00437307	-0.00222128
-0.0075266	0.0223065	-0.00874735
0.0339429	-0.035501	-0.0339484
0.00137613	-0.0175915	0.017786
-0.00652268	-0.00678898	0.0065053
0.0140894	-0.0173654	0.0129395
-0.0115036	-0.00917224	0.0123299
-0.00538117	0.00650034	0.00676469
0.000313386	0.0573068	-0.0576656
-0.000983109	0.0218201	-0.0154417
0.0163702	0.114659	-0.130063
0.00346731	0.00400752	-0.00335503
-0.00621625	0.00746087	0.00678555
-0.00459224	-0.00805667	0.00831885
-0.0222972	0.0226851	0.0223726
0.000816174	0.021983	-0.0218061
-0.00590298	0.0107295	0.00570474
-0.00171429	0.0136376	0.00158027
-0.00177681	-0.0243394	0.0282168
0.0503771	-0.0507905	-0.0502026
-0.00334313	0.0268824	-0.025892
0.00639407	0.00303823	-0.00320399
-0.009788	-0.00739054	0.0075004
-0.00127548	3.33971e-05	0.00510204
0.00911169	-0.015087	-0.00937846
-0.00781681	0.0394779	-0.0360909
-0.00135404	0.0319704	-0.0274032
0.00393389	-0.00347526	-0.00251291
0.00490848	0.00511125	-0.00489489
0.0493429	-0.0398754	-0.0487597
-0.0031915	-0.00343213	0.00473777
0.00132618	0.00141045	-0.00133559
-0.0207998	0.0128257	-0.0120618
-0.0161958	0.0215459	-0.0207597
-0.0231827	0.0228927	0.0233892
0.00303625	0.240889	-0.243405
-0.0160711	0.0152014	0.0147935
-0.00208276	0.0557483	-0.0554658
-0.00166491	-0.0333278	0.0316712
-0.00438676	0.00527926	0.00262871
0.000312802	-0.036845	0.0381562
0.00525779	-0.00692213	-0.000957277
0.00460827	-0.0030909	0.00288007
-0.0166748	-0.00923863	0.00457354
0.0141341	-0.0135488	-0.0163303
-0.0259856	-0.0601192	0.0608647
0.00186692	-0.00519403	-0.00154802
0.00425555	-0.0486036	0.0485202
0.00508289	0.00586156	-0.00506174
-3.13198e-05	0.00013884	0.000270084
0.00451839	0.0250134	-0.0212391
0.0226759	-0.0175703	-0.0226794
-0.00373375	0.0506604	-0.05069
0.00687792	0.0068863	-0.00686249
0.00691165	-0.0133924	0.0104425
0.00603323	0.00741529	-0.00736828
-0.00652263	0.00687186	0.00720675
-0.00921788	0.0552267	-0.0570861
-0.000310076	0.00100987	0.00234726
-0.0148597	0.0624346	-0.0794421
-0.196411	-0.169598	0.196348
-0.0113735	0.00296357	0.0121698
-0.00465861	0.0460784	-0.0461043
-0.0145818	0.0118635	0.0115197
-0.00740086	0.140202	-0.130774
0.00248048	0.00316704	-0.00247955
-0.00837926	0.00817712	0.00527994
0.00680809	-0.021516	0.0205005
-0.00308925	0.00309385	0.00260209
0.0012753	0.00530074	-0.00543531
-0.00519789	0.00634904	0.00557312
-0.0153671	0.00695324	0.0140839
0.000208059	0.0423649	-0.036759
0.0556498	0.000580825	-0.0503223
0.00479301	-0.0108995	0.0102961
-0.0158618	-0.0178989	0.0158507
0.00051963	-0.0210864	0.0233286
0.00132618	0.00141045	-0.00133559
-0.0112543	0.0119735	0.0112453
0.00702553	-0.0207354	0.0202462
-0.00245208	-0.000816279	-0.000301413
0.00207809	0.463913	-0.462024
0.00293371	-0.0472062	0.0481218
-0.00334084	0.00371425	0.00338999
0.00067186	0.046187	-0.0472328
0.0339431	-0.0330319	-0.0351181
-0.00323947	0.049541	-0.0478327
-0.00756406	-0.00336869	0.00499026
-0.0109471	0.0117371	0.00713458
0.00395474	-0.0365934	0.0344276
-0.00374768	0.00871559	0.00225987
-0.0229529	0.0230024	-0.0254025
0.00282318	0.00637193	-0.00541734
0.00260133	0.00806528	-0.0040933
-0.00257728	-0.295316	0.29705
0.0832041	-0.0827139	-0.0834701
0.00392293	-0.0343985	0.0343678
0.00348693	0.00395795	-0.00447755
0.0118907	-0.0155395	-0.0114086
0.000751765	0.0212613	-0.0140089
-0.000305409	0.000926439	0.00191844
-0.0179502	0.32	-0.318411
0.0136858	0.0142971	-0.0136747
0.00507965	-0.00456885	0.00141749
-0.0014017	-0.00133344	0.0013938
-0.000533133	-0.000910069	0.000409471
0.00508997	0.00443682	-0.00417529
-0.0250629	-0.0341588	0.0289677
0.00365631	0.00217913	-0.00165955
0.00226944	0.00348082	-0.00308103
0.0337982	-0.00684833	-0.0351078
0.003827	-0.0449012	0.044858
-0.00376293	0.00490182	0.00356317
0.0176907	-0.0171896	0.0182682
-0.00087701	-3.01391e-05	0.000906197
0.00233613	0.00639281	-0.00269953
0.00728906	0.00593058	-0.00772365
0.0272795	-0.0236079	-0.0273829
0.00842318	0.0021224	-0.0033805
-0.00218038	-0.237255	0.238143
0.0284612	-0.0281561	-0.0264403
-0.0396527	-0.0621796	0.0682078
-0.0098212	0.0102224	0.00321788
0.00409914	-0.00509493	0.00449344
0.001155	0.000937097	-0.00116858
-0.00240676	-0.0423128	0.0439648
-0.0213335	-0.0198919	0.0211795
-0.0460277	0.00649326	0.0469722
0.00298411	-0.0477036	0.0475678
0.00431234	0.00485284	-0.00431138
0.00730934	0.00199781	-0.00677815
-0.0409783	-0.0546937	0.0524345
0.0299587	-0.0387646	-0.0307476
0.00327195	0.000168487	0.00012713
-0.00440488	0.00162555	0.00696314
0.0048087	-0.00746011	0.00735726
0.00483996	0.00125753	-0.00444634
0.0742949	-0.0741996	-0.0742168
-0.0050271	0.165129	-0.16019
-0.00417656	0.00533977	0.00383865
0.023578	-0.0236597	0.0218209
0.001155	0.000937097	-0.00116858
0.00218195	0.00209489	-0.000336869
-0.132472	-0.105279	0.151
-0.00561466	0.00433299	0.00782975
0.00448416	-0.00128071	0.00257249
-0.0147388	-0.0326682	0.0257929
0.00933546	0.00295454	-0.00938827
-0.0155656	0.00299125	-0.00245369
-0.00687215	0.00493729	0.0091499
-0.00334313	0.0268824	-0.025892
-0.0948573	-0.0934158	0.0948501
0.00317701	-0.0262343	0.0265328
0.00155414	0.00114027	-0.00159527
-0.0204806	0.018643	0.0204054
-0.0148242	0.0653883	-0.0675518
-0.0126443	0.0164114	-0.00274178
-0.0184718	0.0550456	-0.0555228
0.00746678	0.0496372	-0.0517317
-0.00823008	0.00816658	0.00342224
-0.0374998	0.0614925	-0.0591177
-0.0146314	0.00463819	0.0147928
0.0050411	0.0500284	-0.0490669
0.00686464	0.0137964	-0.0149602
-0.00509617	0.000754469	0.0082225
0.000107906	-0.0098497	0.0106031
0.103214	-0.103773	-0.103596
0.00686913	-0.0154764	0.0174734
0.00510548	-0.097655	0.0959811
0.0269281	-0.0294267	-0.0268766
-0.0159049	0.0149908	0.00121238
-0.00518756	0.00499517	0.000988061
-0.00114757	0.00490774	-0.00516622
0.0109757	0.0115011	-0.010972
0.00843739	-0.00898405	0.00556299
-0.0147391	-0.0107722	0.0162376
-0.0344788	0.0162381	0.0246903
0.00189008	-0.0139488	0.0126096
-0.00107593	-0.00964354	0.00689247
-0.00254363	-0.0191158	0.019212
0.00739356	0.00728126	-0.00740296
0.0440492	-0.0445396	-0.0445306
-0.0014453	-0.0140602	0.0149365
0.039744	-0.0339004	-0.0395865
-0.0052795	0.0250525	-0.0250882
0.00967257	0.00991799	-0.00967979
-0.00789893	0.00800276	0.0078551
-0.0128206	0.00577737	-0.00370146
0.0561132	-0.0544864	-0.0551188
-0.000901082	0.0104057	-0.00948615
0.00509016	0.00516569	-0.00510829
0.00218195	0.00209489	-0.000336869
-0.0279895	-0.130563	0.121608
0.115169	-0.112791	-0.118502
4.76469e-05	-0.0110183	0.0111078
-0.0126443	0.0164114	-0.00274178
0.0244538	-0.0179566	-0.0246316
0.0146236	0.0125983	-0.0146209
0.154479	-0.156082	-0.151323
0.00560591	-0.0426251	0.0419522
-0.00128066	0.00354275	-0.0028762
0.0139982	-0.0147597	0.00922181
0.00550036	0.00545943	-0.00550064
0.00541665	-0.00597052	-0.00542293
0.00120728	-0.0322673	0.0333207
-0.00209044	0.00284918	0.00202652
-0.00128514	0.0164168	-0.0161731
0.00431234	0.00485284	-0.00431138
-0.00524571	0.00519481	0.00325305
0.00758228	0.0226882	-0.0253289
0.000477865	0.000430861	0.00151251
0.00770071	0.0235309	-0.0244844
0.000397169	0.00036794	-0.000383493
0.0105646	-0.00898216	-0.00843539
-0.000856001	-0.014142	0.0157911
0.0447535	-0.0450407	-0.0446216
-0.00292774	0.0191474	-0.0197819
0.00440519	0.00236528	-0.00447047
-0.00410091	0.00569472	0.00700935
0.00483996	0.00125753	-0.00444634
0.0339429	-0.035501	-0.0339484
-7.82023e-05	0.0328097	-0.0364619
-0.00652268	-0.00678898	0.0065053
0.00991724	-0.0222164	0.01875
0.00401806	0.00222629	-0.00408468
-0.00949633	0.00971359	0.00939124
-0.036614	0.0919755	-0.0920329
-0.560161	-0.0386379	0.547338
0.0086213	0.00816622	-0.00984978
-0.00965874	-0.00578715	0.00510231
-0.00394091	0.0020146	0.00408149
0.00475693	-0.00489602	0.00487918
0.0196816	-0.0184209	-0.019669
0.00459554	0.0150244	-0.0139711
0.00475555	-0.468632	0.468231
0.0194038	-0.0175914	-0.0195714
0.00233647	-0.0166715	0.0194907
-0.0245952	0.0145712	0.0242967
0.00357115	-0.0486847	0.0493447
0.000208059	0.0423649	-0.036759
-0.0257274	0.024722	0.0257279
-0.0140163	0.0102122	-0.00934874
-0.0120414	-0.0123995	0.0157839
0.00387757	-0.0243931	0.0241767
0.00605448	0.00652304	-0.00603482
-0.0451084	0.0271531	-0.0030044
-0.00148595	-0.000926792	0.00299379
-0.0177962	0.0104034	0.0176308
0.00307906	-0.00339137	0.00430817
0.00508289	0.00586156	-0.00506174
0.0116597	-0.0276629	0.0231636
-0.00367916	-0.00368596	0.00364659
0.0182562	-0.0177114	-0.0186625
0.00123438	-0.00320014	0.00303793
0.00137945	-0.000800518	-0.000892876
0.00440748	-0.0116387	0.0115696
0.00083616	0.0047789	-0.000908941
-0.0165358	0.0126343	0.00844925
0.0031206	-0.0333607	0.0310714
-0.00370693	0.00507372	0.00727429
-0.00730885	0.0540723	-0.0545048
-0.0139544	0.0866908	-0.0889363
-0.00538117	0.00650034	0.00676469
-0.0147391	-0.0107722	0.0162376
-0.0109471	0.0117371	0.00713458
-0.00907069	0.0251503	-0.0243219
0.00440519	0.00236528	-0.00447047
0.0231055	-0.0280378	-0.027063
0.0034804	0.00482857	-0.00421487
0.118697	-0.00366691	-0.11583
0.00508985	-0.0348223	0.0343562
-0.00841327	-0.00856805	0.00840112
-0.00086813	-0.0179541	0.021307
0.00543074	0.00585417	-0.00544914
0.0271591	-0.0271698	-0.0271065
-0.00406392	0.250681	-0.250272
-0.00302659	-0.0147219	0.00949542
0.000259259	0.00395666	-0.00448911
-0.0124762	-0.0111406	0.0124534
0.0118715	-0.0111325	-0.0110833
0.003827	-0.0449012	0.044858
0.0346627	-0.0264227	-0.0345876
0.00686913	-0.0154764	0.0174734
-0.0128685	0.0361773	-0.0356918
0.00426051	-0.0121552	-0.00214111
-0.00268768	-0.0186437	0.0182338
0.156497	-0.156488	-0.156497
0.00357115	-0.0486847	0.0493447
-0.0189166	-0.717784	0.716565
-0.0179245	0.0178339	0.0179284
-0.000333604	-0.00206048	0.00379002
-0.0162349	-0.00233843	0.0184693
0.00478903	-0.00576703	0.00730983
-0.00780784	-0.0117763	0.00781636
0.00691552	0.02186	-0.0310244
0.001155	0.000937097	-0.00116858
0.00360954	-0.0124475	0.000292163
0.003827	-0.0449012	0.044858
0.000899351	0.00068912	-0.000909602
0.00849417	0.0280014	-0.0307601
-0.0113175	-0.0358915	0.0476071
0.00343989	-0.00422927	-0.00340262
0.00448416	-0.00128071	0.00257249
0.00284983	-0.00183282	-0.00285825
0.00548548	-0.010219	0.00946964
-0.0322283	-0.0229074	0.0325281
-0.000305409	0.000926439	0.00191844
-0.0136647	-0.00748758	0.00875121
-0.00289668	0.0037323	0.00394022
-0.00445384	-0.00425896	0.0045684
0.00316853	0.00045137	-0.00283152
-0.00571897	0.00302968	0.00614286
-0.00742971	-0.0435624	0.0381309
0.00748194	-0.00764033	-0.00747823
0.00439086	0.00096729	-0.000954793
0.00573271	0.00479499	-0.00568099
0.00568734	-0.00920455	-0.00143028
-0.00389168	-0.0225627	0.0250575
0.117035	-0.123876	-0.115582
-0.000316201	0.0259328	-0.0257755
0.00370341	0.00365108	-0.00370211
0.00680809	-0.021516	0.0205005
0.00605448	0.00652304	-0.00603482
-0.00988602	0.00978901	0.00980135
0.00185118	-0.0346444	0.0339272
-0.0199822	0.00128037	0.0097809
-0.00896772	0.203918	-0.203151
0.00348693	0.00395795	-0.00447755
-0.000634653	0.00490621	-0.00264877
0.0114865	0.0432307	-0.0427004
-0.00354452	0.0104218	0.00329581
0.00248829	-0.0289333	0.0299696
0.000985472	0.000680581	-0.000990824
-0.00536834	0.00183304	0.00826018
0.00377869	0.00985793	-0.00816654
-0.00430173	0.00190342	0.00299728
-0.000408591	0.104943	-0.105941
-0.00166491	-0.0333278	0.0316712
-0.00231973	0.0117274	0.00146078
-0.000310076	0.00100987	0.00234726
-0.00808437	0.00401301	0.00740349
-0.00363498	0.0220338	-0.0219886
0.000985472	0.000680581	-0.000990824
0.0117314	0.0861285	-0.101286
0.0106249	0.0096726	-0.0106193
0.0329208	-0.0315792	-0.0344773
-0.00334313	0.0268824	-0.025892
0.00531402	0.0310037	-0.030303
-0.00681951	-0.00903082	0.0118434
0.00306669	0.00520958	-0.00302157
0.00519641	-0.00356896	-0.00368938
-0.00157421	0.0278054	-0.0274054
-2.70544e-05	0.00205091	0.000142657
0.00690525	-0.0163544	0.0164866
-0.014716	-0.00171534	0.0145397
-0.0214322	0.0216727	0.0214994
-0.0118235	0.0113644	-0.0191166
-0.00875658	0.0084126	0.00929203
-0.00742481	0.0664765	-0.0677163
-0.00222586	-0.000846408	0.00296202
-0.012356	0.0110604	0.0122863
0.00241931	-0.0093588	0.00911773
-0.0302381	0.0116615	0.0303365
3.10523e-05	-0.00174878	0.00197748
0.00508289	0.00586156	-0.00506174
-0.011351	0.00964577	0.0115146
-0.0282815	-0.00863942	0.0278246
0.00583522	0.00774907	-0.00617033
0.00408976	0.720819	-0.721207
0.00509016	0.00516569	-0.00510829
0.00613183	-0.00606235	0.0035492
-0.000660245	-0.00663387	0.00450054
-0.00200484	0.00705144	0.00285708
0.00210599	-0.0282102	0.0272502
0.0618114	-0.0619457	-0.0618022
0.00486801	-0.0466533	0.0466107
0.00162502	0.00437423	-0.00164854
-0.00262064	-0.00280628	0.00234351
0.00283223	-0.0193921	0.0193942
-0.00398553	0.00390522	0.00611909
-0.00912115	0.160084	-0.161912
0.00926703	0.00891667	-0.00928222
0.0100131	-0.0102279	-0.0104945
-0.0321549	0.00849988	0.0210976
-0.0212694	0.0127302	0.0200042
-0.0126516	-0.0208285	0.0243317
-0.0165928	-0.00771291	0.0166439
-0.00014703	0.00585617	-0.000337914
0.0116155	0.0322128	-0.0389979
1.42349e-05	0.00134521	-0.000575355
-0.00532782	0.425582	-0.426274
-0.0697552	-0.0700581	0.0697596
0.0231084	-0.0232767	0.0164844
0.00736375	0.00741534	-0.00735829
0.00356826	-0.00477747	-0.0018316
-0.0105234	-0.0247129	0.0264523
-0.00115491	-0.0110428	0.0128494
-0.0236565	0.0235967	-0.0278261
-0.0124082	-0.000111618	0.0126443
0.0234191	-0.0260464	-0.0234172
0.00141425	0.0339885	-0.0335796
-0.00765611	0.00530256	0.00788447
0.00551505	0.00520001	-0.00793443
-0.0019956	-0.00552667	0.00192522
0.0243181	-0.00656927	-0.0249419
0.00829561	-0.018296	0.0153511
-0.0460277	0.00649326	0.0469722
0.0017064	-0.0396792	0.0403337
0.00508289	0.00586156	-0.00506174
-0.031024	0.0176287	0.0308958
-0.000856001	-0.014142	0.0157911
0.0788933	-0.0527191	-0.0746132
0.00258532	0.341859	-0.341808
0.000686131	0.000355162	-0.000690173
0.00233647	-0.0166715	0.0194907
0.000985472	0.000680581	-0.000990824
-0.0127871	0.0157501	0.00963782
0.00842318	0.0021224	-0.0033805
-0.00367225	-0.00664946	0.0123704
-0.00254363	-0.0191158	0.019212
-0.0220654	-0.0218105	0.0220541
-0.00939748	0.00599693	0.00906779
-0.0302975	0.0541575	-0.0544706
0.00284983	-0.00183282	-0.00285825
-0.0321439	0.0321682	-0.033049
0.000751765	0.0212613	-0.0140089
0.300381	-0.00744192	-0.33055
0.00511735	-0.0454369	0.0438422
-0.00615457	0.00702325	0.00869718
-0.00718296	0.0606115	-0.0602458
0.000269822	0.0364775	-0.0283261
-0.00376293	0.00490182	0.00356317
0.00455528	4.76805e-05	0.00338732
0.0144249	-0.0102973	-0.0141114
-0.00235859	0.0688455	-0.0668936
-3.13543e-05	0.00407975	7.28949e-05
-0.0180387	0.0126236	0.0177317
0.0160648	-0.0267131	0.0087881
-0.0226988	0.0137035	0.0227401
0.00177604	-0.00445476	0.0045117
0.00571701	0.00538605	-0.00571199
-0.00012866	-0.00513072	0.00877569
-0.0054978	-0.00477698	0.0055139
-0.00905734	0.00844608	0.00814286
-0.00261852	0.0812281	-0.0814611
0.00934144	-0.00258712	-0.00132525
-0.00193234	0.00168321	-0.000623203
-0.0142035	-0.0125813	0.0141781
0.00077043	0.0041472	-0.00230469
0.00669299	0.0312366	-0.0309505
0.00432004	0.00388144	-0.00402204
0.00230327	0.00254827	-0.00424647
-0.0243504	-0.0254469	0.0241869
-0.0145195	0.0140788	0.010407
0.0140894	-0.0173654	0.0129395
0.0174836	-0.0181057	-0.0173805
0.00133106	-0.00739153	0.00696059
-0.010446	-0.193204	0.197538
-0.0151061	0.0114927	0.015106
-0.0137995	-0.0425502	0.040165
0.0578499	-0.0348065	-0.0555222
0.000674679	0.0306208	-0.0302298
-0.00236927	0.00376443	0.00239424
-0.00589848	0.00600475	-0.00732697
0.00132618	0.00141045	-0.00133559
-0.00560839	0.00510928	0.00485681
0.0049008	0.000448219	0.00126421
0.00360919	0.000384064	-0.000880503
-0.0866743	0.096609	-0.0995174
0.000397169	0.00036794	-0.000383493
-0.0081896	0.00756331	0.00895133
-0.00311255	0.0213931	-0.0217036
0.731108	-0.0567563	-0.720002
0.00714759	-0.00854988	0.00734119
0.00501365	0.00534748	-0.00502684
-0.000594395	0.000821704	0.000279244
0.00120458	-0.0375263	0.0376973
-0.00232643	0.00637998	0.00304635
-0.00618908	-0.024934	0.0247953
0.0035622	0.00135135	-0.00316765
-0.0218577	0.0174468	0.0218676
-0.017125	-0.0560724	0.0512523
-0.00403848	0.00197378	0.00604262
-0.00445384	-0.00425896	0.0045684
-0.00690664	-0.00485033	0.00691921
-0.0064866	0.0051006	0.00687614
0.00459822	-0.00952192	0.00615669
-0.00438676	0.00527926	0.00262871
-0.00232603	0.00199481	0.000845069
-0.0508046	-0.0513541	0.0508119
0.00317701	-0.0262343	0.0265328
0.00404337	0.00156283	-0.00299709
-0.00474808	0.00424171	0.00601205
0.00555544	-0.0445978	0.0431562
-0.0188504	0.0152263	0.00133468
0.00238378	0.0322722	-0.0322634
-0.0282815	-0.00863942	0.0278246
-0.0122075	0.00957696	0.0124032
-0.00308308	0.061077	-0.0608265
-0.00233673	0.00269247	0.00237319
0.00404355	-0.00550867	0.0078451
0.00835227	0.00806893	-0.00837097
-0.00200829	0.00030529	0.00376344
0.00451689	-0.0313398	0.0113881
-0.0252348	0.0141793	0.0250806
-0.0268083	0.501239	-0.498983
0.00710709	0.000656493	-0.00222989
0.0060703	0.00769285	-0.00649372
-0.00194588	-0.00161407	0.00333269
0.230039	-0.170726	-0.129017
0.000674679	0.0306208	-0.0302298
0.00405329	0.00442748	-0.00404563
0.0130102	-0.021501	0.0169754
-0.00199018	0.00384827	0.0020169
0.0258379	-0.0159163	-0.0276651
-0.00334313	0.0268824	-0.025892
-0.0747906	-0.0204683	0.0473626
-0.00177681	-0.0243394	0.0282168
0.00732261	0.00458186	-0.00735141
-0.000632348	0.00349781	-0.000637295
0.00459058	-0.0536366	0.0533902
-0.00789356	0.0106677	0.0080584
-0.00128514	0.0164168	-0.0161731
-0.191816	-0.0986125	0.19282
0.000365029	2.70723e-05	0.00203638
-0.0156815	-0.0217622	0.0252486
-0.00806996	0.00721601	0.00888212
0.00427326	-0.0413094	0.0410422
0.00681434	-0.524902	0.527346
-0.0172424	0.0154934	0.0172462
-0.00367225	-0.00664946	0.0123704
0.0145566	0.00795474	-0.0182531
-0.00215737	0.0162989	-0.0163237
-0.0621079	-0.0617117	0.0621242
0.00606223	-0.00714552	-0.00514557
-0.010323	-0.00937339	0.01036
0.199573	0.00752482	-0.206662
0.00473633	-0.00659508	0.00640329
-0.00087701	-3.01391e-05	0.000906197
-0.0101707	-0.00331465	0.00356598
-0.00318804	-0.182779	0.187444
0.00620005	-0.00725859	-0.0071289
-0.00205152	0.298883	-0.298642
0.00255763	-0.00333936	-0.0019101
-0.015934	0.0139547	-0.0111794
0.00427904	0.000932675	-0.00389088
-0.0231312	0.0125226	0.0192398
0.000533139	-0.00384817	0.00443911
-0.00715084	0.00783313	0.00974294
-0.000484171	0.000384749	0.0040659
0.00935266	0.00858123	-0.00935679
0.0843772	-0.0960724	-0.0854909
-0.0242992	0.00469196	0.017806
-0.0145472	0.00781163	0.0131765
0.000312802	-0.036845	0.0381562
0.00228744	0.00289965	-0.00272973
0.165656	-0.161848	-0.165435
-0.00247982	0.00224405	0.00374015
-0.0063642	0.00668137	0.00463949
-0.0346744	0.107683	-0.108339
-0.00715474	-0.00752849	0.00714519
0.00341301	-0.00167924	-0.0023743
-0.0023001	-0.00966895	0.00887103
-0.00845262	0.00488231	0.00906354
-0.0310301	0.0378614	-0.037839
-0.00157537	0.0162179	-0.00947085
0.0060904	-0.0325868	0.0294932
0.000402527	0.00144092	-0.000409592
0.0113935	-0.00137276	-0.0113723
0.00248829	-0.0289333	0.0299696
-0.0145818	0.0118635	0.0115197
-0.00169817	0.0949113	-0.0954862
0.00550036	0.00545943	-0.00550064
-0.0122821	0.00898034	0.0129221
-0.00193234	0.00168321	-0.000623203
-0.0108915	0.00957949	0.0100459
0.00120458	-0.0375263	0.0376973
-0.00439694	-0.0354633	0.0333595
-0.0179245	0.0178339	0.0179284
-0.0173875	-0.0147769	0.0135813
-0.00353825	0.0125351	0.00366332
-0.00193492	0.0521395	-0.0515686
-0.0232106	-0.00495609	0.0231954
0.095933	-0.0172264	-0.0959239
-0.000264771	0.0003309	0.00026563
-0.0127871	0.0157501	0.00963782
0.000961504	-0.0249958	0.0263591
-0.0151391	-0.0157595	0.0151263
-0.00139079	-0.0190482	0.0228198
-0.00746806	-0.00506381	0.00531545
-0.0060385	0.00650266	0.00506093
0.00391078	-0.0411235	0.0408489
-0.00647216	0.00281476	0.00938194
-0.158329	0.475197	-0.475744
0.001792	0.00335778	-0.00238642
-0.00288872	0.00288792	0.00155112
0.000179958	-0.0377432	0.0393133
-0.0119111	0.0122657	0.011736
0.000435099	-0.0213834	0.021493
0.00248048	0.00316704	-0.00247955
-0.0175486	0.0103079	0.0174118
0.0258636	0.00209111	-0.0188639
0.0500493	-0.0497723	-0.0506289
0.00499861	-0.0397446	0.0378701
0.00812	0.069917	-0.0712917
-0.0274147	0.0133356	0.0263579
-0.0137995	-0.0425502	0.040165
-0.0122614	0.0144299	0.0111411
0.000631749	-0.012628	0.0127972
-0.000438819	4.90408e-05	0.000469706
-0.00411347	0.00427653	-0.00365038
0.000397169	0.00036794	-0.000383493
-0.0150213	0.0151964	0.0152126
0.0025296	0.290933	-0.292071
0.0028113	0.00549281	-0.00484032
0.00308618	0.022619	-0.0275964
0.000752325	0.0034655	-0.000837539
0.0796171	-0.0802866	-0.0858723
-0.0491767	0.0692347	-0.0682027
-0.0155964	0.0171204	0.0159179
-0.00118968	-0.0166557	0.0189256
0.0154435	0.00583756	-0.0084783
-0.0122075	0.00957696	0.0124032
0.0331194	0.394367	-0.420109
-0.032701	0.0273403	0.032702
0.00358362	-0.0481744	0.0468051
0.00509016	0.00516569	-0.00510829
-0.000858067	-0.000749834	0.000858455
-0.00869255	-0.0431737	0.0513178
0.114381	-0.100063	-0.114379
0.003827	-0.0449012	0.044858
0.00479473	0.00551182	-0.00478836
-0.0389177	0.0391637	-0.0320932
0.00479473	0.00551182	-0.00478836
-0.0171461	0.0129113	0.0139118
0.000313939	0.00241802	-0.00242296
0.001155	0.000937097	-0.00116858
0.00171325	0.109999	-0.10864
0.00218395	0.00388324	-0.00189596
-0.00730886	0.00603038	0.00716457
0.00561552	-0.0260869	0.0257756
0.0312984	-0.0314582	-0.0309865
0.00115063	-0.0427959	0.0426902
0.00162502	0.00437423	-0.00164854
-0.00960799	0.0140101	0.00969784
0.00515455	-0.0661202	0.0646355
0.000836709	-0.00218353	-0.000684219
0.00137434	0.0145343	-0.014753
0.00083616	0.0047789	-0.000908941
-0.00397477	0.00545692	0.00590431
0.0028113	0.00549281	-0.00484032
0.00342744	0.00477082	-0.00550292
0.000631749	-0.012628	0.0127972
-0.00746806	-0.00506381	0.00531545
-0.0136503	0.00924135	0.0144725
-0.00195563	-0.00164877	0.0098526
-0.0145472	0.00781163	0.0131765
-0.0274865	0.068227	-0.0681781
0.00526763	0.00510623	-0.00527394
0.00740915	-0.0149474	0.0168069
-0.0265851	-0.00761812	0.0267856
-0.00949633	0.00971359	0.00939124
0.00598149	-0.0438228	0.0427977
0.00366026	0.0258121	-0.0223785
0.0102828	-0.01159	0.0114662
0.0028113	0.00549281	-0.00484032
-0.0312622	0.0149402	0.023421
0.00254411	-0.0492205	0.0493496
0.0210923	-0.0178694	-0.0208294
0.00145059	-0.0387199	0.0383845
-0.00588169	-0.025747	0.0286116
-0.0106797	0.00757454	0.0114074
-0.183416	-0.00939941	0.179711
-0.0175486	0.0103079	0.0174118
-0.00169817	0.0949113	-0.0954862
0.000255193	-0.000949991	0.00167956
0.0571075	-0.0566506	-0.0542276
-0.00573491	-0.0220933	0.0256168
-0.00671874	-0.000541317	0.00159713
0.000631749	-0.012628	0.0127972
-0.022231	-0.0224916	0.0222318
0.00507965	-0.00456885	0.00141749
0.00605448	0.00652304	-0.00603482
0.0475312	-0.0476	-0.0473581
0.00427326	-0.0413094	0.0410422
-0.0014017	-0.00133344	0.0013938
0.00230327	0.00254827	-0.00424647
-0.00282078	-0.00447198	0.00279321
0.125526	-0.126669	-0.124903
-0.0269691	-0.00958783	0.00634448
0.0129393	-0.0141736	-0.0121571
-0.0414556	0.136636	-0.136031
0.00607222	0.00334141	-0.00612219
-0.0138148	0.000678216	0.0138974
0.00319408	0.000917165	0.00237715
0.010803	-0.00987027	-0.0109133
0.00309283	0.245658	-0.248202
0.00218395	0.00388324	-0.00189596
0.00242303	0.00421997	-0.00251415
0.011636	0.000575238	-0.00840468
0.0214032	-0.00382033	-0.0245473
0.0012352	0.0213562	-0.0214609
-0.00756406	-0.00336869	0.00499026
-0.0106797	0.00757454	0.0114074
0.00605448	0.00652304	-0.00603482
-0.00144095	0.00653363	0.000887736
-0.0346744	0.107683	-0.108339
0.000985472	0.000680581	-0.000990824
-0.00458497	-0.00216689	0.003149
-0.0135012	-0.0150133	0.0112295
-0.0140027	0.0143246	0.0140081
0.000834079	-0.00746327	0.00706103
-0.00339618	-0.00215453	0.00708637
-0.00828799	0.0503119	-0.046911
0.00658804	0.00577728	-0.00656321
-0.00154752	0.00734496	0.000470121
0.00130378	-0.0307481	0.0309136
-0.00615457	0.00702325	0.00869718
-0.00501045	0.0470238	-0.0482942
0.00771859	0.0769205	-0.0781837
0.148421	-0.14765	-0.148404
-0.00573491	-0.0220933	0.0256168
-0.00289704	0.00507827	0.00340169
0.00511735	-0.0454369	0.0438422
0.00483996	0.00125753	-0.00444634
0.0309457	-0.0334161	-0.0302898
-0.00519789	0.00634904	0.00557312
-0.00462967	0.0112684	0.00479282
0.00640425	-0.0486543	0.0485753
0.00674364	0.00425581	-0.00674003
-0.0158901	0.0907799	-0.0763492
-0.000993828	-0.00111198	0.000990859
-0.00980606	0.00697013	0.0095984
-0.00264416	0.0664047	-0.0663088
0.00290214	-0.000178136	-0.00300295
-0.00359872	-0.00968857	0.0124521
0.00508289	0.00586156	-0.00506174
-0.00766775	0.0087879	0.00839561
0.00660737	-0.0185219	0.0182691
-0.0123813	0.00220498	0.0124227
-0.00871599	0.0797181	-0.080104
0.00911752	0.00905674	-0.00913116
-0.00905028	0.0107214	0.00894818
0.0180702	0.105362	-0.117781
0.00578762	-0.00687425	-0.0031005
-0.0121428	-0.0168782	0.016425
-0.00270906	0.0224881	-0.0138704
0.00917791	-0.00988046	-0.00876172
0.00102607	0.0529324	-0.0485299
-0.0075163	-0.00862264	0.0179363
-0.0101983	0.0297962	-0.0292946
0.0052435	0.00416495	-0.00479531
-0.00706946	0.00528421	0.00706161
0.00573271	0.00479499	-0.00568099
0.0267027	-0.0464578	-0.0288219
-0.00215737	0.0162989	-0.0163237
0.00377869	0.00985793	-0.00816654
0.000923721	-0.025621	0.0235612
0.00059867	0.0269143	-0.0237668
-0.0115678	0.00788074	0.0122359
-0.0234241	0.0348129	-0.0342022
0.000587399	-0.000363171	-0.000496848
0.00296166	0.0409446	-0.0412501
0.0028113	0.00549281	-0.00484032
-0.0195309	0.00934189	0.0197317
0.00154482	-0.0137671	0.0128812
-0.00336327	0.00358285	0.00226391
-0.0187731	0.0196265	-0.0215859
0.000832996	0.0241536	-0.0170212
-0.00275907	0.00689904	0.00283226
-0.00389168	-0.0225627	0.0250575
-0.00231973	0.0117274	0.00146078
0.00400728	-0.0613734	0.0604257
0.0084087	0.0635377	-0.0651363
0.00555405	-0.00463076	-0.0053296
0.000107906	-0.0098497	0.0106031
0.00856568	-0.010387	-0.00856825
0.00220597	-0.0176995	0.0178218
0.000985472	0.000680581	-0.000990824
-0.00610938	0.00658939	-0.0353759
0.0104114	0.0268626	-0.0309012
-0.0052694	0.00542963	0.00515116
-0.0136284	0.0110098	-0.00989435
0.0219949	0.0120982	-0.0252578
0.0199809	-0.0197969	0.019651
-0.00275359	-0.00249202	0.00419309
-0.0134831	0.00817611	0.0134147
-0.0535741	0.275872	-0.275718
-0.00695031	0.00724518	0.00540997
0.00257804	0.00184991	-0.00340386
0.013376	0.0121288	-0.0147839
-0.00980155	0.00896297	0.00970969
0.00051963	-0.0210864	0.0233286
0.0830415	-0.0834586	-0.0833744
0.00260028	0.00367518	-0.00498029
0.00777235	-0.025512	0.0234779
-0.0241527	-0.000823068	0.0277703
-0.000359437	0.00314279	0.00455307
-0.00518192	0.00283796	0.00529858
0.00460827	-0.0030909	0.00288007
0.00379261	0.000576491	-0.00326501
-0.00214404	0.00211352	-0.00626035
-0.0750676	-0.0761372	0.0750491
0.0286021	-0.0303683	-0.028808
-0.0034985	0.0287645	-0.0274675
-0.0173875	-0.0147769	0.0135813
-0.00320693	0.00184647	-0.0030755
-0.0260868	-0.0237509	0.0216602
-0.0108915	0.00957949	0.0100459
0.000313939	0.00241802	-0.00242296
-0.0113944	0.00970156	0.0049982
0.00547191	-0.0046378	0.00460631
0.00377869	0.00985793	-0.00816654
-0.0139213	0.0127616	0.0134684
-0.0137841	0.139395	-0.13765
-0.00437273	0.00394867	0.00396178
-0.00342397	-0.0301968	0.0303242
0.00605448	0.00652304	-0.00603482
0.0471565	-0.0459742	-0.0477735
-0.00305003	-0.0050643	0.00885578
-0.0132144	0.00626227	0.0130403
4.76469e-05	-0.0110183	0.0111078
0.0028113	0.00549281	-0.00484032
0.00524131	-0.0362447	-0.00529106
0.00807332	0.00414918	-0.00689389
0.134863	-0.134495	-0.0723903
0.00592298	-0.0146503	0.0169022
-0.0527692	-0.0363322	0.0362724
-0.00177681	-0.0243394	0.0282168
0.00284968	0.00138252	-0.00269087
0.0210699	-0.0197338	-0.0208496
0.000702458	0.388455	-0.391392
0.0129382	0.00820757	-0.0165934
0.00232892	0.0104634	-0.00973611
0.0035622	0.00135135	-0.00316765
0.0199954	-0.0213909	-0.0198543
0.00320655	-0.0252289	0.0263507
-0.0236089	0.0231782	0.0238097
-0.0173501	0.106585	-0.104906
-0.00177248	-0.000231787	0.00176794
-0.00518192	0.00283796	0.00529858
-0.157108	0.000794656	0.147143
0.00746703	-0.00681822	-0.00458252
0.00210599	-0.0282102	0.0272502
0.00226944	0.00348082	-0.00308103
-0.00373341	0.000455879	0.00827331
0.00200064	0.0247743	-0.0195467
-0.00544638	0.00594036	0.00402276
-0.0140895	0.0120161	-0.0105837
0.00132618	0.00141045	-0.00133559
-0.00086813	-0.0179541	0.021307
-0.0014017	-0.00133344	0.0013938
-0.0359535	0.00912801	0.0353653
-0.00148571	0.806678	-0.808106
0.00605448	0.00652304	-0.00603482
-0.00176607	0.0359728	-0.0352812
-0.0546904	0.231746	-0.227649
0.0187659	-0.0197736	-0.0180667
0.00387632	-0.0412305	0.0413974
0.0503771	-0.0507905	-0.0502026
0.00327518	-0.0495054	0.0500848
-0.0595515	-0.041598	0.0573026
-0.00711946	0.00611714	0.00689195
0.00628989	-0.0383818	0.0381249
0.0289311	-0.0255275	-0.0286733
0.0038644	-0.0286106	0.0287124
0.00162502	0.00437423	-0.00164854
0.0381883	-0.0352409	-0.0375209
0.0041251	-0.0587448	0.0495327
0.0185946	-0.0166161	-0.0149138
0.00117658	-0.0130638	0.0133353
0.00306735	0.00836095	-0.00370218
-0.00701922	0.00870474	0.00688243
0.000985472	0.000680581	-0.000990824
-0.0162628	0.0141508	0.0122267
0.00307906	-0.00339137	0.00430817
0.00459822	-0.00952192	0.00615669
-0.00633171	-0.000312446	0.00834279
-0.0103363	-0.00164801	0.0105106
0.0139371	-0.00983577	-0.0138841
0.00551403	-0.00638873	0.00593576
-0.0126358	0.00474457	-0.00427736
0.00448405	-0.0105413	0.0105283
0.0021227	0.0173849	-0.0163735
0.0022974	0.00785714	-0.00314086
0.00713819	-0.0173207	0.0172479
-0.00738304	0.00802949	0.00641563
-0.00804877	0.00848012	-0.0171906
0.00638047	0.00841297	-0.00793468
0.0276444	-0.0273269	-0.0277016
-0.333539	-0.0391313	0.336807
0.0325455	-0.0236317	-0.0314345
-0.000654032	0.243502	-0.24103
-0.00224082	0.0220163	-0.0120376
0.0674697	-0.0679402	-0.0675919
0.0028113	0.00549281	-0.00484032
0.259922	-0.25978	-0.259924
-0.000594969	-0.0109631	0.0110106
0.00807332	0.00414918	-0.00689389
0.0112737	-0.0278858	0.0242043
0.00551125	0.0545841	-0.0544094
-0.0171271	0.0166463	0.0125475
-0.0129948	0.156139	-0.155799
-0.00964111	-0.0109048	0.0107068
0.0436639	-0.0435516	0.0235961
0.00352961	0.00398005	-0.00352222
-0.00936743	0.00893512	0.00902127
0.0100857	0.368302	-0.366817
-0.00891528	0.00963309	0.00831914
-0.00473277	0.0213862	-0.0217317
0.00479473	0.00551182	-0.00478836
-0.0101527	0.0085212	0.0109757
-0.00730885	0.0540723	-0.0545048
0.0596546	-0.00229098	-0.0595896
-0.00284317	0.0713915	-0.0709122
-0.00621277	-0.00604766	0.00618529
0.020795	-0.0150295	-0.0203001
-0.0230791	0.00330721	0.0192763
-0.00692339	0.00672166	0.00491561
0.00243344	0.0145429	-0.0148648
0.00562374	0.00183335	-0.00568236
0.0354732	-0.0303525	-0.035948
-0.238205	-0.806073	0.804695
0.0100702	-0.00514945	-0.0109353
4.76469e-05	-0.0110183	0.0111078
-0.0150464	-0.020594	0.0193426
0.0130102	-0.021501	0.0169754
0.00435877	0.00465529	-0.00435447
0.00308866	-0.00258294	-0.00294076
0.0196859	-0.0194693	0.02019
0.0173072	-0.0186636	-0.0161608
0.00104802	-0.0198329	0.0200966
0.00334667	0.0196808	-0.0163574
0.00938869	-0.00698238	-0.00753196
-0.0157994	-0.0150388	0.020064
-0.00289668	0.0037323	0.00394022
-0.0083014	0.113673	-0.113033
-0.0560843	-0.036246	0.0404219
0.0304495	-0.030452	-0.0295481
-0.000333604	-0.00206048	0.00379002
0.00103417	-0.00231764	-0.000963839
0.00239567	-0.011685	0.0129347
0.00653558	-0.043687	0.0445907
0.0309493	-0.0325878	-0.0311735
0.00218395	0.00388324	-0.00189596
-0.00705998	0.00669814	0.00437442
0.00130378	-0.0307481	0.0309136
-0.00353897	-0.0917285	0.0927062
-0.0173792	0.0440953	-0.0428833
0.00736375	0.00741534	-0.00735829
0.000131983	0.00449636	-0.00109597
0.00697366	0.00484235	-0.00479508
0.001792	0.00335778	-0.00238642
0.00736762	-0.0317659	0.0304874
-0.0694812	-0.784065	0.787249
-0.0230173	0.0106749	0.0242111
0.00800039	-0.0495952	0.0494849
0.00950046	-0.0105675	-0.00933697
0.00454807	-0.047834	0.0467746
-0.0253433	-0.0266985	0.0254616
-0.00368435	0.00661805	0.00413483
-2.43428e-05	-0.00558629	0.00892322
-0.00832272	0.00484116	0.00766601
0.00560591	-0.0426251	0.0419522
-0.00400599	0.021459	-0.0111727
-0.0192282	0.0192967	0.019228
-0.0344605	-0.041187	0.0425445
0.0765561	-0.0108636	-0.0758107
-0.00623885	0.108776	-0.108452
6.8237e-05	0.0132281	-0.0147109
0.00345069	-0.0722046	0.0757694
-0.0295751	-0.031353	0.0295897
-0.00865109	0.0112439	0.0051641
-0.00332991	0.01361	-0.0126978
0.00982183	0.000956197	-0.00301308
0.0038025	-0.00791898	0.00867919
0.00766414	0.0598372	-0.0601702
0.0406644	-0.0421082	-0.0407985
-0.0332252	0.0117786	-0.0125543
-0.0100902	0.00993444	0.0102328
0.00648247	-0.0308847	0.0306202
-0.0215129	-0.0105951	0.0213882
0.017003	-0.0144276	-0.0183378
-0.00392882	0.0114423	-0.0130204
-0.0262214	0.0185959	0.0195287
-0.0624598	0.0799267	-0.0721546
0.001155	0.000937097	-0.00116858
0.000836709	-0.00218353	-0.000684219
0.00421665	0.00498742	-0.00501523
0.00488927	0.00710119	-0.00533339
-0.00547619	0.0273903	-0.0262179
0.00846839	0.00830397	-0.0084774
-0.038425	0.0195634	0.0384047
-0.000335004	0.00281551	0.000568637
-0.00900705	0.0124026	0.00918983
-0.000510978	0.0159934	-0.0165119
-0.011588	-0.0493159	0.0495383
0.00852813	-0.00987867	0.00635268
-0.00164767	0.00618399	0.00190956
0.00589318	-0.00914892	-0.00618331
0.00228791	0.328065	-0.328604
-0.024259	0.00997311	0.00896004
0.00486801	-0.0466533	0.0466107
-0.00690664	-0.00485033	0.00691921
-0.017384	0.00363661	0.0167355
0.00835342	-0.0420299	0.0420812
-0.00498998	0.00780449	0.00454816
0.00414948	-0.0618264	0.0626917
-0.000760345	-0.00673477	0.012923
-0.0152334	0.0181121	0.00948931
0.024899	-0.295827	0.259228
0.000295804	-0.00430285	0.000620603
-0.00994215	0.0620034	-0.0616231
0.00962694	0.0442283	-0.0473368
0.0106963	-0.00600056	-0.00929595
0.000138021	0.0208294	-0.0136171
0.0127791	0.00666629	-0.0194986
-0.00363498	0.0220338	-0.0219886
-0.0240496	-0.019587	0.0186593
0.00411735	-0.0089587	0.00671463
0.00363642	0.00484575	-0.00359186
0.0154751	-0.0160505	-0.0151857
-0.00279958	0.0470645	-0.046821
0.00687792	0.0068863	-0.00686249
-0.0362837	0.036818	-0.0571809
0.00819564	0.00426522	-0.00556045
-0.00834829	0.0139385	0.00872557
0.0124218	0.015149	-0.0147644
-0.0141153	0.0137903	0.0140194
-0.0112845	0.051811	-0.0517301
0.012225	0.00663879	-0.0095356
-0.0096159	0.00890837	0.00965603
-0.00647059	0.688198	-0.687852
-0.00621541	0.0088548	0.00720435
0.00841466	-0.0123475	0.01419
-0.00298217	0.000547836	0.00301432
0.0373374	-0.0341731	-0.0366962
0.0149846	0.0156631	-0.0253801
-0.023171	0.0236478	0.0231509
0.00320655	-0.0252289	0.0263507
0.00673125	0.012261	-0.0149322
0.0194338	-0.0201733	-0.0194359
-0.00124909	0.000932382	0.00113605
0.102338	0.00832965	-0.1009
-0.0083014	0.113673	-0.113033
0.00228744	0.00289965	-0.00272973
0.00613183	-0.00606235	0.0035492
-0.181455	-0.0702873	0.182334
-0.00487521	0.0148827	0.0047239
-0.00261852	0.0812281	-0.0814611
-0.0155656	0.00299125	-0.00245369
-0.00741486	0.0037968	-0.00432529
0.0028113	0.00549281	-0.00484032
0.00255265	0.00917685	-0.00275198
-0.0134495	0.0368686	-0.0363821
-0.00721356	0.00664687	0.00813528
-0.00140509	0.01201	-0.0121259
0.00508289	0.00586156	-0.00506174
0.019209	-0.0198673	-0.0181509
-0.294807	-0.140553	0.376793
-0.00925707	0.0105873	0.0026701
0.00325417	-0.0480926	0.0472035
0.0028505	-0.01189	0.0125632
0.123625	-0.123933	-0.123625
0.00218395	0.00388324	-0.00189596
0.0225567	-0.0229097	-0.0225646
-0.00151891	0.0123452	-0.0123557
0.000397169	0.00036794	-0.000383493
0.00051963	-0.0210864	0.0233286
0.00479473	0.00551182	-0.00478836
-0.00246759	0.00820633	0.00118766
-0.0013397	0.00787957	-0.00798679
-0.0287423	-0.0236299	0.0185397
-0.014139	0.0128598	-0.000951308
-0.00816726	-0.00808642	0.00816813
0.00186692	-0.00519403	-0.00154802
0.00538918	-0.0421209	0.0419317
-0.00925653	0.0071509	0.00544124
0.00395474	-0.0365934	0.0344276
0.00956342	0.0465991	-0.0503593
0.0217346	-0.0174029	-0.0225982
0.0133227	0.0560173	-0.0626847
-0.00698211	0.00761136	0.0079134
-0.00342397	-0.0301968	0.0303242
0.00134177	0.00235127	-0.00137931
0.00249624	0.00232906	-0.00194562
0.00104222	0.00357466	-0.00323349
-0.00232488	0.00294856	0.00232332
0.00640425	-0.0486543	0.0485753
0.00509016	0.00516569	-0.00510829
-0.00662801	0.00504602	0.00671888
-0.0973538	-0.0913237	0.0974091
0.00343883	-0.0171475	-0.00433779
-0.00133057	0.0203901	-0.0203715
-0.00630058	-0.00659417	0.00630672
0.00317701	-0.0262343	0.0265328
0.00807708	0.00522562	-0.00801679
-0.0226187	0.0214989	0.0223482
0.00849417	0.0280014	-0.0307601
0.0154525	-0.0162313	-0.0146895
0.00714759	-0.00854988	0.00734119
-0.000335004	0.00281551	0.000568637
-0.0197354	0.00745218	0.0199141
0.00151846	-0.0166356	0.0180506
-0.00354452	0.0104218	0.00329581
0.00243344	0.0145429	-0.0148648
0.00674364	0.00425581	-0.00674003
0.0322977	-0.0257294	-0.0320918
-0.0135764	-0.000506281	0.0134871
-0.00606029	0.00563928	0.00375595
-0.00413257	0.331205	-0.331325
0.000994191	0.00146506	-0.0036671
-0.0118942	0.0111014	0.0126024
0.00427904	0.000932675	-0.00389088
0.17099	-0.117676	-0.156175
0.00434495	-0.0287857	0.0283259
-0.0380431	-0.036843	0.0365569
-0.0123429	0.0478367	-0.0467286
0.000504961	-0.00414533	0.00129497
-0.0130024	0.00965234	0.0137274
0.00469839	-0.0119186	0.0131037
-0.0128947	-0.00198672	0.0158781
-0.000639828	-0.000458686	0.00337075
-0.00546341	-0.207312	0.207456
-0.00353215	0.00204776	0.00335691
0.00255107	-0.0130513	0.0133137
0.048378	-0.0476416	-0.0484276
0.0010748	-0.0195268	0.0210249
0.00458485	0.00317315	-0.00346143
-0.00367455	0.00402475	0.00352168
0.00411735	-0.0089587	0.00671463
-0.00771249	0.00496918	0.00596242
0.00595961	-0.0081898	0.0108427
0.00292298	0.00876485	-0.00328265
-0.0106435	0.00932023	0.0103401
-0.0303827	-0.0234852	0.0458747
0.0719991	-0.0376502	-0.0745159
0.003827	-0.0449012	0.044858
-0.0396626	0.155225	-0.159057
0.0139982	-0.0147597	0.00922181
0.00155414	0.00114027	-0.00159527
0.0031101	0.00874772	-0.0046016
-0.00140925	-0.00919948	0.00933658
0.000397169	0.00036794	-0.000383493
0.00719757	-0.0172333	0.0133019
-0.0228675	-0.0101507	0.023034
0.0083575	-0.00460294	-0.00804201
-0.0129608	-0.024123	0.0232871
-0.00115828	0.00254263	0.00110645
0.00397044	-0.00520666	0.00553913
-0.00655637	-0.00114596	0.0019759
-0.00691271	0.00584606	0.00946407
-0.0140143	0.0651529	-0.0670526
-0.00440774	0.00407847	0.00585375
-0.0022341	0.0700107	-0.0704267
0.0052435	0.00416495	-0.00479531
-0.0112112	0.00646477	0.0112472
-0.0312518	0.00762148	0.0217844
-0.00698258	0.0073705	0.00845098
-0.00547619	0.0273903	-0.0262179
-0.00352158	-0.646829	0.651795
-0.0235594	0.022844	0.0237493
0.00122386	0.0111212	-0.0111788
0.0219025	-0.016383	-0.0249821
0.00448405	-0.0105413	0.0105283
-0.108963	-0.517629	0.516918
-0.0087987	-0.00228681	0.00238017
0.0035622	0.00135135	-0.00316765
0.0336179	-0.0337923	-0.0339708
0.00414672	-0.0088481	0.00820888
-0.212402	-0.0521748	0.209337
0.00713819	-0.0173207	0.0172479
-0.0118977	-0.0139656	0.0133613
-0.01017	0.0115347	0.00987247
0.00397044	-0.00520666	0.00553913
0.0118304	-0.0112286	-0.0117135
0.000455236	0.0499475	-0.050548
-0.00492912	-0.00173137	0.000632116
-0.0219054	0.0221958	0.0219436
-0.00897466	-0.0109042	0.0113535
-0.00867994	0.00893778	0.00539169
0.00029389	-0.0367011	0.0369251
0.00674364	0.00425581	-0.00674003
-0.018035	0.0113024	0.0187168
0.0100169	-0.00131166	-0.000371085
0.0565048	-0.0555703	-0.0528124
0.003827	-0.0449012	0.044858
0.00491588	0.0279485	-0.0256431
-0.00586285	0.00931375	-0.0169152
-0.0243773	-0.0235106	0.0244023
-0.0258832	0.0100328	0.0267166
0.00459554	0.0150244	-0.0139711
-0.000264771	0.0003309	0.00026563
-0.00861404	0.0138429	-0.0148967
0.0035622	0.00135135	-0.00316765
-0.00293175	0.00160583	0.00290794
-0.00128514	0.0164168	-0.0161731
0.0230717	-0.0199828	-0.0230191
0.003827	-0.0449012	0.044858
0.0052435	0.00416495	-0.00479531
-0.0187584	0.0190201	0.0187372
0.00185118	-0.0346444	0.0339272
0.000561419	-0.00297245	0.000229506
0.00334239	-0.030597	0.030955
0.000752325	0.0034655	-0.000837539
0.0028994	0.00025504	-0.0029681
-0.0482394	-0.523406	0.571763
-0.00808537	0.00757417	0.00746781
0.00248829	-0.0289333	0.0299696
0.00812	0.069917	-0.0712917
0.0062785	0.00361613	-0.00721973
0.00173248	-0.0140489	0.0139528
-0.00364383	0.00566711	0.00203142
-0.00724272	0.0320924	-0.0320317
0.00608767	0.00746445	-0.00790313
0.0196695	-0.0198112	0.0153797
0.00284968	0.00138252	-0.00269087
0.00807685	-0.00685602	-0.00847345
0.00777964	-0.0136396	0.0154639
-0.0375175	-0.0188491	0.0374389
-0.128596	0.138395	-0.141844
0.00509016	0.00516569	-0.00510829
-0.00940592	0.000413196	0.0124957
0.00448405	-0.0105413	0.0105283
0.0060703	0.00769285	-0.00649372
0.00680809	-0.021516	0.0205005
-0.000993828	-0.00111198	0.000990859
0.00313554	0.00112576	-0.00424801
0.00300571	-0.00792342	0.0110299
0.00864639	-0.00955836	-0.008624
-0.00318348	0.00966094	-0.0095568
0.00573271	0.00479499	-0.00568099
0.0788841	-0.0760331	-0.078702
0.00377869	0.00985793	-0.00816654
0.0660599	-0.0661276	-0.0663798
0.0010748	-0.0195268	0.0210249
-0.0176631	0.0122808	0.0045936
0.0038657	-0.0259691	0.0270289
0.00501365	0.00534748	-0.00502684
0.0321944	-0.0326898	-0.0326293
0.00206	-0.00905248	0.0108173
0.00315525	0.0487857	-0.048447
-0.00943251	0.0219678	-0.0209081
-0.00762208	-0.00904246	0.0101185
0.015035	-0.0181747	-0.0150672
0.00392293	-0.0343985	0.0343678
-0.000362678	-0.000458729	0.00027507
0.00215128	-0.0162005	0.0173243
-0.0324837	-0.090981	0.0921534
-0.00860425	0.0112842	0.00879105
-0.00681951	-0.00903082	0.0118434
0.001769	0.00146567	-0.00176571
0.00425555	-0.0486036	0.0485202
-0.00274515	0.0138228	-0.0130442
-0.00574874	0.00787028	0.00623065
0.00728906	0.00593058	-0.00772365
-0.0171683	-0.0425238	0.0285839
-0.00264416	0.0664047	-0.0663088
0.00377869	0.00985793	-0.00816654
0.015058	-0.014446	-0.0154
0.00462232	0.0420634	-0.0388759
-0.0022311	0.00817639	0.000914052
0.00480632	-0.0290048	0.0292779
-0.134418	-0.134338	0.134418
0.00926346	-0.0101061	0.00541853
-0.0026742	0.00272734	0.00305391
-0.0106797	0.00757454	0.0114074
0.00478459	-0.0327352	0.0322229
-0.00593463	0.00296119	0.00871711
-0.000896881	-0.00366409	0.00336489
0.00292299	0.00241013	-0.00299168
-0.00555647	0.00523319	0.00181634
0.00327518	-0.0495054	0.0500848
-0.0136024	0.00935761	0.0134868
0.0017064	-0.0396792	0.0403337
0.00377869	0.00985793	-0.00816654
0.0688695	-0.0733969	-0.0693946
-0.0913915	-0.11673	0.133668
0.0183616	-0.0100923	-0.0169069
0.000205945	0.0491362	-0.0489243
-0.00756406	-0.00336869	0.00499026
-0.00204513	0.00534825	0.00420769
-0.00519789	0.00634904	0.00557312
0.1802	-0.183012	-0.164269
-0.00157421	0.0278054	-0.0274054
-0.00223204	0.0273489	-0.0188786
6.31927e-05	-0.0151783	0.0162379
-0.000978261	-0.00158298	0.00287135
-0.00510455	0.00873761	0.00581356
0.00358362	-0.0481744	0.0468051
-0.0124082	-0.000111618	0.0126443
0.000259259	0.00395666	-0.00448911
-0.0972399	-0.0919195	0.102673
0.00275239	0.00593723	-0.0028773
0.00835342	-0.0420299	0.0420812
-0.00766775	0.0087879	0.00839561
0.0028285	-0.0296245	0.0280412
-0.00607738	-0.0059471	0.00610466
-0.0100436	0.0050944	0.00983059
0.00730934	0.00199781	-0.00677815
-0.0136144	0.00567714	0.0124798
0.00486047	-0.0659726	0.0646423
0.000504961	-0.00414533	0.00129497
-0.00949676	0.0148117	0.00899708
0.00345528	-0.00744847	0.00349949
-0.0200273	0.00615044	0.019676
0.0012352	0.0213562	-0.0214609
0.00981833	0.00892272	-0.011402
-0.00220825	0.0598494	-0.0624984
-0.00087701	-3.01391e-05	0.000906197
-0.0113029	0.0124111	0.0074236
0.00560591	-0.0426251	0.0419522
-0.0370577	-0.0361795	0.0370466
0.0196695	-0.0198112	0.0153797
-0.0165928	-0.00771291	0.0166439
-0.000137732	-4.45367e-05	-0.00113175
-0.0110187	0.0484551	-0.0485847
0.00873723	-0.00767347	-0.00860837
0.0040729	-0.048292	0.0486077
-0.00413244	-0.00912067	0.0041527
-0.00498827	0.00371324	0.00672346
0.00275749	-0.0607703	0.0631365
0.0378176	-0.0427727	-0.037849
-0.00321875	0.0657396	-0.0659896
0.00674364	0.00425581	-0.00674003
-0.00650327	0.00797038	0.00566168
0.0104049	-0.107387	0.0841598
-0.0075939	0.00765737	0.00885841
0.0009325	0.0810875	-0.0801294
0.0105842	0.00928872	-0.00965332
-0.0130473	0.00658189	0.0131008
-0.0026742	0.00272734	0.00305391
0.030887	-0.0322725	-0.0310562
0.00409914	-0.00509493	0.00449344
0.0034804	0.00482857	-0.00421487
-0.016315	0.166649	-0.171123
-0.0294194	-0.0831495	0.0813192
0.0593813	-0.0610589	-0.0593386
-0.0293865	0.0755462	-0.0748802
-0.0232106	-0.00495609	0.0231954
-0.000572183	-0.0208873	0.0226157
-0.00884889	-0.660437	0.662028
-0.00403848	0.00197378	0.00604262
0.0193971	0.189874	-0.190313
-0.034729	0.0194168	0.0347136
-0.00858965	0.237555	-0.236436
0.00103267	0.086677	-0.0812289
0.00248728	0.000830416	-0.00244811
-0.000809769	-0.027576	0.0301812
-0.00629642	0.0111429	0.00631168
0.00326136	-0.0292195	0.0284624
-0.0114249	-0.00657318	0.0114596
-0.00549508	0.00646975	0.0051984
0.0028113	0.00549281	-0.00484032
0.0968358	-0.0979454	-0.0968353
-0.00121189	0.00748743	-0.00735905
0.00494482	0.0304957	-0.0341715
-0.00086813	-0.0179541	0.021307
-0.0154746	0.0119529	0.00115207
-0.0162081	0.014036	0.0142928
0.0021955	0.0169635	-0.0173971
-0.0195444	-0.0193583	0.0195736
0.0137542	-0.018396	0.0162147
-0.0118977	-0.0139656	0.0133613
0.010803	-0.00987027	-0.0109133
-0.0111906	0.170805	-0.169809
-0.00846675	0.00766649	0.00891429
-0.0165362	0.272871	-0.271012
0.00422589	0.00143432	-0.00144354
-0.00274756	0.00207793	0.00271554
0.00418789	-0.0588562	0.0576756
-0.0071104	0.00988998	0.00690628
0.00734831	-0.00761264	0.00490253
0.000397169	0.00036794	-0.000383493
0.0538273	-0.0545449	-0.0540298
-0.0312274	0.0208837	0.0146577
-0.0160659	0.00707423	0.0165695
0.00137613	-0.0175915	0.017786
0.00673125	0.012261	-0.0149322
0.00806514	0.0142014	-0.00802834
0.0114388	0.0104693	-0.0141435
0.0166153	-0.0218638	-0.0165283
0.0017064	-0.0396792	0.0403337
0.00344878	0.00620005	-0.00564875
0.00906241	-0.018878	0.0167164
0.00162502	0.00437423	-0.00164854
0.156495	-0.157047	-0.156678
-0.000666907	0.0826312	-0.0834732
0.00431813	0.00941334	-0.00814901
0.00412213	-0.00764008	0.00864466
0.00431234	0.00485284	-0.00431138
0.0013439	0.00140546	0.000351827
-0.0647239	0.0907699	-0.0919629
-0.00442903	0.0025097	0.00580633
0.00239567	-0.011685	0.0129347
-0.00547737	0.00170714	0.00587377
0.0324639	-0.0312372	-0.0324445
0.0028113	0.00549281	-0.00484032
2.43038e-05	0.00554782	-0.00230053
0.00778841	0.00404358	-0.00696668
0.00509016	0.00516569	-0.00510829
-0.000813936	4.40043e-07	0.000685238
0.00713397	0.00480273	-0.00682863
0.0106963	-0.00600056	-0.00929595
0.00124826	0.0225999	-0.0226689
0.00607222	0.00334141	-0.00612219
-0.00254363	-0.0191158	0.019212
0.00603323	0.00741529	-0.00736828
0.0104213	-0.010258	-0.0113789
-0.00661112	-0.00745794	0.007013
0.00656969	0.00640843	-0.00657634
0.00697366	0.00484235	-0.00479508
0.00284968	0.00138252	-0.00269087
0.00404552	0.00638288	-0.00458987
0.0113644	0.294831	-0.295872
0.000463865	0.000893323	-0.000381457
0.00460827	-0.0030909	0.00288007
0.00461058	0.00415522	-0.00460181
0.00488927	0.00710119	-0.00533339
-0.00775313	0.00308076	-0.00481363
0.00406582	-0.00474049	-0.00421871
0.00248118	-0.00339615	0.00170511
-0.0853668	-0.0871297	0.0853311
-0.008309	0.011114	0.00811976
0.0149846	0.0156631	-0.0253801
0.0533392	-0.00606905	-0.0553655
-0.00173267	0.00708226	-0.00790785
0.00728906	0.00593058	-0.00772365
0.0448016	-0.0444698	-0.0437072
0.00659344	0.00717325	-0.00658867
-0.000183231	0.00344654	0.00109577
-0.0379008	0.00632128	-0.00706068
-0.00428026	-0.00436457	0.00425358
0.00852813	-0.00987867	0.00635268
-0.00280574	0.0215574	-0.0118663
0.0183605	-0.017198	-0.0187123
0.00133106	-0.00739153	0.00696059
-0.00191785	0.00743839	0.002972
-0.00211378	0.2164	-0.214063
-0.00346448	-0.00293228	0.00346453
0.00706327	-0.00792813	-0.00841441
-0.00191784	-0.0271044	0.02698
-0.00403848	0.00197378	0.00604262
0.00254411	-0.0492205	0.0493496
-0.0268601	-0.0258139	0.0227012
0.00671534	-0.00839485	-0.00582438
0.000480338	-0.0166728	0.0174867
-0.00949633	0.00971359	0.00939124
-0.0179175	0.0942422	-0.0951818
0.00584778	0.0121732	-0.0107301
-0.00744724	-0.00253789	0.00745394
-0.0128947	-0.00198672	0.0158781
-0.0158276	0.0177266	0.0104586
0.00486801	-0.0466533	0.0466107
6.49802e-05	0.0361333	-0.0332491
0.00256947	0.00627179	-0.0118594
-0.0176631	0.0122808	0.0045936
0.068464	-0.0660485	-0.0681851
0.00130378	-0.0307481	0.0309136
0.000336142	0.00229309	-0.000513103
0.00051963	-0.0210864	0.0233286
0.00479473	0.00551182	-0.00478836
0.0342011	-0.0304893	-0.034655
0.00800039	-0.0495952	0.0494849
-0.00489274	-0.00120012	0.00489234
-0.0112046	0.0458317	-0.0471786
-0.0190096	-0.00248773	0.0190654
0.00329356	-0.00185875	-0.00356797
0.00317701	-0.0262343	0.0265328
-0.014324	0.00564205	0.0171439
-0.00946906	0.069397	-0.07113
-0.00194588	-0.00161407	0.00333269
0.0284548	-0.0259239	-0.0281675
0.000138021	0.0208294	-0.0136171
-0.00678082	0.00564618	0.0067786
-0.00277721	0.0547621	-0.0546914
-0.00987199	-0.000676358	4.18192e-05
-0.00291717	0.00296284	0.0021163
0.00427904	0.000932675	-0.00389088
-0.0117106	0.0156442	0.00802728
-0.018442	-0.0018413	0.00198438
0.00377869	0.00985793	-0.00816654
0.0134243	0.0815779	-0.0957033
0.00455961	0.00899478	-0.0079753
-0.00337688	0.00258952	0.00509748
-0.00169817	0.0949113	-0.0954862
-0.00434692	0.00408116	0.00382371
-0.00249396	0.0444517	-0.0435841
0.00579598	0.00430597	-0.00578402
-0.0359535	0.00912801	0.0353653
0.00690525	-0.0163544	0.0164866
0.12374	-0.12181	-0.123822
0.00693563	0.000354923	-0.000175951
0.00401806	0.00222629	-0.00408468
0.00787251	-0.0106007	-0.00689543
-0.0230791	0.00330721	0.0192763
0.0212731	-0.0222094	-0.0211807
0.0032654	-0.012586	0.0152921
0.00155414	0.00114027	-0.00159527
-0.0352704	0.0169476	0.0352744
-0.00647828	0.00409297	0.00863376
-0.0277619	0.0164951	0.0272625
-0.00157421	0.0278054	-0.0274054
0.00427904	0.000932675	-0.00389088
0.00691552	0.02186	-0.0310244
0.00162502	0.00437423	-0.00164854
-0.00243825	0.00349291	0.00194958
0.00343268	-0.0230213	0.0215098
0.0174499	0.00231721	-0.00940742
0.00594805	0.0385101	-0.0444145
-0.000171664	0.00368093	-1.79603e-05
0.00836131	-0.00835177	-0.00991872
0.002472	-0.0255208	0.0256415
-0.00218191	0.00168911	0.00285662
-0.00987387	0.0183953	-0.0155937
-0.0249492	-0.0571344	0.0575904
0.0447601	-0.00660842	-0.0453715
0.0007981	-0.0310652	0.0302429
-0.0134831	0.00817611	0.0134147
-0.0125757	-0.0121882	0.0116752
0.00509016	0.00516569	-0.00510829
0.0202722	-0.0172796	-0.0200422
-0.0347101	0.00957981	0.022532
0.000429026	-0.00546551	0.00157032
-0.0073325	-0.0243808	0.0241965
-0.0101747	-0.0446448	0.0394415
0.00477141	-0.000625243	-0.0040689
-0.0115538	-0.0120569	0.0121027
-0.0158276	0.0177266	0.0104586
0.000908391	-0.0257511	0.0271686
0.00501365	0.00534748	-0.00502684
0.0038644	-0.0286106	0.0287124
0.00659344	0.00717325	-0.00658867
0.0130414	-0.0122883	-0.0128862
0.0114865	0.0432307	-0.0427004
-0.00244733	0.00627743	0.00267534
-0.00121189	0.00748743	-0.00735905
0.00399104	0.0289564	-0.0258581
-0.00650327	0.00797038	0.00566168
-0.00369779	0.013423	-0.0137365
-0.00550924	0.00586354	0.0056107
-0.00169443	-0.0335954	0.0338306
-0.0023356	0.00323253	-0.00196184
-3.13198e-05	0.00013884	0.000270084
-0.0444665	-0.0239069	0.0465305
-0.00732673	0.00386605	0.00745195
-0.00675994	0.0159955	-0.0162199
-0.00199018	0.00384827	0.0020169
0.00721501	-0.00480321	-0.00551432
-0.000310076	0.00100987	0.00234726
0.334581	-0.0580287	-0.32401
0.00222731	0.0389714	-0.0386815
-0.0282815	-0.00863942	0.0278246
0.0138236	0.0677791	-0.0748085
0.00694399	0.0749153	-0.0763945
0.00816451	-0.00661877	-0.0054167
0.0028355	0.262258	-0.264202
0.00218395	0.00388324	-0.00189596
0.0048087	-0.00746011	0.00735726
-0.000660245	-0.00663387	0.00450054
0.0178967	-0.0128309	-0.0174371
0.002292	0.0321104	-0.0315976
-0.00459508	-0.00435386	0.00481892
-0.00114669	8.72975e-05	-0.00018678
0.00138046	0.000240859	-1.31965e-05
0.00980805	-0.0103536	-0.00968682
-0.00247535	0.000124882	0.00107942
0.00568198	-0.00151324	-0.00769689
-0.0267958	0.240959	-0.239767
0.00479473	0.00551182	-0.00478836
0.0352246	-0.0347598	-0.0331848
-0.00124909	0.000932382	0.00113605
-0.00705998	0.00669814	0.00437442
0.003827	-0.0449012	0.044858
0.00132618	0.00141045	-0.00133559
0.000540692	-0.0119065	0.0147041
-0.0124762	-0.0111406	0.0124534
8.46179e-05	0.00174628	4.97966e-05
0.00133106	-0.00739153	0.00696059
-0.0128947	-0.00198672	0.0158781
0.00252099	-0.0404023	0.0425437
0.000985472	0.000680581	-0.000990824
-0.012909	0.00672145	0.013093
-0.00272116	0.0359123	-0.0360766
-0.00461422	0.00494684	0.00618494
0.00029389	-0.0367011	0.0369251
-0.0174693	0.0134388	-0.0118802
0.00909415	-0.0111798	-0.00957449
-0.00086813	-0.0179541	0.021307
-0.0166204	0.0159093	0.0168171
0.00327518	-0.0495054	0.0500848
0.00177589	0.00108393	-0.00174751
-0.00446868	0.00458506	0.00465175
0.00300571	-0.00792342	0.0110299
0.0153855	-0.0156779	-0.0163154
-0.00769644	0.082269	-0.0824436
0.0100169	-0.00131166	-0.000371085
-0.0119307	0.01189	0.0115827
0.00573271	0.00479499	-0.00568099
-0.0113944	0.00970156	0.0049982
0.00473633	-0.00659508	0.00640329
0.0172964	0.0177936	-0.0172856
-0.0014436	-0.0166127	0.0198704
0.00666064	0.0255049	-0.0273612
-0.00315757	0.00217012	0.00274069
0.00414948	-0.0618264	0.0626917
-0.0124316	0.0107596	0.00902468
0.000961504	-0.0249958	0.0263591
0.00501365	0.00534748	-0.00502684
0.0063888	-0.00508724	-0.00472067
-0.0109072	0.184347	-0.182844
-0.00589575	0.00843728	0.00633576
0.00205784	-0.047216	0.0471342
0.00134177	0.00235127	-0.00137931
0.00741655	-0.00703931	-0.00932025
0.00179748	0.054379	-0.0468167
0.0253403	-0.0134917	-0.0308441
0.000378591	0.0605494	-0.0609878
0.00674364	0.00425581	-0.00674003
0.0508223	-0.0525955	-0.0508845
0.00207875	0.0237513	-0.0187994
-0.00744724	-0.00253789	0.00745394
0.00475693	-0.00489602	0.00487918
0.00572834	-0.0513104	0.0508087
-0.000358943	-0.0102213	0.0133936
-0.0102859	-0.0434018	0.037672
0.0122282	-0.00905067	-0.0123257
-0.00772752	0.257738	-0.257008
-0.0128947	-0.00198672	0.0158781
-0.00505379	0.0473276	-0.053308
-0.0296825	-0.00685234	0.029747
-0.00559098	0.00704847	0.00485891
0.00392293	-0.0343985	0.0343678
-0.00885992	0.0095647	0.00864865
0.00330888	-0.0446383	0.0445491
-0.0150464	-0.020594	0.0193426
0.0208618	-0.0206493	-0.0209405
0.00171325	0.109999	-0.10864
-0.0134777	0.0116894	0.0131995
0.00101714	0.178309	-0.195576
-0.0210264	-0.0320356	0.0193596
0.0195733	-0.0192916	-0.0197455
-0.0347101	0.00957981	0.022532
-0.0102119	0.0109448	0.00494404
0.0010247	-0.0424859	0.0422599
-0.00296085	0.004888	-0.00246584
-0.00549027	0.00582412	0.00427697
-0.0462423	-0.0478238	0.0470783
0.0136003	-0.0105239	-0.0131742
-0.000297129	0.00161449	0.0030215
0.00440519	0.00236528	-0.00447047
-0.000867874	0.0062128	-0.00774083
-0.00576015	-0.0740895	0.0714998
0.0221246	-0.0120775	-0.0221283
0.00395474	-0.0365934	0.0344276
-0.00826114	0.00686253	0.00841938
-0.00140925	-0.00919948	0.00933658
-0.000993828	-0.00111198	0.000990859
0.0589224	-0.057977	-0.0585563
-0.00519803	0.0651787	-0.0658464
-2.54215e-05	-0.000375367	0.000157373
-0.00445384	-0.00425896	0.0045684
0.00508737	0.0912488	-0.0908061
-0.00227155	0.00214125	0.00231107
0.0201101	-0.226651	0.209308
-0.00816574	0.00882036	0.00422296
-0.00757612	0.165285	-0.157303
0.00607222	0.00334141	-0.00612219
-0.00339841	0.0103619	0.00402214
-0.00184564	0.00206198	0.0026978
-0.0175486	0.0103079	0.0174118
0.00205784	-0.047216	0.0471342
-0.00524292	0.0109147	-0.00517945
-2.43428e-05	-0.00558629	0.00892322
0.00479473	0.00551182	-0.00478836
-0.000883634	0.00119367	0.00105703
-0.000383524	0.0178221	-0.017789
0.00968493	0.0530115	-0.0542933
0.00449471	0.0145316	-0.021681
-0.000993828	-0.00111198	0.000990859
-0.0106811	0.00704922	0.011189
0.00121639	0.0234596	-0.0223474
0.0102967	-0.00107775	-0.0146239
0.00546281	-0.0134817	0.0130732
0.00344878	0.00620005	-0.00564875
0.102299	-0.102217	-0.102188
0.00317701	-0.0262343	0.0265328
-0.00874798	0.00532206	0.00859762
-0.00320129	0.0181116	-0.0183724
0.00771371	0.0063185	-0.00756391
-0.0104817	0.0102197	0.0103531
0.00685652	-0.0500754	0.0355648
0.0540154	-0.0643454	-0.0466266
-0.00363498	0.0220338	-0.0219886
-0.00741143	0.0434527	-0.0448312
0.0076663	0.0433089	-0.0515611
-0.0958712	-0.080784	0.0962983
0.000477865	0.000430861	0.00151251
0.00117658	-0.0130638	0.0133353
-0.00837768	-0.0130445	0.0114355
-0.00688534	0.0135232	-0.0141047
0.00155414	0.00114027	-0.00159527
-0.00373341	0.000455879	0.00827331
-0.0180567	0.0216466	-0.0217702
-0.01138	0.0105167	0.0114445
0.000313939	0.00241802	-0.00242296
-0.00318804	-0.182779	0.187444
-0.00251567	0.0087222	0.00391753
0.00357115	-0.0486847	0.0493447
-0.0120434	0.0121639	0.0117329
-0.0116263	0.0105253	-0.00983134
0.00967257	0.00991799	-0.00967979
0.00724393	0.00228837	-0.00633395
-0.00222586	-0.000846408	0.00296202
0.0151693	-0.0137155	-0.0145281
-0.00161906	0.0542711	-0.0536944
0.00083616	0.0047789	-0.000908941
-0.00706279	0.00616289	0.00648311
0.00455528	4.76805e-05	0.00338732
-0.001286	0.00226696	-0.000320262
0.00511735	-0.0454369	0.0438422
0.000752325	0.0034655	-0.000837539
0.00691165	-0.0133924	0.0104425
-0.00874142	0.0150948	-0.00525668
-0.00832554	0.00849237	0.00691026
0.00312621	-0.0532599	0.0525403
-0.00345986	0.0208918	-0.0257087
-0.000594969	-0.0109631	0.0110106
-0.00199018	0.00384827	0.0020169
0.0060703	0.00769285	-0.00649372
0.00478099	0.0150338	-0.0147861
-0.0145195	0.0140788	0.010407
0.00124826	0.0225999	-0.0226689
0.00422589	0.00143432	-0.00144354
0.00255265	0.00917685	-0.00275198
-0.0554906	-0.0289368	0.0590597
-0.00290718	-0.0214226	0.00298413
-0.00557059	0.0094854	-0.00984008
0.00401806	0.00222629	-0.00408468
-0.00499817	0.00588317	0.00251614
0.00256685	-0.0139057	0.0142493
-0.00846704	0.00845333	0.00167282
-0.00827227	-0.0251913	0.0250327
-0.0265851	-0.00761812	0.0267856
-0.0216766	0.00899854	-0.0133163
0.00483996	0.00125753	-0.00444634
0.0030618	0.00931995	-0.00453436
0.00224181	-0.00961671	0.00798526
-0.00199018	0.00384827	0.0020169
0.00212749	-0.00208497	0.00485381
0.00736375	0.00741534	-0.00735829
0.0774822	-0.0782642	-0.0784428
-0.0265519	0.0381727	-0.0391168
-0.00593463	0.00296119	0.00871711
0.0012352	0.0213562	-0.0214609
0.0105842	0.00928872	-0.00965332
0.0242462	-0.0136302	-0.0257748
-0.00126823	-0.015676	0.0177667
-0.00888321	0.00898986	0.00854002
0.00276366	-0.0249107	0.0235786
-0.015613	0.00450294	0.0151571
-0.0101197	0.0144385	0.0094441
-0.00430328	-0.0329398	0.0341395
0.0244897	-0.0203344	-0.0236344
0.00298411	-0.0477036	0.0475678
0.00639407	0.00303823	-0.00320399
0.0376663	-0.0379566	-0.0379398
0.00226944	0.00348082	-0.00308103
-0.00364383	0.00566711	0.00203142
-0.0197044	0.0155343	-0.012812
0.00155414	0.00114027	-0.00159527
0.00508997	0.00443682	-0.00417529
0.00404337	0.00156283	-0.00299709
0.00763289	-0.00870888	-0.00898088
0.00185118	-0.0346444	0.0339272
-0.00341518	0.00304037	-0.00214989
0.00420746	-0.0128607	0.0125852
0.000691624	0.0374802	-0.0335137
0.0324616	-0.032439	-0.0330629
0.00800039	-0.0495952	0.0494849
0.0682849	-0.0674373	-0.0682858
-0.000594969	-0.0109631	0.0110106
-0.0124082	-0.000111618	0.0126443
-0.00310103	0.00463293	0.00157834
0.00256685	-0.0139057	0.0142493
-0.00275907	0.00689904	0.00283226
0.00598149	-0.0438228	0.0427977
0.00958942	-0.0910729	0.0878034
0.0299459	-0.0263663	-0.0255056
-0.010429	-0.038734	0.0322266
-0.00518803	0.00497423	0.00335758
0.00205784	-0.047216	0.0471342
0.00083616	0.0047789	-0.000908941
-0.00320693	0.00184647	-0.0030755
0.00605448	0.00652304	-0.00603482
-0.00276128	0.00550686	0.00291384
0.00189008	-0.0139488	0.0126096
-0.00141096	-0.00606357	0.00128713
0.00621005	-0.00610449	0.00583689
-0.00213987	0.00502895	0.00166605
-0.00400544	0.00114717	0.00434487
0.00754345	-0.0241125	0.0242393
0.0282705	-0.0278252	-0.0291136
-0.000316201	0.0259328	-0.0257755
0.00312036	0.000377987	0.000402741
-0.00813596	0.0113822	0.00824886
0.0267096	0.37821	-0.395031
-0.00454117	0.00418403	0.00433182
-0.00169817	0.0949113	-0.0954862
0.00363642	0.00484575	-0.00359186
-0.00969155	0.0122763	0.00960694
0.00608767	0.00746445	-0.00790313
0.042582	0.000100041	-0.0436149
0.003827	-0.0449012	0.044858
0.00312036	0.000377987	0.000402741
-0.0104552	0.00746858	0.00893675
-0.0303714	-0.0314312	0.0303442
-0.00886143	0.00804303	0.00638426
-0.018442	-0.0018413	0.00198438
0.00316853	0.00045137	-0.00283152
0.00440684	-0.0077311	0.0103398
0.00674364	0.00425581	-0.00674003
0.0125233	-0.0122498	-0.0120022
0.00145059	-0.0387199	0.0383845
-0.0217286	0.0203022	0.0217375
0.00029389	-0.0367011	0.0369251
-0.00990807	-0.00415588	0.00983407
0.00617731	0.00818133	-0.00640601
-0.00145815	0.0714852	-0.0688977
0.0119679	-0.0121571	-0.0121603
0.00486047	-0.0659726	0.0646423
-0.0526151	-0.0523127	0.0526154
0.00750828	-0.00621838	-0.00787478
0.00315712	0.0235668	-0.0211603
0.0381036	-0.0381847	-0.0379459
0.00276366	-0.0249107	0.0235786
0.00083616	0.0047789	-0.000908941
0.00233613	0.00639281	-0.00269953
0.00459822	-0.00952192	0.00615669
0.0259513	-0.015838	-0.0259416
0.00754345	-0.0241125	0.0242393
0.000397169	0.00036794	-0.000383493
-0.0014436	-0.0166127	0.0198704
0.00603323	0.00741529	-0.00736828
0.0292737	-0.0293983	-0.0297981
-0.0028151	0.0414907	-0.0406121
-0.304038	-0.0179285	0.295534
-0.000572183	-0.0208873	0.0226157
0.00501365	0.00534748	-0.00502684
0.00680489	0.00590106	-0.0127471
0.00357458	-0.0446629	0.0447005
-0.0179604	0.0142076	0.0099297
-0.00946906	0.069397	-0.07113
0.0021227	0.0173849	-0.0163735
-0.0219803	0.0178726	0.0219939
-0.00177681	-0.0243394	0.0282168
0.0109957	0.000571737	-0.012122
-0.00921788	0.0552267	-0.0570861
-0.00367231	-0.00710628	0.00382711
-0.000759593	-0.00421871	0.000761545
0.00953271	-0.00500411	-0.00155278
0.0261677	-0.0482054	-0.0176679
-0.00249396	0.0444517	-0.0435841
-0.00409386	-0.0123996	0.00409422
0.00466498	-0.0250742	0.0220454
-0.0205985	-0.0194129	0.0205895
0.0290594	-0.0231444	-0.0287996
-0.0251717	0.0274368	-0.0279211
0.00736375	0.00741534	-0.00735829
0.0042144	-0.00439976	0.00230287
0.000899351	0.00068912	-0.000909602
0.00519641	-0.00356896	-0.00368938
0.00746367	-0.0110988	0.00983123
-0.035092	0.0120348	0.035089
0.00739288	-0.0259311	0.0258911
0.000353335	0.0587288	-0.051932
-0.0159022	0.0161363	0.0158649
0.00357115	-0.0486847	0.0493447
-0.0220436	0.0207638	0.0217949
0.00177604	-0.00445476	0.0045117
0.00550036	0.00545943	-0.00550064
-0.00861143	0.00438081	0.00844865
0.0104289	-0.026189	0.018241
0.0100867	-0.010984	-0.0102114
0.00227097	-0.0453161	0.0455883
0.00475837	-0.585934	0.583056
0.000111538	0.0017677	6.51761e-05
-0.0159976	-0.0290624	0.0373858
-0.000471513	-0.000867308	0.000470815
0.00227097	-0.0453161	0.0455883
0.00363642	0.00484575	-0.00359186
-0.0417766	0.0416432	-0.0272628
0.0084087	0.0635377	-0.0651363
0.0707958	-0.0617951	-0.0711158
-0.0102902	-0.0240256	0.0243261
-0.00941808	-0.0261208	0.0310172
0.00739288	-0.0259311	0.0258911
-0.00348808	-0.0963046	0.0962374
-0.0038773	0.00616965	0.00228664
0.00639357	-0.0203494	0.0202223
-0.00997107	0.00653644	0.00708924
0.00369639	-0.0270038	0.0256692
-0.00137967	-0.152342	0.147343
-0.00147989	0.000105173	0.00344313
0.000478947	-0.00398224	0.007434
0.0169975	-0.0176015	-0.017011
0.00224181	-0.00961671	0.00798526
0.0145235	-0.819972	0.818419
0.0418288	-0.0458056	-0.0416337
-0.0026742	0.00272734	0.00305391
0.00958682	-0.0176061	-0.00944061
0.00124826	0.0225999	-0.0226689
-0.0282815	-0.00863942	0.0278246
-0.00260928	-0.0316249	0.0355614
-0.0177045	-0.0316948	0.0259236
0.0257988	-0.0293649	-0.0283692
0.00343268	-0.0230213	0.0215098
0.00422589	0.00143432	-0.00144354
0.0076663	0.0433089	-0.0515611
-0.0133581	-0.0130607	0.0133541
-0.00280587	0.00642978	0.00126384
0.00141425	0.0339885	-0.0335796
-0.00404873	0.00281475	0.00471821
0.00639357	-0.0203494	0.0202223
-0.0265851	-0.00761812	0.0267856
0.0180209	-0.0182644	-0.0130978
0.00486047	-0.0659726	0.0646423
0.108199	-0.107579	-0.108392
-0.00687	0.639344	-0.640025
0.000752325	0.0034655	-0.000837539
-0.00365914	0.00543449	0.00326997
0.0019211	-0.0167459	0.0168884
-0.00703884	0.0068781	0.00671401
-0.000421097	0.00508053	-0.00543183
-0.00990807	-0.00415588	0.00983407
0.00268046	-0.00896601	-0.00197938
-0.011915	-0.0565585	0.0531681
-0.0457842	0.0112011	0.0459819
0.00559359	-0.0086522	0.00917225
0.00509016	0.00516569	-0.00510829
0.00466498	-0.0250742	0.0220454
-0.00495248	-0.0426841	0.0463299
0.0362863	-0.0463192	-0.037198
0.00460226	-0.0153056	0.0152233
-0.0391696	-0.0703195	0.0824271
0.00214401	-0.0441992	0.0441684
0.00713397	0.00480273	-0.00682863
-0.0161965	-0.00557863	0.0181953
0.00440748	-0.0116387	0.0115696
0.00818093	-0.0080048	-0.00797636
-0.0123429	0.0478367	-0.0467286
0.00607222	0.00334141	-0.00612219
0.0953305	-0.0949652	-0.0937066
-0.0782503	-0.518599	0.59093
0.0159564	-0.0136565	-0.0147337
0.00507371	-0.0336372	0.0331328
0.00401806	0.00222629	-0.00408468
-0.0194314	0.00987203	0.0195738
0.000478947	-0.00398224	0.007434
-0.015103	0.0158329	0.0151018
0.000819805	-0.0418823	0.0417022
0.00348693	0.00395795	-0.00447755
0.00152615	-0.00960393	0.0129747
0.00457034	0.00728866	-0.00515194
0.00972065	-0.0132791	-0.0097154
0.00100382	0.0412455	-0.0414319
0.000397169	0.00036794	-0.000383493
-0.00465608	-0.0318697	0.0329798
0.00431234	0.00485284	-0.00431138
-0.0108861	0.0107119	0.00716486
-0.0117016	0.0958145	-0.0954543
-0.00450111	0.00560654	0.00680242
0.00479961	-0.0183525	0.0181366
0.00510414	0.0292497	-0.0270947
-0.00597073	0.00594911	0.00607544
0.0135196	0.0483637	-0.0567782
0.0201235	-0.0200173	-0.0199845
0.00474748	0.00974066	-0.0119685
0.00846839	0.00830397	-0.0084774
-0.00177354	0.00231474	0.00188408
0.00285917	-0.0123065	0.0107872
-0.00371542	0.00498103	0.00300696
0.00232182	0.00648564	-0.00664644
0.00458485	0.00317315	-0.00346143
0.00412864	-0.00426855	-0.00428482
-0.111935	-0.100396	0.111936
-0.0130213	0.00506689	0.0151727
0.000816174	0.021983	-0.0218061
0.00177589	0.00108393	-0.00174751
0.0122965	0.0775402	-0.0891033
-0.0195082	0.00267938	-0.00145499
-0.0122614	0.0144299	0.0111411
0.00702553	-0.0207354	0.0202462
-0.01151	0.00927339	0.0116733
-0.0111212	0.0672106	-0.0670003
-0.00869255	-0.0431737	0.0513178
0.0100776	0.00502308	-0.0111925
0.00357115	-0.0486847	0.0493447
-0.00818877	0.0106637	0.00825458
0.00229356	-0.0442409	0.044157
-3.13543e-05	0.00407975	7.28949e-05
-0.00594841	0.00574303	0.00576797
-0.00893866	0.00759862	0.00756632
-0.00397196	-0.00187928	0.00411224
0.00280557	-0.0176664	0.0183507
0.00344878	0.00620005	-0.00564875
0.0716147	-0.0715147	-0.071618
-0.000359437	0.00314279	0.00455307
-0.0428692	0.00673953	0.043634
0.00202926	0.0206361	-0.0205252
-0.00087701	-3.01391e-05	0.000906197
-2.43428e-05	-0.00558629	0.00892322
0.00582368	0.00617193	-0.00583367
0.0125233	-0.0122498	-0.0120022
0.0012245	-0.0400809	0.0400716
0.00459822	-0.00952192	0.00615669
0.00730934	0.00199781	-0.00677815
-0.0836398	-0.0774033	0.0828364
0.00379852	0.0098424	-0.00899917
-0.0779517	0.222841	-0.22227
-0.0140055	0.0136094	0.0141693
0.00418789	-0.0588562	0.0576756
-0.000555295	0.0787195	-0.0712617
0.107852	-0.107531	-0.108192
-0.0362469	0.0362851	-0.026724
-0.00658028	-0.00051937	0.00588612
0.00189008	-0.0139488	0.0126096
-0.000622458	-0.00245412	0.00366575
0.0498573	-0.0501099	-0.0497439
-0.00519789	0.00634904	0.00557312
-0.0243873	-0.00597483	0.0262628
0.00486801	-0.0466533	0.0466107
0.00458485	0.00317315	-0.00346143
0.00212749	-0.00208497	0.00485381
0.000223058	0.0144118	-0.0155955
-0.0108861	0.0107119	0.00716486
-0.00269237	-0.00630334	0.00483219
0.00766666	0.0073341	-0.00766941
-0.0561443	0.297054	-0.303423
-0.000264771	0.0003309	0.00026563
-0.0151605	0.00571201	0.014533
-0.000913192	-0.0609329	0.060823
-0.00403848	0.00197378	0.00604262
0.00757445	-0.0300009	0.0299486
0.00897067	-0.0352759	0.033232
0.00320556	-0.00413622	-0.00345451
0.00260028	0.00367518	-0.00498029
-0.00779198	0.00786066	0.00771296
0.00400655	-0.0118213	0.0133928
-0.000264771	0.0003309	0.00026563
-0.0217286	0.0203022	0.0217375
0.0161446	-0.0353064	0.0213162
0.00412864	-0.00426855	-0.00428482
0.00648247	-0.0308847	0.0306202
-0.0125542	-0.0388254	0.0395594
0.0249368	-0.024666	-0.0237479
-0.0202717	0.00134598	0.0126394
-0.0265278	0.0251799	0.0265285
0.00258584	0.0131112	-0.0132535
-0.00236927	0.00376443	0.00239424
-0.007501	0.0177275	-0.0171671
0.00759869	0.062615	-0.0647554
-0.00385863	0.00585997	0.0040462
0.0028355	0.262258	-0.264202
0.00421665	0.00498742	-0.00501523
-0.00464255	-0.0105918	0.0112731
-0.0084149	-0.0106491	0.00656143
-0.00559098	0.00704847	0.00485891
0.000631749	-0.012628	0.0127972
-0.0136623	0.0105491	0.0125647
0.00569832	0.059816	-0.0589704
0.00421665	0.00498742	-0.00501523
-0.00793668	0.00594638	0.00859622
0.00148913	0.000283361	0.00166995
-0.0325997	0.0207491	0.0325806
-0.00417698	-0.0251879	0.0245387
-0.000310076	0.00100987	0.00234726
-0.00367479	0.00915932	0.00518485
-0.00487735	-0.0714332	0.0625675
-0.0161632	0.0146083	0.014932
-0.00285126	0.00451091	-0.00384163
0.0105842	0.00928872	-0.00965332
-0.00521047	0.00486089	-0.0103673
0.00134177	0.00235127	-0.00137931
-0.0125076	0.00021744	0.0122804
-5.35938e-05	-0.0117715	0.0125915
0.00431813	0.00941334	-0.00814901
0.000721684	-0.00951679	0.0118111
0.0052435	0.00416495	-0.00479531
-0.0125759	0.0133387	0.00856291
-0.0639651	-0.0304778	0.0306455
0.0217613	-0.0216657	-0.0223534
-0.00311255	0.0213931	-0.0217036
-0.0115538	-0.0120569	0.0121027
-0.00244733	0.00627743	0.00267534
-0.000544182	0.15443	-0.15191
0.0141761	-0.0143888	-0.0142732
0.00238536	-0.039292	0.0393437
0.00292299	0.00241013	-0.00299168
-0.0136641	0.016104	0.0138687
0.001792	0.00335778	-0.00238642
0.196155	-0.196156	-0.196155
0.0067281	-0.00505645	0.00355676
-0.000438819	4.90408e-05	0.000469706
-0.00467033	0.0050723	0.00457521
-0.00247982	0.00224405	0.00374015
0.0537503	-0.0560785	-0.0537391
0.00515455	-0.0661202	0.0646355
-0.0152657	-0.00330909	0.0153095
0.0178343	-0.017517	0.0120128
-0.00341518	0.00304037	-0.00214989
-0.0065575	0.00583972	0.00425406
-0.00189283	0.0543122	-0.0537036
-0.00660403	-0.0443385	0.0450514
0.00702553	-0.0207354	0.0202462
0.0118564	0.0601933	-0.0638705
-0.0063642	0.00668137	0.00463949
0.00137613	-0.0175915	0.017786
0.0165398	-0.0184774	-0.0167775
-0.00332991	0.01361	-0.0126978
-0.00157537	0.0162179	-0.00947085
0.0408536	-0.0399434	-0.040867
0.0126408	0.00607174	-0.00757772
-0.00662191	0.00756369	0.00684449
0.00687992	-0.0120271	0.0117742
0.00771371	0.0063185	-0.00756391
0.0378016	-0.0375023	-0.0377935
-0.00127548	3.33971e-05	0.00510204
0.119222	-0.127662	-0.113372
0.002472	-0.0255208	0.0256415
0.001235	0.0280851	-0.0254582
0.00278597	-0.0339991	0.0333699
-0.030749	-0.0316662	0.030521
-0.00280587	0.00642978	0.00126384
0.00478459	-0.0327352	0.0322229
0.00421665	0.00498742	-0.00501523
0.00111579	-0.0156758	0.0157921
0.000686131	0.000355162	-0.000690173
-0.0125759	0.0133387	0.00856291
-0.00868871	0.0554066	-0.0555824
-0.0052322	0.00455337	0.00564447
0.00137434	0.0145343	-0.014753
0.00241663	0.00326093	-0.00301827
-0.00523243	0.00292014	0.00605269
0.0209242	-0.0210388	0.0156974
0.0326452	-0.0329971	-0.0326229
0.00205784	-0.047216	0.0471342
-0.00342844	-0.00220748	-0.0022593
-0.00509817	0.00178244	0.00592661
0.0274874	0.0042837	-0.0219666
0.00836131	-0.00835177	-0.00991872
0.00115063	-0.0427959	0.0426902
-0.011588	-0.0493159	0.0495383
0.0330647	-0.0319795	-0.0328186
-0.0191058	-0.0104926	0.0185395
0.0332384	-0.0275231	-0.0297586
0.00485975	-0.0631507	0.0617499
-0.00795705	-0.0113432	0.00830761
-0.0101707	-0.00331465	0.00356598
0.00501365	0.00534748	-0.00502684
-0.00900705	0.0124026	0.00918983
-0.00191529	0.00757376	-0.00845571
0.0394911	-0.054115	-0.0395171
-1.97238e-05	0.0230625	-0.023731
0.00309581	0.0375728	-0.0372085
-0.00027915	0.00582302	0.00181218
0.00474748	0.00974066	-0.0119685
-0.00812457	0.00710947	0.00807621
0.0126688	-0.0121571	0.0114383
0.00364906	0.00329835	0.00348039
0.00392798	-0.00196608	-0.00373043
0.00698869	0.0146391	-0.0181458
-0.0101152	0.0113664	0.0097983
-0.00490007	-0.00577666	0.00676004
-0.00590298	0.0107295	0.00570474
0.0163761	-0.018495	-0.016372
-0.0599262	-0.332495	0.390049
-0.0175486	0.0103079	0.0174118
0.00330888	-0.0446383	0.0445491
0.00674364	0.00425581	-0.00674003
-0.00385312	0.0114569	-0.0118131
0.00686464	0.0137964	-0.0149602
0.00181406	-0.000449945	0.000886442
0.00338085	-0.0205198	0.0207173
0.000334698	-0.0469181	0.0424137
0.00107174	-0.0494711	0.0529111
-0.00869255	-0.0431737	0.0513178
-0.00702177	0.00560523	0.00693541
0.00459058	-0.0536366	0.0533902
0.0105646	-0.00898216	-0.00843539
0.00264694	0.000593223	-0.00158321
0.00652294	0.00359773	-0.00650164
0.0353593	-0.0353051	-0.0354133
0.0140894	-0.0173654	0.0129395
-0.00218594	0.00405691	0.00436043
0.00133106	-0.00739153	0.00696059
0.00164696	0.0112818	-0.00209368
0.0140518	-0.0136428	-0.0142995
-0.0384795	-0.113208	0.117733
-0.00396889	-0.00276421	-0.00158843
0.00425555	-0.0486036	0.0485202
0.00982183	0.000956197	-0.00301308
-0.00367832	-0.00231557	0.00472645
-8.39808e-05	0.00208671	0.000261441
0.00547587	-0.0142704	-0.00485848
-0.0196112	0.100723	-0.101921
-0.0054978	-0.00477698	0.0055139
0.0117677	0.0160171	-0.024029
0.00427904	0.000932675	-0.00389088
0.0181021	-0.0184485	-0.0178047
0.0171449	-0.0137466	0.0141624
0.0204748	-0.0106103	-0.0206505
4.6552e-05	-0.00688222	0.0074768
0.00422589	0.00143432	-0.00144354
0.0133466	-0.0070752	-0.0121404
0.00260028	0.00367518	-0.00498029
-0.0317471	0.0302767	0.0316407
0.00468463	0.675183	-0.675809
-0.00786786	-0.00909432	0.00788888
-0.00520084	0.00944334	0.00525402
-0.00219199	-0.076949	0.0654194
0.104213	-0.102999	-0.104153
0.00100382	0.0412455	-0.0414319
-0.000993828	-0.00111198	0.000990859
-0.00200829	0.00030529	0.00376344
0.00584778	0.0121732	-0.0107301
-0.0232247	0.0125934	0.0183118
-0.0130433	0.0638799	-0.0647955
0.00401806	0.00222629	-0.00408468
-0.0550817	0.0550101	-0.0493486
-0.0136541	-0.0129637	0.0136734
0.00926709	-0.00885087	-0.00905537
0.00145059	-0.0387199	0.0383845
-0.0114196	-0.0522928	0.0487626
0.00693563	0.000354923	-0.000175951
-0.000412108	-0.0118069	0.00769603
0.00742971	-0.00774149	-0.00801396
0.0103457	-0.0263044	0.0265678
0.0527343	-0.0518163	-0.0527406
0.0012753	0.00530074	-0.00543531
0.00579598	0.00430597	-0.00578402
0.0172077	-0.0162511	-0.0173032
0.00714368	-0.0110021	0.00849031
-0.0196669	0.0192517	0.0196665
5.05708e-05	-0.0261806	0.0270598
0.000686131	0.000355162	-0.000690173
-0.00515611	0.00822833	0.00531647
0.00345528	-0.00744847	0.00349949
0.0147156	-0.0148323	-0.0112584
0.00255107	-0.0130513	0.0133137
0.00161559	-0.00235539	-0.0015912
-6.50498e-05	-0.0373373	0.0404159
-0.000310076	0.00100987	0.00234726
0.000477865	0.000430861	0.00151251
0.00713911	-0.0267655	0.0265583
-0.00305003	-0.0050643	0.00885578
0.00507965	-0.00456885	0.00141749
0.00132618	0.00141045	-0.00133559
-0.00496	-8.66742e-05	0.00907371
-0.0347823	0.135875	-0.136682
-0.0101152	0.0113664	0.0097983
0.00757445	-0.0300009	0.0299486
-0.00223204	0.0273489	-0.0188786
-0.0083842	0.00638953	0.0109868
0.00404355	-0.00550867	0.0078451
-0.0140055	0.0136094	0.0141693
-0.00312522	0.0103945	-0.0095723
0.00509016	0.00516569	-0.00510829
-0.0137608	0.00877365	0.0148405
-0.0230791	0.00330721	0.0192763
-0.00659731	0.00598993	0.00654766
0.00294242	-0.04993	0.0503068
-0.0613575	-0.0525451	0.0593165
-0.0070469	0.00637367	0.00789057
-0.0246803	-0.0207903	0.0251781
-0.00499817	0.00588317	0.00251614
0.00320655	-0.0252289	0.0263507
0.00083616	0.0047789	-0.000908941
-0.103065	0.103553	-0.122826
0.00605448	0.00652304	-0.00603482
0.0358425	-0.0362555	-0.0353879
0.000811325	0.404836	-0.407516
-0.00584661	0.0376194	-0.0308554
-0.00208276	0.0557483	-0.0554658
-0.00493712	0.0213499	-0.0093008
-0.00442903	0.0025097	0.00580633
-0.00596877	0.0448533	-0.0447439
0.00118029	-0.00122534	-0.000974806
0.00108143	-0.00953727	0.00935066
0.001235	0.0280851	-0.0254582
-0.00813657	0.00752528	0.00809502
0.00934144	-0.00258712	-0.00132525
-0.015152	0.0124897	0.0148795
0.00418789	-0.0588562	0.0576756
-0.0054978	-0.00477698	0.0055139
0.000466399	0.00181922	-0.000744578
-0.000333604	-0.00206048	0.00379002
0.0130467	-0.0140184	-0.0172613
0.00648247	-0.0308847	0.0306202
-0.00296085	0.004888	-0.00246584
0.00730647	0.0500361	-0.056845
0.00745743	-0.111628	0.110083
0.00962689	-0.00963251	-0.0094803
0.00120458	-0.0375263	0.0376973
-0.0322283	-0.0229074	0.0325281
0.0151173	-0.0179697	0.0151049
0.00736375	0.00741534	-0.00735829
0.0165998	-0.0164618	-0.0206564
-0.00272116	0.0359123	-0.0360766
0.0242172	-0.0237575	-0.024067
0.00387632	-0.0412305	0.0413974
0.00146143	0.00111628	-0.00146876
0.00631049	0.00699193	-0.00648902
0.00957167	-0.0100379	0.00601495
0.0330647	-0.0319795	-0.0328186
0.00667704	-0.0105615	0.00938036
0.0108286	-0.510218	0.506889
0.0218843	-0.0202739	-0.0222029
0.0161446	-0.0353064	0.0213162
-0.0100245	0.00993148	0.00335798
-0.00151891	0.0123452	-0.0123557
0.00782715	0.00162739	-0.00292211
-0.0205659	0.0212699	0.0206161
0.00514627	0.0189777	-0.0238585
-0.00364383	0.00566711	0.00203142
-0.00232978	-0.002574	0.00297855
0.00292299	0.00241013	-0.00299168
-0.0101707	-0.00331465	0.00356598
0.00540703	0.0047985	-0.00533062
-0.0161632	0.0146083	0.014932
0.00273665	-0.0308955	0.0287758
-0.00647216	0.00281476	0.00938194
0.00320655	-0.0252289	0.0263507
-0.00746806	-0.00506381	0.00531545
-0.00606029	0.00563928	0.00375595
0.000378591	0.0605494	-0.0609878
-0.0322309	0.0320019	0.0322157
-0.00240857	0.0716082	-0.0718596
0.00114981	-0.0317343	0.0384062
-0.00990056	0.00714688	0.010042
0.00573271	0.00479499	-0.00568099
-0.0120414	-0.0123995	0.0157839
-0.00432773	0.463674	-0.458553
-0.00547737	0.00170714	0.00587377
0.256821	-0.0823435	-0.336437
-0.276512	-0.440599	0.659925
0.000738034	0.000972136	-0.00121282
0.00660737	-0.0185219	0.0182691
-0.0296825	-0.00685234	0.029747
0.00391661	-0.0069003	0.00983349
0.00211734	0.0024759	-0.002117
-0.0149827	0.00571296	0.0154052
0.00338085	-0.0205198	0.0207173
0.00693453	0.00195251	-0.00294071
0.00317701	-0.0262343	0.0265328
-0.0199844	-0.0160175	0.0130561
0.000981903	-0.00439206	-0.00241455
0.00222731	0.0389714	-0.0386815
0.0140795	-0.0146855	-0.013255
0.00882961	0.00322563	-0.00562835
0.00300571	-0.00792342	0.0110299
-0.00555647	0.00523319	0.00181634
-0.00672132	0.0188722	-0.0179529
-0.0295638	0.0281751	0.0295635
-0.028215	0.0303076	-0.0231402
0.00588133	-0.407559	0.404267
0.0137016	-0.0106969	-0.0125085
-0.0312518	0.00762148	0.0217844
0.0145566	0.00795474	-0.0182531
0.00357115	-0.0486847	0.0493447
-0.0119168	-0.0374237	0.042818
-0.00986338	0.067229	-0.0729562
-0.0104842	-0.975298	0.990983
-0.0130868	0.006146	0.015675
-0.00888337	0.0368422	-0.0368136
0.0043262	0.0176788	-0.0168698
-0.002708	0.00248399	-0.00672924
-0.000993828	-0.00111198	0.000990859
0.0455194	-0.0445258	-0.0456999
0.00303625	0.240889	-0.243405
0.0213397	-0.0217242	-0.021924
0.00311428	-0.0459792	0.0458363
0.0034804	0.00482857	-0.00421487
0.137002	-0.141427	-0.137089
0.00690525	-0.0163544	0.0164866
6.16965e-05	0.000318749	-0.000181237
0.000819805	-0.0418823	0.0417022
0.00605448	0.00652304	-0.00603482
-0.00434692	0.00408116	0.00382371
-0.00983978	0.00974731	-0.0118565
0.0374879	-0.0398771	-0.0374878
0.00425555	-0.0486036	0.0485202
0.000255193	-0.000949991	0.00167956
-0.00107874	-0.00282591	0.00107347
0.00603323	0.00741529	-0.00736828
-0.0104874	0.0120635	0.0102997
-0.000594969	-0.0109631	0.0110106
0.000397169	0.00036794	-0.000383493
-0.0493434	0.0495596	-0.017898
-0.0113175	-0.0358915	0.0476071
-0.00502774	0.00505475	0.00418897
0.0040729	-0.048292	0.0486077
0.00579212	0.0502496	-0.0454226
0.0133227	0.0560173	-0.0626847
-0.0305154	-0.133795	0.138912
-0.00522449	0.00275285	0.00543511
0.00538918	-0.0421209	0.0419317
-0.00781027	0.00833263	0.00808714
-0.0223478	0.0223263	-0.0246145
-0.000264771	0.0003309	0.00026563
0.00506756	-0.00605832	-0.00533361
-0.00338413	-0.00368794	0.00434281
0.0193704	-0.020284	-0.0193293
-0.00169817	0.0949113	-0.0954862
0.00605448	0.00652304	-0.00603482
-0.00123243	0.00498629	0.00178723
0.00371871	0.0659889	-0.0704622
0.012199	-0.00797777	-0.0115559
0.00108143	-0.00953727	0.00935066
-0.00213987	0.00502895	0.00166605
0.00719325	-0.0122232	0.0138651
-0.0128947	-0.00198672	0.0158781
-0.00502774	0.00505475	0.00418897
0.00648247	-0.0308847	0.0306202
0.00652294	0.00359773	-0.00650164
0.00691552	0.02186	-0.0310244
0.00132618	0.00141045	-0.00133559
-0.00874153	0.0101393	0.00861995
0.00735849	0.0176633	-0.0171308
-0.0123361	0.00968888	0.00581949
0.00739288	-0.0259311	0.0258911
-0.00555813	-0.0455271	0.03912
-0.0077791	0.00735062	0.00557509
0.0012753	0.00530074	-0.00543531
-0.00647216	0.00281476	0.00938194
-0.00605062	0.00703154	-0.00388304
0.00540703	0.0047985	-0.00533062
0.0369255	-0.038591	-0.0364121
-0.0816684	-0.186769	0.187649
-0.0151215	0.0150345	0.0151744
-0.0181023	0.0654919	-0.0663531
0.0141801	0.00501333	-0.00711611
0.0195446	-0.0181759	-0.0195442
-0.0119293	0.0523235	-0.0570487
0.0617936	-0.0929135	-0.0665562
0.00713819	-0.0173207	0.0172479
0.00241663	0.00326093	-0.00301827
0.00801035	-0.00795993	0.00607592
0.00455961	0.00899478	-0.0079753
-0.0167275	0.0171841	0.0167831
0.00189008	-0.0139488	0.0126096
-0.00644903	-0.0224343	0.0261399
0.000819805	-0.0418823	0.0417022
-0.000707395	0.0824274	-0.0760986
-0.0391591	0.0111229	0.0390478
0.0105245	-0.034521	0.0347465
-0.013189	0.0103879	0.0132456
0.00694552	-0.0215	0.0217552
0.00680066	0.0845359	-0.085342
-0.0100902	0.00993444	0.0102328
-0.0230791	0.00330721	0.0192763
-0.0179604	0.0142076	0.0099297
0.00232269	-0.0294806	0.0284141
0.00433119	0.00843698	-0.00788175
-0.00310103	0.00463293	0.00157834
-0.0264926	0.0835294	-0.0775512
0.0664224	-0.0488005	-0.0694034
0.002472	-0.0255208	0.0256415
0.00440519	0.00236528	-0.00447047
-0.0810909	0.0834617	-0.08658
0.00290214	-0.000178136	-0.00300295
-0.00146357	0.00805416	0.000566951
-0.00169443	-0.0335954	0.0338306
0.00345528	-0.00744847	0.00349949
0.00440443	-0.0210298	0.022196
0.000985472	0.000680581	-0.000990824
-0.0104445	0.0105226	0.0103338
-0.00583508	-0.0258713	0.0258031
0.0148525	-0.0148645	-0.0141529
0.00170372	-0.00198013	0.00198051
-0.00311769	0.0356182	-0.0343571
-0.00816799	0.00696119	0.00778115
0.00319408	0.000917165	0.00237715
-0.00344472	0.00218511	0.00464653
0.00439835	-0.0485569	0.0479878
0.00104669	0.00918656	-0.00148606
-0.0198088	0.0175345	0.0198091
-0.0211913	0.0221493	-0.00945528
0.0442717	-0.0555005	-0.0452208
0.00133205	-0.020693	0.0207063
0.00734119	0.00590513	-0.00733382
-0.00820659	0.00763524	0.00842621
-0.00261935	-0.273422	0.275024
0.0292507	0.0102038	-0.0313951
0.0043014	-0.00441919	0.005587
0.001792	0.00335778	-0.00238642
-0.0207998	0.0128257	-0.0120618
0.000752325	0.0034655	-0.000837539
-0.0109212	0.00237406	0.0124089
0.00154482	-0.0137671	0.0128812
0.00859285	-0.0181181	-0.00957289
0.00739288	-0.0259311	0.0258911
0.00426548	0.0196339	-0.0151646
0.808243	0.0147649	-0.842902
0.00223891	-0.0122598	0.0119967
0.0190883	0.00175617	-0.0190606
-0.0105735	0.0579914	-0.0583712
0.002202	-0.0166769	0.0131348
0.0354023	-0.0469714	-0.0348878
-0.00148595	-0.000926792	0.00299379
-0.00272258	0.00557014	0.002881
-0.000362268	0.097691	-0.0986966
-0.00346448	-0.00293228	0.00346453
-0.0237836	0.0120566	0.0237794
-0.00148595	-0.000926792	0.00299379
0.0786757	-0.00579157	-0.0786213
0.0017064	-0.0396792	0.0403337
0.00148189	0.00141858	-0.00148436
0.00616404	-0.00676927	0.00142585
-0.00087701	-3.01391e-05	0.000906197
-0.00422848	0.0105589	0.00440078
0.00477288	-0.0466254	0.0451832
0.000478947	-0.00398224	0.007434
0.00111579	-0.0156758	0.0157921
-0.0137835	-0.0156483	0.0137671
0.00177258	0.00588483	-0.00203183
-0.00311255	0.0213931	-0.0217036
-0.00446868	0.00458506	0.00465175
0.0012352	0.0213562	-0.0214609
0.00270067	-0.445892	0.444467
-0.015528	0.0155319	0.0119754
0.0138236	0.0677791	-0.0748085
-0.0149332	0.00933391	0.0151478
0.00120728	-0.0322673	0.0333207
-0.00946765	-0.0116215	0.00951269
-0.0175506	0.0182575	0.0175525
-0.0182284	0.0200352	-0.00713914
0.0630835	-0.0752549	-0.0619231
3.10523e-05	-0.00174878	0.00197748
0.00713397	0.00480273	-0.00682863
0.00227006	-0.00166496	0.000315102
0.0139118	0.00686334	-0.00947868
0.0134655	-0.0131772	-0.013713
0.00275291	-0.00753949	0.00696444
-0.0014017	-0.00133344	0.0013938
0.00958205	-0.029139	0.0254072
-0.0686531	-0.0250123	0.0690636
-0.0257708	0.026218	0.0257457
0.00758228	0.0226882	-0.0253289
0.00890042	-0.00890253	-0.00874158
-0.00373956	0.0351123	-0.0340211
0.00308205	0.040312	-0.0402363
0.00805191	-0.0133699	-0.00360991
0.00499861	-0.0397446	0.0378701
0.001769	0.00146567	-0.00176571
0.00314853	-0.00346987	0.00632919
0.00309581	0.0375728	-0.0372085
0.0223528	-0.0201109	-0.0203729
-0.0173875	-0.0147769	0.0135813
-0.00812052	0.00737898	0.00800896
0.00343268	-0.0230213	0.0215098
-0.0115538	-0.0120569	0.0121027
0.017343	-0.0179604	-0.0171239
0.00824978	-0.0016629	0.00181254
0.0264472	-0.00139709	-0.0264455
-0.00170046	-0.00614428	0.00669902
0.00243395	0.00444829	-0.00240383
0.0138236	0.0677791	-0.0748085
0.00562374	0.00183335	-0.00568236
-0.00218191	0.00168911	0.00285662
0.00100382	0.0412455	-0.0414319
0.0155217	0.0202793	-0.0334476
0.00107174	-0.0494711	0.0529111
-0.0168827	-0.163703	0.162569
-0.00423682	0.00427666	0.00281429
-0.00272141	0.0151025	-0.015109
-0.00107059	0.00923814	0.00114136
0.00133106	-0.00739153	0.00696059
0.00846839	0.00830397	-0.0084774
0.00944884	-0.0160945	-0.0106357
0.00345069	-0.0722046	0.0757694
0.310315	-0.0717551	-0.312585
0.00469839	-0.0119186	0.0131037
0.00466668	0.0721717	-0.0719309
0.00441784	-0.0361845	0.00164782
0.00190776	0.00512817	-0.00472812
-0.0212341	0.00736931	0.0266397
-0.00694622	0.0393625	-0.0393181
-0.00346448	-0.00293228	0.00346453
-0.00883869	0.0257261	-0.0225698
-0.0829496	-0.0837287	0.0829534
-0.0144587	0.00895504	0.0154272
-0.00140925	-0.00919948	0.00933658
0.00771371	0.0063185	-0.00756391
0.00613183	-0.00606235	0.0035492
0.00479473	0.00551182	-0.00478836
-0.00721356	0.00664687	0.00813528
-0.134828	0.648154	-0.651354
0.00676807	-0.0064068	-0.00668643
-0.0034985	0.0287645	-0.0274675
0.000909242	-0.00471677	0.00579662
-0.00146687	0.0055953	0.000799996
-0.00489731	-0.0270548	0.0270332
0.0249368	-0.024666	-0.0237479
0.00307294	-0.0114108	0.0130351
-0.00982047	0.10734	-0.104415
0.0124944	-0.00804009	-0.0124888
0.00124694	0.0195519	-0.0217769
-0.0206983	0.0207158	0.0206828
0.00357458	-0.0446629	0.0447005
0.000899351	0.00068912	-0.000909602
0.00734339	-0.00583554	-0.00739921
0.00315525	0.0487857	-0.048447
0.00149758	-0.000764519	0.00105598
-0.00264416	0.0664047	-0.0663088
0.00440519	0.00236528	-0.00447047
0.0041591	-0.00478411	0.00135554
0.00607222	0.00334141	-0.00612219
-0.0159875	0.015164	0.0159011
0.00189008	-0.0139488	0.0126096
-0.0242992	0.00469196	0.017806
0.00479301	-0.0108995	0.0102961
-0.00429849	-0.191409	0.192801
0.0121745	-0.00806212	-0.0163011
-0.00570608	0.00966595	-0.00984112
-0.00285323	0.0043946	0.003066
0.00395145	-0.00911092	0.011754
-0.000614903	-0.00210795	0.000530412
-0.0171271	0.0166463	0.0125475
-0.478773	-0.317156	0.664516
-0.0105025	0.0149995	0.0103545
-0.01557	-0.00289869	0.00239432
-0.00566981	-0.445484	0.4448
-0.00744313	0.00520822	0.00802229
-0.00597114	-0.0488722	0.0468627
0.0572249	-0.0586846	-0.0572217
-0.0130124	0.179887	-0.179007
0.00310419	-0.101513	0.106101
0.00124572	-0.01749	0.0203392
-0.0189404	-0.0578744	0.0638691
-0.0177863	0.0164303	0.0177819
0.0012245	-0.0400809	0.0400716
0.00608767	0.00746445	-0.00790313
0.00051963	-0.0210864	0.0233286
0.00457034	0.00728866	-0.00515194
0.00154638	0.0100383	-0.00302649
0.0110062	-0.0510684	0.0511641
0.0269174	-0.0232537	-0.0266349
0.00639357	-0.0203494	0.0202223
0.00479473	0.00551182	-0.00478836
-0.0157595	0.00592398	0.015837
0.00345069	-0.0722046	0.0757694
-0.00889863	0.00839501	0.00890202
0.00282198	-0.0518231	0.0513537
-0.00450722	0.13877	-0.140067
-0.00659468	0.00818705	0.00665248
-0.0658729	-0.0549158	0.0646063
-0.00803446	0.00320576	0.00803883
-0.0058666	0.0159512	-0.0162593
0.00146077	0.0123446	-0.0124097
0.000706699	0.00278554	-0.000790994
0.00241931	-0.0093588	0.00911773
-0.0318008	0.0163695	0.0311362
0.00259971	0.00748751	-0.00951281
0.0052435	0.00416495	-0.00479531
0.00317701	-0.0262343	0.0265328
-8.39808e-05	0.00208671	0.000261441
0.00259349	-0.00546205	-0.0032501
0.00518876	-0.00222284	0.0037071
0.0242358	-0.0258932	-0.0245214
0.00640425	-0.0486543	0.0485753
-0.0139597	-0.0174451	0.0116876
-0.00522636	0.00322003	0.00723353
0.0042012	-0.00993774	0.00975422
-0.00536834	0.00183304	0.00826018
0.00133205	-0.020693	0.0207063
-0.00989973	-0.00923627	0.00991194
0.00741655	-0.00703931	-0.00932025
0.00934144	-0.00258712	-0.00132525
0.02966	-0.0318644	-0.0296599
-0.0232393	0.147693	-0.14584
-0.0140163	0.0102122	-0.00934874
0.00449385	-0.000664097	-0.00421063
-0.0075266	0.0223065	-0.00874735
-0.0130213	0.00506689	0.0151727
0.00434866	-0.0227096	0.0238188
0.0172964	0.0177936	-0.0172856
-0.00338413	-0.00368794	0.00434281
-0.00087701	-3.01391e-05	0.000906197
0.0046273	-0.00651577	-0.00212397
-0.0304526	0.328991	-0.32728
0.00315137	0.0020507	-0.00166589
0.00152615	-0.00960393	0.0129747
0.00674364	0.00425581	-0.00674003
0.00833374	-0.0121586	-0.008516
0.0174957	-0.033048	0.0333293
0.14454	-0.144552	-0.144503
0.00648247	-0.0308847	0.0306202
0.00267632	-0.18743	0.185116
0.0168935	-0.0212456	-0.0168649
0.00328886	0.0268802	-0.0291573
-0.0122614	0.0144299	0.0111411
0.00486047	-0.0659726	0.0646423
-0.00087701	-3.01391e-05	0.000906197
-0.0162508	0.0158149	0.0140969
-0.0334129	-0.0962524	0.101398
0.0319166	-0.0317222	-0.0319162
-0.0073325	-0.0243808	0.0241965
0.0008828	-0.00462467	0.00358482
-0.00738304	0.00802949	0.00641563
-0.0267959	-0.0317339	0.026868
-0.011034	0.000913176	0.0103018
-0.00274886	-0.0212869	0.022413
0.00846839	0.00830397	-0.0084774
0.00789833	0.103335	-0.118482
0.0100169	-0.00131166	-0.000371085
-0.001286	0.00226696	-0.000320262
0.00224181	-0.00961671	0.00798526
0.0358355	-0.0377223	-0.0359209
-0.00821632	0.182387	-0.180838
-0.0131452	-0.0169276	0.0159124
-0.0160672	0.00297125	0.0145921
0.00229356	-0.0442409	0.044157
-0.0145818	0.0118635	0.0115197
-0.00535548	0.00503833	-0.00342912
0.00562374	0.00183335	-0.00568236
-0.00780631	0.00804677	0.00856606
-0.00756406	-0.00336869	0.00499026
0.0129202	-0.0140709	-0.0133608
0.00439835	-0.0485569	0.0479878
-0.00222586	-0.000846408	0.00296202
0.0713271	-0.0703768	-0.0710799
0.00657986	0.0511115	-0.0473158
-0.0149197	0.0137585	0.00724586
0.00448416	-0.00128071	0.00257249
0.00122386	0.0111212	-0.0111788
-0.00260572	0.178681	-0.199584
0.00812	0.069917	-0.0712917
-0.0161632	0.0146083	0.014932
0.00358362	-0.0481744	0.0468051
-0.00367225	-0.00664946	0.0123704
0.00906241	-0.018878	0.0167164
-0.0467472	0.0974501	-0.100308
0.00944884	-0.0160945	-0.0106357
0.00474748	0.00974066	-0.0119685
0.00149758	-0.000764519	0.00105598
0.00229356	-0.0442409	0.044157
-0.0019956	-0.00552667	0.00192522
-0.00989092	0.00989995	0.00992597
0.0116597	-0.0276629	0.0231636
-0.0206747	0.0147348	0.0209046
0.00185118	-0.0346444	0.0339272
-0.0448704	-0.0536601	0.0524553
0.0102967	-0.00107775	-0.0146239
0.000478947	-0.00398224	0.007434
0.0251163	-0.0304468	-0.0246436
0.00546281	-0.0134817	0.0130732
0.00363642	0.00484575	-0.00359186
0.00590948	-0.013134	0.015009
-0.027371	-0.032695	0.0273692
0.00583522	0.00774907	-0.00617033
0.00357115	-0.0486847	0.0493447
-0.00502308	0.0219461	-0.00980133
0.00411735	-0.0089587	0.00671463
0.00693453	0.00195251	-0.00294071
-0.0119142	0.00620734	0.0116819
-0.00157421	0.0278054	-0.0274054
-0.00647533	0.00755356	0.00686021
0.000816174	0.021983	-0.0218061
0.00422589	0.00143432	-0.00144354
-0.00118346	0.00128476	0.00136823
0.00560591	-0.0426251	0.0419522
-0.0143137	0.0094289	0.0143141
0.00456401	-0.0284896	0.0276822
0.00282318	0.00637193	-0.00541734
-0.00475236	0.00242357	0.00459804
0.00176271	-0.00893549	0.00926774
0.00238139	-0.00157691	-0.00238292
0.000671423	0.00693081	-0.00682065
-0.000993828	-0.00111198	0.000990859
-0.0113923	0.00863622	0.0103563
-0.0264926	0.0835294	-0.0775512
0.0131798	-0.0102348	-0.0128339
5.05708e-05	-0.0261806	0.0270598
0.00846839	0.00830397	-0.0084774
0.00991724	-0.0222164	0.01875
0.00843349	0.0027536	-0.00586012
0.0531211	-0.0538066	-0.0529586
0.00145059	-0.0387199	0.0383845
-0.00844023	0.00821685	0.00656949
0.00137613	-0.0175915	0.017786
-0.00835158	-0.254541	0.251124
-0.000576486	-0.000380847	-0.00106648
0.00365631	0.00217913	-0.00165955
0.0173855	-0.0166332	-0.0176457
0.00189008	-0.0139488	0.0126096
0.00508289	0.00586156	-0.00506174
-0.0105179	0.00951185	0.0113423
-0.00215222	-0.00656813	0.00621268
0.0174968	-0.0169442	-0.0174969
0.00584405	-0.0144052	0.014653
0.000752325	0.0034655	-0.000837539
0.00807685	-0.00685602	-0.00847345
-0.010429	-0.038734	0.0322266
0.0264472	-0.00139709	-0.0264455
0.00220597	-0.0176995	0.0178218
-0.00087701	-3.01391e-05	0.000906197
-0.102573	0.101676	-0.0242919
-0.00630058	-0.00659417	0.00630672
-0.0167612	0.0172241	0.0117815
0.0012245	-0.0400809	0.0400716
0.00459822	-0.00952192	0.00615669
0.00580298	0.00759538	-0.012417
-0.000264771	0.0003309	0.00026563
0.0118985	-0.00953081	-0.0120889
0.0142005	-0.0583838	0.0586096
-0.00469377	0.0043157	0.00512716
-0.0036401	-0.00976926	0.00936234
0.00605448	0.00652304	-0.00603482
0.081115	-0.081179	-0.0811291
-0.0129436	0.027147	-0.0282403
0.0107445	-0.0119279	-0.0162951
0.00754477	-0.0116725	0.0107458
0.001155	0.000937097	-0.00116858
-0.00107393	0.000858906	-0.00220914
-0.0213844	-0.0307845	0.0280614
0.0156627	-0.00778189	-0.0153603
-0.00249396	0.0444517	-0.0435841
-0.00346448	-0.00293228	0.00346453
-0.0237009	0.00412967	0.0236863
-0.00184564	0.00206198	0.0026978
0.0323759	-0.0305657	-0.0324301
-0.00323947	0.049541	-0.0478327
0.000985472	0.000680581	-0.000990824
-0.0381963	0.0379043	-0.0262073
0.00360919	0.000384064	-0.000880503
-0.0263161	0.0257138	0.026497
-0.000851955	0.209996	-0.210669
0.00200226	-0.00910626	0.0107005
-0.00890912	0.127799	-0.126782
-0.0150464	-0.020594	0.0193426
-0.00598826	-0.00614652	0.00613096
0.002472	-0.0255208	0.0256415
0.00764685	0.00290738	-0.00790133
-0.000355461	0.0115961	-0.0127418
0.00352023	0.012952	-0.00459554
0.00778609	-0.00362706	-0.0078415
0.00924521	-0.00959531	0.00568583
0.066128	-0.0638273	-0.0658673
0.00113725	-0.0396014	0.0403402
0.00479473	0.00551182	-0.00478836
-0.0145818	0.0118635	0.0115197
0.0285414	0.0369766	-0.0552411
-0.0218577	0.0174468	0.0218676
-0.00773496	0.0804287	-0.0801784
-0.000438819	4.90408e-05	0.000469706
0.00309978	-0.00317928	-0.00301589
0.00188295	0.0271084	-0.0222863
0.014532	-0.00824587	-0.0134628
0.0040729	-0.048292	0.0486077
-0.0191361	-0.0386771	0.0398729
0.0122965	0.0775402	-0.0891033
-0.0300097	-0.0304653	0.0300184
0.0187253	-0.0176019	-0.0196519
-0.0122259	0.0654902	-0.0659317
-0.00742166	0.00730415	0.00738343
0.00409914	-0.00509493	0.00449344
-0.00633744	-0.00797053	0.00396908
-0.0161685	0.0160987	0.0163668
0.00958205	-0.029139	0.0254072
-0.0034011	0.00272139	0.00349645
-0.00148575	0.043831	-0.0436376
0.00190776	0.00512817	-0.00472812
-0.0150935	-0.0371423	0.0243848
0.00462232	0.0420634	-0.0388759
-0.0211104	0.0148408	0.0207816
0.00296166	0.0409446	-0.0412501
-0.00346448	-0.00293228	0.00346453
-0.00556222	0.00334235	0.00821282
0.0118468	0.0102367	-0.0118606
0.00268046	-0.00896601	-0.00197938
-0.00477011	0.0402009	-0.0428192
0.00911752	0.00905674	-0.00913116
-0.00055686	-0.00841531	0.00342567
0.0108324	0.00488718	-0.00936343
0.00310486	-0.00626879	-0.00294113
0.000455236	0.0499475	-0.050548
-0.00440774	0.00407847	0.00585375
0.00296166	0.0409446	-0.0412501
0.00241663	0.00326093	-0.00301827
0.0323742	-0.0319016	-0.0171435
0.00400728	-0.0613734	0.0604257
-0.0325997	0.0207491	0.0325806
-0.0290831	0.014194	-0.0151034
-0.000191276	-0.00503538	0.000139542
0.0163761	-0.018495	-0.016372
-0.00716027	0.00523726	0.00525309
0.0133213	-0.0140941	-0.0132518
0.00338085	-0.0205198	0.0207173
0.00734119	0.00590513	-0.00733382
-0.00900705	0.0124026	0.00918983
-0.216253	-0.245643	0.399792
0.0204725	-0.0201075	-0.0206
0.00214401	-0.0441992	0.0441684
-0.000264771	0.0003309	0.00026563
0.00894793	-0.0137469	0.0148498
-0.0178975	-0.0171247	0.0179177
-0.00443714	0.00468703	0.00462579
0.00133205	-0.020693	0.0207063
0.00277448	0.0278033	-0.0238947
-0.00086813	-0.0179541	0.021307
-0.00584661	0.0376194	-0.0308554
-0.00406426	-0.00874501	0.00388921
-0.00445859	0.0106327	-0.00881741
-0.00640145	0.00739674	0.00335168
-0.00285126	0.00451091	-0.00384163
0.00155414	0.00114027	-0.00159527
0.00143175	0.0069305	-0.00238357
0.00233647	-0.0166715	0.0194907
-0.00546761	0.00398308	0.00535824
-0.00205152	0.298883	-0.298642
-0.00184564	0.00206198	0.0026978
0.0525527	-0.0518129	-0.0525614
0.0100132	0.0346907	-0.0369672
0.0302968	-0.0259491	-0.0296181
0.000819805	-0.0418823	0.0417022
0.000686131	0.000355162	-0.000690173
-0.00177681	-0.0243394	0.0282168
0.000985472	0.000680581	-0.000990824
-0.0110574	0.00850775	0.0113166
0.00185118	-0.0346444	0.0339272
0.00104222	0.00357466	-0.00323349
0.0130199	0.0538271	-0.0612906
-0.0118794	-0.0443239	0.0383988
0.00114845	0.00405599	-0.000591704
0.00606209	-0.0480769	0.0478008
0.00393389	-0.00347526	-0.00251291
-0.0109202	0.224848	-0.223522
0.00312036	0.000377987	0.000402741
-0.00690286	0.010813	0.00682607
-0.00292774	0.0191474	-0.0197819
-0.00685819	0.00759886	0.00657982
-0.105811	0.105915	-0.0957943
-0.0262258	-0.0263954	0.0262029
-0.0122516	-0.00184669	0.00798297
0.00759869	0.062615	-0.0647554
-0.00747061	0.00640061	0.0073456
0.00713819	-0.0173207	0.0172479
-0.0259344	0.0612023	-0.0578315
-0.0125588	0.00894085	0.0133519
0.00140645	0.0184172	-0.021526
-0.0034011	0.00272139	0.00349645
0.000454043	-0.000114424	-0.000214021
0.000899351	0.00068912	-0.000909602
-0.000572183	-0.0208873	0.0226157
0.00888539	0.0046121	-0.00548348
-0.00588415	0.00786894	0.00592766
-0.0257666	0.0124208	-0.0111449
0.0220821	0.0234577	-0.0393392
-0.0130346	0.0238322	-0.0239611
0.00982183	0.000956197	-0.00301308
0.0337982	-0.00684833	-0.0351078
-0.0133746	-0.015245	0.0153114
0.0073661	-0.0103357	-0.00814594
0.00849417	0.0280014	-0.0307601
0.00846839	0.00830397	-0.0084774
0.00207313	-0.0020094	-0.00186466
0.00824978	-0.0016629	0.00181254
-0.00771249	0.00496918	0.00596242
-0.00118968	-0.0166557	0.0189256
0.00549687	0.10776	-0.111356
0.00211737	0.00269364	-0.00187901
-0.01729	0.0160773	-0.00764315
-0.00274742	0.00414659	0.00214825
0.00713819	-0.0173207	0.0172479
0.000686131	0.000355162	-0.000690173
-0.000572183	-0.0208873	0.0226157
0.00200064	0.0247743	-0.0195467
-0.0217817	0.00933226	0.0260673
0.000721684	-0.00951679	0.0118111
0.00220402	0.000494308	-0.00211944
3.09209e-05	-0.00956614	0.0132192
-0.00274515	0.0138228	-0.0130442
0.0856973	-0.0861819	-0.0919542
0.00350405	0.00599947	-0.00544342
-0.0108723	0.0073839	0.0113016
0.00479301	-0.0108995	0.0102961
0.00458831	0.000921871	-0.00449933
-0.0016286	0.000576835	0.00325876
-0.0353068	0.181621	-0.182171
0.0129031	-0.0128705	-0.0140247
0.00507065	-0.00530469	0.0102908
0.00155414	0.00114027	-0.00159527
-0.00644596	-0.0164071	0.00979467
0.0103743	0.0053174	-0.00980136
-0.00216136	0.00229126	0.00219205
-0.00133057	0.0203901	-0.0203715
0.00608767	0.00746445	-0.00790313
-0.00997107	0.00653644	0.00708924
0.00104222	0.00357466	-0.00323349
-0.0177654	0.0160509	0.0177712
0.00325417	-0.0480926	0.0472035
0.000985472	0.000680581	-0.000990824
0.00449471	0.0145316	-0.021681
0.00543074	0.00585417	-0.00544914
-3.13198e-05	0.00013884	0.000270084
0.00224181	-0.00961671	0.00798526
-0.0012213	0.00580914	-0.00408356
0.00479961	-0.0183525	0.0181366
-0.0110332	0.017782	-0.0192608
-0.0145818	0.0118635	0.0115197
0.00243344	0.0145429	-0.0148648
0.00211737	0.00269364	-0.00187901
-0.0626131	0.219976	-0.220885
-0.00310684	-0.006017	0.00700644
-0.00376795	0.00172488	0.00430467
0.0104289	-0.026189	0.018241
0.0159765	-0.0149266	-0.0160406
-0.0126516	-0.0208285	0.0243317
-0.0317535	-0.354382	0.356905
0.00282903	-0.00175422	-0.00331288
-0.0985587	-0.123115	0.150624
0.0325534	-0.0299467	-0.0325551
0.00585871	-0.042006	0.0404996
-0.000438819	4.90408e-05	0.000469706
-0.0273928	0.0271598	-0.0226381
0.00207776	0.00168044	-0.00165869
-0.0344788	0.0162381	0.0246903
0.00154482	-0.0137671	0.0128812
-0.0288202	-0.0209336	0.0297691
-0.00696496	-0.0205971	0.021267
-0.00836946	-0.00209071	0.00721869
0.000339248	0.000199219	-0.000509678
0.00405386	-0.0119983	0.012731
0.72087	-0.144982	-0.708441
0.0021955	0.0169635	-0.0173971
0.00846839	0.00830397	-0.0084774
-0.0175591	0.0178382	0.0175079
-0.00688534	0.0135232	-0.0141047
0.00354064	-0.00305633	-0.0034405
-0.00261852	0.0812281	-0.0814611
-0.0435671	-0.0247832	0.0436447
0.000261756	-0.00433428	0.00176539
0.00241663	0.00326093	-0.00301827
0.00260133	0.00806528	-0.0040933
0.000908391	-0.0257511	0.0271686
-0.00199018	0.00384827	0.0020169
0.0108977	-0.00847728	-0.0106284
-0.00087701	-3.01391e-05	0.000906197
0.0656938	-0.0520392	-0.0610275
-0.00691361	-0.00364222	0.00532515
-0.0150505	0.00322298	-0.00348328
0.0055203	-0.0221716	0.0211501
0.000899351	0.00068912	-0.000909602
0.0155044	-0.0122463	-0.0159096
0.00486047	-0.0659726	0.0646423
0.031612	-0.0329906	-0.03204
0.00739288	-0.0259311	0.0258911
-0.0207216	-0.0306021	0.0208513
-0.0171461	0.0129113	0.0139118
-0.00191529	0.00757376	-0.00845571
0.00181406	-0.000449945	0.000886442
0.00667843	-0.0079264	0.00633105
0.0172964	0.0177936	-0.0172856
0.018767	-0.0230433	-0.0172305
0.0229087	0.0218141	-0.040047
-0.0198299	0.019844	0.0197016
-0.01086	0.0721161	-0.0741204
0.00509016	0.00516569	-0.00510829
-0.00228557	0.00275553	0.00372983
0.00483996	0.00125753	-0.00444634
0.0360361	-0.0228404	-0.0376292
-0.00611712	0.0109204	-0.0113866
-0.00087701	-3.01391e-05	0.000906197
-0.0104417	0.215702	-0.206141
-0.000438819	4.90408e-05	0.000469706
0.0475289	-0.0477641	-0.0474082
0.00260028	0.00367518	-0.00498029
-0.112225	0.00809075	0.0926001
-0.000139184	-0.0207937	0.0228512
0.00404337	0.00156283	-0.00299709
0.0133466	-0.0070752	-0.0121404
0.00546281	-0.0134817	0.0130732
-0.0019824	0.00224985	0.00180543
0.00518876	-0.00222284	0.0037071
-0.00590298	0.0107295	0.00570474
-0.0139767	0.0132043	0.013978
0.00736762	-0.0317659	0.0304874
-0.000818519	0.00724953	0.00133012
0.000312802	-0.036845	0.0381562
0.00146077	0.0123446	-0.0124097
-0.0163793	0.0184295	0.010269
0.00201116	0.0190087	-0.0132805
-0.0130699	-0.0241493	0.0131007
0.00254328	0.0147841	-0.0147611
-0.0195887	-0.0195957	0.0195847
0.00339419	0.00122058	-0.00437935
0.00514627	0.0189777	-0.0238585
-0.00397656	-0.00623544	0.00822418
-0.00718296	0.0606115	-0.0602458
0.00573271	0.00479499	-0.00568099
0.00152615	-0.00960393	0.0129747
0.00379261	0.000576491	-0.00326501
-0.000987254	0.00156859	0.00134554
-0.052853	0.415149	-0.416971
-0.00745659	0.0068097	0.00712746
0.00311428	-0.0459792	0.0458363
-0.00756406	-0.00336869	0.00499026
-0.0102341	0.0111857	0.00479467
0.00598149	-0.0438228	0.0427977
0.0022974	0.00785714	-0.00314086
0.0284966	-0.0287349	0.0249253
0.0062527	-0.0821697	0.0810391
0.000587298	-0.000273683	0.00182918
0.00982183	0.000956197	-0.00301308
0.036294	-0.0360228	-0.0362798
0.00101174	0.0129085	-0.013654
-0.00222586	-0.000846408	0.00296202
-0.00498827	0.00371324	0.00672346
0.00282318	0.00637193	-0.00541734
0.0533419	-0.0465479	-0.0474964
0.00151114	-0.0445799	0.044377
0.001155	0.000937097	-0.00116858
-0.0137472	0.0624918	-0.0771708
0.00501365	0.00534748	-0.00502684
0.0121363	-0.00979968	-0.0121611
-0.00722549	-0.016234	0.0170063
-0.029403	-0.00510747	0.0285632
-0.0317159	0.0505535	-0.0537615
-0.0023356	0.00323253	-0.00196184
0.00791583	-0.0128657	-0.00706436
0.00486801	-0.0466533	0.0466107
-0.00536834	0.00183304	0.00826018
0.0038025	-0.00791898	0.00867919
-0.0135012	-0.0150133	0.0112295
0.0548121	-0.0555258	-0.0539542
0.00358881	0.00325853	-0.00176607
0.0267792	-0.0270892	-0.0267793
0.00189008	-0.0139488	0.0126096
0.00588133	-0.407559	0.404267
0.0571196	-0.058537	-0.0573726
0.00459822	-0.00952192	0.00615669
0.00962689	-0.00963251	-0.0094803
0.00137434	0.0145343	-0.014753
0.00911752	0.00905674	-0.00913116
-0.00444084	-0.00562112	0.00850875
0.00146143	0.00111628	-0.00146876
0.00320518	0.0030723	-0.00323089
0.000631749	-0.012628	0.0127972
0.00508289	0.00586156	-0.00506174
0.00051963	-0.0210864	0.0233286
-0.00135404	0.0319704	-0.0274032
-0.00338845	0.00655994	0.0031232
0.00690525	-0.0163544	0.0164866
0.0622137	-0.0622436	-0.0614562
0.00439086	0.00096729	-0.000954793
0.00608767	0.00746445	-0.00790313
-0.00403848	0.00197378	0.00604262
-0.0498678	0.203275	-0.206683
0.0383601	-0.0385773	-0.0361945
-0.0202535	0.0172879	-0.0192509
0.000686131	0.000355162	-0.000690173
0.334581	-0.0580287	-0.32401
-0.000310076	0.00100987	0.00234726
0.00275239	0.00593723	-0.0028773
0.00202926	0.0206361	-0.0205252
-0.0150086	-0.0108039	0.0146366
-0.0050284	0.00558756	0.00743181
-0.00127548	3.33971e-05	0.00510204
-0.0121281	0.0126336	0.0116437
-0.00828946	0.0984523	-0.0977821
0.00370341	0.00365108	-0.00370211
-0.00139079	-0.0190482	0.0228198
0.00736375	0.00741534	-0.00735829
-0.0127603	0.0155456	0.00859441
0.00842318	0.0021224	-0.0033805
0.000504961	-0.00414533	0.00129497
-0.00332991	0.01361	-0.0126978
0.00421665	0.00498742	-0.00501523
0.0760722	-0.0731003	-0.0796986
0.0069095	-0.0125621	0.0125706
-0.00747054	0.0124437	0.00730994
0.0035603	-0.00462809	0.00456935
0.00303285	0.000922997	-0.0026269
0.0831274	-0.0382074	-0.0792636
0.00344878	0.00620005	-0.00564875
-0.0121746	0.00613305	0.0143687
0.000834079	-0.00746327	0.00706103
0.00488922	0.0859332	-0.0863888
-0.0145818	0.0118635	0.0115197
0.000375874	0.0426265	-0.042097
0.0890136	-0.00797486	-0.0889931
0.000908391	-0.0257511	0.0271686
0.000397169	0.00036794	-0.000383493
0.00109673	-0.00237845	-0.00255449
-0.0054978	-0.00477698	0.0055139
0.0329208	-0.0315792	-0.0344773
0.0015904	0.0295722	-0.0286269
0.0032624	0.0193076	-0.0148404
0.0087662	0.0303371	-0.0406073
-0.0124082	-0.000111618	0.0126443
-0.00139878	0.0120148	0.00144094
-0.0158666	0.00917395	-0.0109832
0.0138602	-0.0129413	-0.0130853
-0.00271596	0.00248655	0.00275527
-0.00293645	0.0103474	0.00217156
-0.0192464	0.0162297	0.0177039
0.0231084	-0.0232767	0.0164844
-0.00437273	0.00394867	0.00396178
0.00294242	-0.04993	0.0503068
0.00226944	0.00348082	-0.00308103
0.064917	-0.0686224	-0.0648876
0.00190776	0.00512817	-0.00472812
0.026669	-0.0285511	-0.0266659
0.00478903	-0.00576703	0.00730983
0.00312036	0.000377987	0.000402741
0.00764685	0.00290738	-0.00790133
-0.000614903	-0.00210795	0.000530412
0.00203597	0.000627498	-0.0034173
0.00151114	-0.0445799	0.044377
-0.00157373	-0.00260953	0.00312193
-0.00139079	-0.0190482	0.0228198
-0.00110984	0.054685	-0.0576924
0.082101	-0.0819495	-0.0820809
0.00343268	-0.0230213	0.0215098
0.171402	-0.170449	-0.171818
0.000592924	0.0309119	-0.0308099
0.00674364	0.00425581	-0.00674003
-0.0194496	0.01136	0.0132682
-0.00101089	0.22427	-0.221326
0.00330954	-0.00262512	-0.00196844
0.00694552	-0.0215	0.0217552
0.00479473	0.00551182	-0.00478836
-0.00499817	0.00588317	0.00251614
-0.0230791	0.00330721	0.0192763
0.0060703	0.00769285	-0.00649372
0.00667704	-0.0105615	0.00938036
0.00316853	0.00045137	-0.00283152
-0.00998873	0.0101574	0.00771267
0.00771859	0.0769205	-0.0781837
-0.0190086	0.00687572	0.0168023
-0.00827227	-0.0251913	0.0250327
-0.0159718	-0.015792	0.0159764
0.00757349	-0.00847554	0.004548
0.00146143	0.00111628	-0.00146876
0.0558761	-0.0563783	-0.055617
-0.000851955	0.209996	-0.210669
0.0258636	0.00209111	-0.0188639
-0.00474328	0.00504304	-0.0111887
0.00639407	0.00303823	-0.00320399
0.00100405	-0.00139072	0.000850262
0.0069095	-0.0125621	0.0125706
-0.000161529	0.00209162	-0.00526537
0.00844533	0.0104021	-0.0137963
0.00605448	0.00652304	-0.00603482
0.01839	-0.0176677	-0.0196078
-0.00453848	0.00892796	-0.0117386
-0.037646	0.0228741	0.0376335
0.00205784	-0.047216	0.0471342
0.00736375	0.00741534	-0.00735829
-0.0114818	0.0141099	0.011946
-0.000333604	-0.00206048	0.00379002
-0.0194496	0.01136	0.0132682
-0.00128514	0.0164168	-0.0161731
0.00508289	0.00586156	-0.00506174
-0.0193339	0.0809498	-0.0849708
0.00155414	0.00114027	-0.00159527
-0.00364383	0.00566711	0.00203142
0.00338085	-0.0205198	0.0207173
-0.000780643	0.00378052	0.000886147
-0.00364639	0.0376771	-0.0409524
0.00404337	0.00156283	-0.00299709
-0.00561334	0.00486288	0.00557257
-0.0539866	0.0539064	-0.0531328
0.00234034	-0.00383196	-0.00250153
-0.00271596	0.00248655	0.00275527
0.00435272	0.0159286	-0.0126302
-0.00622181	-0.00331771	0.00641336
0.000281742	-0.0229816	0.0235112
0.0289095	-0.0283333	-0.026667
0.00350405	0.00599947	-0.00544342
-0.0540786	-0.144984	0.143514
0.00671726	-0.00680535	-0.00390356
-0.0150505	0.00322298	-0.00348328
-0.0145195	0.0140788	0.010407
0.000639609	0.0667606	-0.0662257
0.0028113	0.00549281	-0.00484032
-0.0342814	0.0335299	0.0342828
-0.00152036	-0.0217616	0.0229238
0.0130467	-0.0140184	-0.0172613
0.00648247	-0.0308847	0.0306202
0.00132618	0.00141045	-0.00133559
-0.00254363	-0.0191158	0.019212
0.00132618	0.00141045	-0.00133559
0.0130408	-0.0140957	-0.0130861
0.0025296	0.290933	-0.292071
0.0229087	0.0218141	-0.040047
-0.0060709	0.00567712	-0.00190117
-0.00762208	-0.00904246	0.0101185
0.011293	-0.0107196	-0.0100616
-0.00512451	0.0923002	-0.091665
-0.00794539	0.00860893	0.00721506
-0.00570608	0.00966595	-0.00984112
-0.110916	-0.0612431	0.149127
-0.00571897	0.00302968	0.00614286
0.0128038	-0.0251456	0.0203184
0.0890594	-0.0887439	-0.0890594
-0.000384347	0.0173791	-0.017538
-0.010446	-0.193204	0.197538
0.0919929	-0.0830793	-0.091993
-0.00184564	0.00206198	0.0026978
0.0526759	-0.0577688	-0.0375133
-0.0153612	0.0925286	-0.0922561
0.000336142	0.00229309	-0.000513103
0.016734	-0.0181659	0.0122489
0.00694399	0.0749153	-0.0763945
-0.00560839	0.00510928	0.00485681
-0.0282089	0.0284007	-0.0299479
0.00284968	0.00138252	-0.00269087
0.00051963	-0.0210864	0.0233286
-0.00310684	-0.006017	0.00700644
0.00568198	-0.00151324	-0.00769689
0.00648247	-0.0308847	0.0306202
-0.00190856	0.00425203	0.000684287
2.97674e-05	-0.00187056	0.00196064
-0.0207216	-0.0306021	0.0208513
0.0288142	-0.025481	-0.0284344
0.00414028	-1.59242e-05	0.0009104
-0.00738304	0.00802949	0.00641563
0.00276035	0.0106179	-0.0119673
0.00241663	0.00326093	-0.00301827
0.0315628	-0.0383162	-0.0290908
-0.000939418	0.0438787	-0.0416398
-0.00766775	0.0087879	0.00839561
0.00778841	0.00404358	-0.00696668
0.000255193	-0.000949991	0.00167956
0.00249403	-0.00133431	-0.0031056
0.00200226	-0.00910626	0.0107005
-0.0038773	0.00616965	0.00228664
-0.0115341	0.0209292	-0.0233548
0.00405329	0.00442748	-0.00404563
0.00119762	-0.0149748	0.0156409
-0.00296085	0.004888	-0.00246584
0.0232439	-0.0251397	-0.0230847
-0.0320195	0.356712	-0.355225
6.8237e-05	0.0132281	-0.0147109
0.00690525	-0.0163544	0.0164866
0.00427904	0.000932675	-0.00389088
-0.0145818	0.0118635	0.0115197
-0.0115004	0.0405821	-0.0409853
0.0158803	-0.0164356	-0.0160666
-0.00710082	0.0602598	-0.0626187
0.00835227	0.00806893	-0.00837097
-0.0109896	0.00995251	0.0100982
0.0120333	0.00372049	-0.0109664
-0.0133708	0.0130654	0.0109178
-0.0102902	-0.0240256	0.0243261
0.00961781	0.0633687	-0.0646587
0.00449385	-0.000664097	-0.00421063
-0.0246152	-0.0250327	0.0276898
-0.0277619	0.0164951	0.0272625
-0.0319983	0.0195668	-0.0211569
-0.0101117	-0.00980847	0.0101152
0.016734	-0.0181659	0.0122489
0.000985472	0.000680581	-0.000990824
-0.00902348	0.00647731	0.010702
0.00404355	-0.00550867	0.0078451
-0.00280574	0.0215574	-0.0118663
0.00472733	-0.017958	0.0169595
-0.00434641	-0.00167627	0.00436954
0.000212975	-0.00385985	-0.00750875
0.00392293	-0.0343985	0.0343678
-0.00712804	0.00692268	0.00763252
0.00571374	-0.0160711	0.0156103
-0.0686531	-0.0250123	0.0690636
-0.00709364	0.0120402	0.000456551
-0.00176607	0.0359728	-0.0352812
0.00382168	-0.00585533	-0.00472945
0.00357115	-0.0486847	0.0493447
-0.00686075	-0.566606	0.565143
-0.0108677	0.00656975	0.00411989
0.00124694	0.0195519	-0.0217769
-0.00262064	-0.00280628	0.00234351
0.00177604	-0.00445476	0.0045117
-0.000993828	-0.00111198	0.000990859
-0.00411095	0.00632929	0.00270501
0.001155	0.000937097	-0.00116858
-0.0274147	0.0133356	0.0263579
0.00120728	-0.0322673	0.0333207
-0.0152657	-0.00330909	0.0153095
-0.000809769	-0.027576	0.0301812
0.00292299	0.00241013	-0.00299168
0.00403369	-0.00417862	-0.00387894
0.00124826	0.0225999	-0.0226689
0.00555401	-0.0124172	-0.00140664
-0.000274656	-0.00360814	0.00411524
0.00440519	0.00236528	-0.00447047
-0.00200767	0.00671852	0.00188234
0.00297124	-0.0151206	0.0148467
-0.0133989	0.0136433	0.0128793
-0.00445384	-0.00425896	0.0045684
0.00573271	0.00479499	-0.00568099
-0.00691271	0.00584606	0.00946407
-0.0230791	0.00330721	0.0192763
-0.0138133	-0.00475738	0.0139193
0.0038644	-0.0286106	0.0287124
0.00218395	0.00388324	-0.00189596
0.0131334	-0.0108304	-0.0129856
-0.0330308	-0.0463586	0.0487868
-0.00868873	0.000590169	0.00423962
0.00694552	-0.0215	0.0217552
0.0109757	0.0115011	-0.010972
-0.000882045	-0.0198742	0.0209046
0.000397169	0.00036794	-0.000383493
0.00292966	-0.00305392	-0.00271976
0.00189008	-0.0139488	0.0126096
-0.00584661	0.0376194	-0.0308554
-0.00346368	0.0366596	-0.0363059
0.0109757	0.0115011	-0.010972
-0.0174855	0.0173114	0.0175965
-0.00114136	0.0405621	-0.0418322
-0.0227565	0.0138088	0.0225024
-0.0107118	0.0522973	-0.0528158
-0.000264771	0.0003309	0.00026563
-0.00891528	0.00963309	0.00831914
-0.00444084	-0.00562112	0.00850875
-0.0060385	0.00650266	0.00506093
0.00555544	-0.0445978	0.0431562
0.005781	0.0152762	-0.0188541
-0.00123243	0.00498629	0.00178723
-0.00396211	0.00166755	-0.00135411
0.0381883	-0.0352409	-0.0375209
0.000639609	0.0667606	-0.0662257
-0.00303011	-0.00824352	0.00255209
-0.000591667	0.0143867	0.000659352
-0.00506241	-0.00537279	0.00505335
-0.00533404	0.0088651	-0.00032639
0.00133106	-0.00739153	0.00696059
-0.00204701	-0.00233113	0.00204203
-0.0128881	0.027133	-0.0261622
0.00639407	0.00303823	-0.00320399
-0.0104237	0.0148278	0.00983311
-0.0105234	-0.0247129	0.0264523
-0.00799645	0.00961691	0.00841644
-0.187372	0.566042	-0.564681
-0.000335004	0.00281551	0.000568637
-0.0116574	0.00112091	0.0147053
-0.012373	-0.030257	0.0336429
0.0274875	-0.0282371	-0.0255346
0.00248829	-0.0289333	0.0299696
0.000985472	0.000680581	-0.000990824
-0.00742059	0.00734762	0.00620969
0.0110052	0.0211519	-0.0224971
0.0358372	-0.035777	-0.0358486
-0.00191529	0.00757376	-0.00845571
0.00966889	0.00545702	-0.00964286
0.0254264	-0.0205007	-0.0255207
0.00242184	0.0233564	-0.0309734
0.00967215	-0.0147926	-0.00939891
0.003827	-0.0449012	0.044858
-0.00428026	-0.00436457	0.00425358
0.0042144	-0.00439976	0.00230287
0.00605448	0.00652304	-0.00603482
-0.00344472	0.00218511	0.00464653
0.000313386	0.0573068	-0.0576656
0.00427904	0.000932675	-0.00389088
-0.012373	-0.030257	0.0336429
0.00427904	0.000932675	-0.00389088
0.018912	-0.0189311	-0.0218549
0.0114865	0.0432307	-0.0427004
-0.00769723	0.00522762	0.00147162
0.00842318	0.0021224	-0.0033805
0.00083616	0.0047789	-0.000908941
0.0218477	-0.0230472	-0.00944577
-0.00177681	-0.0243394	0.0282168
-0.0010305	0.00564534	0.00107154
0.00145059	-0.0387199	0.0383845
-0.000993828	-0.00111198	0.000990859
-0.00289704	0.00507827	0.00340169
-0.00469946	0.0128882	-0.0104213
-0.0063642	0.00668137	0.00463949
0.00439086	0.00096729	-0.000954793
0.00501365	0.00534748	-0.00502684
0.00507965	-0.00456885	0.00141749
-0.000993828	-0.00111198	0.000990859
-0.00214054	0.00622829	0.0034886
-0.000274656	-0.00360814	0.00411524
0.00807708	0.00522562	-0.00801679
-0.00254363	-0.0191158	0.019212
0.00379261	0.000576491	-0.00326501
0.00818093	-0.0080048	-0.00797636
-0.106222	0.170001	-0.169332
-0.0188186	0.0187548	0.0187788
0.00337953	0.00974983	-0.00977692
0.00218395	0.00388324	-0.00189596
-0.0143888	0.0143202	0.011479
-0.0588524	0.321109	-0.293873
0.00323837	-0.0033074	-0.00315741
0.00448416	-0.00128071	0.00257249
0.00348693	0.00395795	-0.00447755
-0.000479765	0.00483362	0.00234356
-0.00222586	-0.000846408	0.00296202
-0.00475012	0.00696499	0.00344742
0.00571374	-0.0160711	0.0156103
-0.037803	0.0167087	0.00705386
-0.0130348	0.0081738	0.0128866
-0.0182284	0.0200352	-0.00713914
0.011293	-0.0107196	-0.0100616
0.00259971	0.00748751	-0.00951281
0.00687792	0.0068863	-0.00686249
0.0080066	-0.0126512	0.0085914
0.0044018	0.00415162	-0.00441074
-0.00696039	0.00683661	0.00661105
0.0012245	-0.0400809	0.0400716
-0.00354273	0.109303	-0.101485
0.00392293	-0.0343985	0.0343678
-0.000171664	0.00368093	-1.79603e-05
0.0573258	-0.0578347	-0.0467892
0.000819805	-0.0418823	0.0417022
-0.00392485	0.00799203	0.00411277
0.00257804	0.00184991	-0.00340386
-0.00387782	-0.713741	0.715837
0.0109875	-0.00983641	-0.0100629
-0.000856001	-0.014142	0.0157911
0.0564545	-0.05352	-0.0534204
0.0024676	0.244195	-0.245876
0.0043262	0.0176788	-0.0168698
0.0379642	-0.0497465	-0.0382167
-0.000333604	-0.00206048	0.00379002
0.175976	-0.175311	-0.143828
0.00739288	-0.0259311	0.0258911
-0.00520883	-0.00560595	0.00521003
0.00212749	-0.00208497	0.00485381
0.00508289	0.00586156	-0.00506174
0.0224926	-0.0250291	-0.0225335
0.00343268	-0.0230213	0.0215098
0.00605448	0.00652304	-0.00603482
-0.00139079	-0.0190482	0.0228198
-0.0659443	-0.066091	0.0659438
-0.00343261	0.000168777	0.00327622
-0.00173267	0.00708226	-0.00790785
0.00617731	0.00818133	-0.00640601
0.00186276	0.0176889	-0.0180972
0.00401806	0.00222629	-0.00408468
0.00255265	0.00917685	-0.00275198
0.00477141	-0.000625243	-0.0040689
-0.00154295	0.00324258	0.00226627
-0.00148575	0.043831	-0.0436376
0.00498681	0.0124211	-0.0115059
-0.0079173	0.00778092	0.00802328
-0.0021738	-0.0428775	0.0419331
0.0233126	0.000619776	-0.0237008
-0.00672488	0.0503368	-0.0501923
-0.0374925	-0.0316305	0.0320823
-0.0021388	0.00109523	0.00273083
-0.000673489	-0.00250627	0.000673837
-0.0121746	0.00613305	0.0143687
-0.015934	0.0139547	-0.0111794
0.000899351	0.00068912	-0.000909602
0.00233647	-0.0166715	0.0194907
6.49802e-05	0.0361333	-0.0332491
-0.0130024	0.00965234	0.0137274
0.0031206	-0.0333607	0.0310714
-0.00232743	0.00190929	0.00215018
0.00580866	0.00125055	-0.00319384
-0.00224082	0.0220163	-0.0120376
0.00424976	-0.0132798	-0.00454271
0.00275291	-0.00753949	0.00696444
-0.00557043	0.00586699	0.0057521
0.00185118	-0.0346444	0.0339272
-0.00738984	-0.0798667	0.0783363
-0.018468	0.0168732	0.0183268
0.0143696	0.0407884	-0.0576159
-0.00204286	0.00716651	0.00269171
0.00160013	-0.00825093	0.00879691
0.0286713	0.0283883	-0.0286595
-0.0126849	0.00491412	0.0127757
0.00603323	0.00741529	-0.00736828
0.0220334	-0.0214191	-0.0220333
0.00627732	-0.0241898	0.024438
-0.00607738	-0.0059471	0.00610466
0.00958205	-0.029139	0.0254072
-0.00989973	-0.00923627	0.00991194
-0.00480525	0.00808265	0.00343038
0.00229356	-0.0442409	0.044157
-0.0249524	-0.0247765	0.024951
0.00411735	-0.0089587	0.00671463
0.000985472	0.000680581	-0.000990824
-0.0122614	0.0144299	0.0111411
-0.0239206	0.0391228	-0.0396582
0.0434394	-0.0310061	-0.0420987
-0.00161906	0.0542711	-0.0536944
0.00508289	0.00586156	-0.00506174
-0.0196707	0.0046669	0.0188102
-0.00139079	-0.0190482	0.0228198
0.000882252	-0.000672216	-0.000780249
0.00145059	-0.0387199	0.0383845
-0.00184564	0.00206198	0.0026978
-0.000387141	0.00380777	0.000837768
-0.0358005	-0.14297	0.183451
-0.00472086	0.00800894	0.00394736
-0.00853701	0.102119	-0.101447
-0.000993828	-0.00111198	0.000990859
0.0123203	-0.0139769	-0.0117337
0.00562374	0.00183335	-0.00568236
-0.0244367	0.00105104	0.0239718
0.00151114	-0.0445799	0.044377
0.00728906	0.00593058	-0.00772365
0.00107174	-0.0494711	0.0529111
-0.00274515	0.0138228	-0.0130442
-0.00887039	0.00721328	0.00884188
0.00223891	-0.0122598	0.0119967
-0.00505459	0.00586867	0.00398577
-0.00200154	0.00286481	-0.00278842
-0.017339	-0.0243318	0.02302
-0.009788	-0.00739054	0.0075004
0.00185118	-0.0346444	0.0339272
-0.00551308	0.00625843	0.00435595
-0.00216661	0.00114943	-0.000803283
-0.00395658	0.021504	-0.0116404
0.013093	-0.00985701	-0.0131275
-0.010674	-0.0822682	0.0913436
0.0290178	-0.0233437	-0.0279746
0.00113725	-0.0396014	0.0403402
0.0084087	0.0635377	-0.0651363
-0.021245	0.0211826	0.0211784
-0.0275263	0.250538	-0.248408
0.128252	-0.00301361	-0.133126
0.00478903	-0.00576703	0.00730983
-0.0597876	-0.0596119	0.0598162
0.00591694	-0.0069993	0.00028221
0.00376206	0.0514187	-0.0449436
-0.009289	0.0116802	0.00857795
0.00561575	-0.0225101	0.0215283
0.0149846	0.0156631	-0.0253801
0.0231084	-0.0232767	0.0164844
0.00316853	0.00045137	-0.00283152
0.000680396	0.00948871	-0.000460365
-0.00272141	0.0151025	-0.015109
0.0502031	-0.0493328	-0.0501696
0.00621005	-0.00610449	0.00583689
0.00509016	0.00516569	-0.00510829
0.000651008	0.00488321	-0.000933008
0.00111579	-0.0156758	0.0157921
0.0269206	-0.0270412	-0.0273681
0.00124826	0.0225999	-0.0226689
-0.0242022	-0.587413	0.586197
0.012502	-0.0133564	-0.0125003
-0.00694631	0.0217893	-0.00837831
0.0253781	-0.028145	-0.0273892
-0.00121189	0.00748743	-0.00735905
0.00461998	0.00131046	-0.00470742
-0.154747	0.15784	-0.0583922
-0.0266317	-0.0284002	0.0266328
-0.0197354	0.00745218	0.0199141
-0.000909705	-0.0038491	0.00296985
-0.00898669	-0.0154648	0.0147655
0.0038657	-0.0259691	0.0270289
0.000909242	-0.00471677	0.00579662
-0.0211934	0.0214067	0.0211926
0.0069095	-0.0125621	0.0125706
-0.00509617	0.000754469	0.0082225
-0.00312522	0.0103945	-0.0095723
-0.00236927	0.00376443	0.00239424
0.145789	-0.156343	-0.143424
0.000435099	-0.0213834	0.021493
-0.0163	0.0128625	0.00872009
4.76469e-05	-0.0110183	0.0111078
0.00736375	0.00741534	-0.00735829
0.00202206	-0.00728357	-0.00114606
-0.0586803	0.0077863	0.0298962
-0.0197354	0.00745218	0.0199141
0.0104753	0.0226443	-0.0224917
0.00207776	0.00168044	-0.00165869
-0.0378202	0.0157909	0.0378002
-0.00722663	-0.0113825	0.01117
0.0126012	-0.0125106	-0.00505369
-0.00890912	0.127799	-0.126782
-0.109854	0.109184	-0.0388665
0.00124572	-0.01749	0.0203392
-0.0115538	-0.0120569	0.0121027
0.00917108	-0.00974155	-0.00921548
0.00124826	0.0225999	-0.0226689
0.00139417	0.022977	-0.0193931
-0.0482319	0.0485442	-0.0517709
0.00292299	0.00241013	-0.00299168
0.037551	-0.037786	-0.0197641
-0.0194044	0.0977188	-0.098827
-0.00713656	0.00735654	0.00718155
0.00270172	-0.032386	0.0331157
0.00384907	0.00434744	-0.00382037
-0.0101441	0.0121863	0.0107691
-0.205853	-0.751024	0.763814
0.00186692	-0.00519403	-0.00154802
0.00312621	-0.0532599	0.0525403
0.00133286	0.0209647	-0.0254887
-0.00474978	0.00268116	0.00690953
0.00300571	-0.00792342	0.0110299
-0.0248033	0.0107771	0.0258675
0.00297124	-0.0151206	0.0148467
-0.0101117	-0.00980847	0.0101152
0.00507965	-0.00456885	0.00141749
0.000686131	0.000355162	-0.000690173
-0.0194691	0.00481571	0.0165326
0.000435099	-0.0213834	0.021493
-0.000438819	4.90408e-05	0.000469706
-0.00012866	-0.00513072	0.00877569
-0.00275359	-0.00249202	0.00419309
-0.000732766	-0.000790899	0.000100475
0.00479301	-0.0108995	0.0102961
-0.0108809	0.0102935	0.0110079
0.00639357	-0.0203494	0.0202223
0.00700326	0.0135534	-0.00833727
0.0852003	-0.0855514	-0.0876301
0.00112264	-0.0493397	0.0512851
0.00550037	-0.00525295	-0.00477647
0.00434495	-0.0287857	0.0283259
0.00483996	0.00125753	-0.00444634
-0.00915595	0.00864822	0.00892032
0.0198939	-0.00679454	-0.00576424
-0.0198797	0.014935	0.0190059
0.0121247	0.0245926	-0.0263086
-0.0446325	-0.0387736	0.0441377
-0.00551308	0.00625843	0.00435595
0.00792449	0.00821681	-0.00791094
-0.0119308	0.0116218	0.0100434
-0.00890912	0.127799	-0.126782
-0.0505767	-0.0148024	0.0170908
0.0138236	0.0677791	-0.0748085
0.00652294	0.00359773	-0.00650164
0.199541	-0.199225	-0.200144
0.00518367	-0.00915722	0.00872408
-0.00493712	0.0213499	-0.0093008
0.00320655	-0.0252289	0.0263507
-0.012113	-0.0246422	0.037865
0.00635438	0.00563601	-0.00762843
0.00561552	-0.0260869	0.0257756
-0.00615457	0.00702325	0.00869718
0.00492144	-0.0122276	0.0105362
0.00241663	0.00326093	-0.00301827
0.0147156	-0.0148323	-0.0112584
0.0130709	0.0113327	-0.0176958
-0.0122614	0.0144299	0.0111411
-0.0203325	-0.00893093	0.0138827
0.00483996	0.00125753	-0.00444634
0.0831521	-0.0832164	-0.0831663
0.00427904	0.000932675	-0.00389088
0.0371112	-0.0413085	-0.0370594
0.00392293	-0.0343985	0.0343678
0.00264111	0.00222401	-0.00264527
0.0055203	-0.0221716	0.0211501
0.0108128	0.0503797	-0.0523875
-0.0098212	0.0102224	0.00321788
0.00384047	-0.0482024	0.0487758
0.00782801	0.00192505	-0.00414303
0.00358881	0.00325853	-0.00176607
0.00132618	0.00141045	-0.00133559
0.0150362	-0.014825	-0.0150268
0.00761189	-0.0111373	0.0113294
0.0022974	0.00785714	-0.00314086
-0.00308658	0.0572146	-0.0572415
0.000899351	0.00068912	-0.000909602
-0.00147989	0.000105173	0.00344313
0.00730934	0.00199781	-0.00677815
0.0907138	-0.0953282	-0.0906663
0.00486047	-0.0659726	0.0646423
0.001155	0.000937097	-0.00116858
0.00283345	-0.00406688	-0.00283307
0.00498681	0.0124211	-0.0115059
2.43038e-05	0.00554782	-0.00230053
-0.0112845	0.051811	-0.0517301
-0.000780643	0.00378052	0.000886147
-0.0130348	0.0081738	0.0128866
-0.161688	-1.22764	1.2291
0.0013439	0.00140546	0.000351827
0.00120728	-0.0322673	0.0333207
0.00360919	0.000384064	-0.000880503
-0.050905	0.0509834	-0.0248846
0.00431234	0.00485284	-0.00431138
0.00536626	-0.00629267	-0.00574945
0.00555544	-0.0445978	0.0431562
0.0346898	-0.0353507	-0.0345264
0.00611969	-0.0108375	0.00988033
0.00431813	0.00941334	-0.00814901
-0.0192226	0.0104378	0.0190892
0.00145059	-0.0387199	0.0383845
-0.0108861	0.0107119	0.00716486
0.00648247	-0.0308847	0.0306202
0.00263991	0.0954072	-0.0927785
-0.017355	0.017214	0.0178526
0.00243858	0.00208389	-0.00168819
0.187452	-0.187745	-0.187458
-0.0148242	0.0653883	-0.0675518
-0.000580781	0.0245765	-0.0177572
-0.0180623	0.012918	0.0177957
-0.00844618	-0.0106792	0.0106766
0.0362524	-0.0426616	-0.0352331
1.64314e-05	0.000816942	0.000335974
-0.0115255	-0.0146286	0.0101328
0.0106398	0.345593	-0.361733
0.000899351	0.00068912	-0.000909602
0.00154437	0.000288375	-0.0029047
0.00499861	-0.0397446	0.0378701
-0.000335004	0.00281551	0.000568637
-0.0570675	0.0570656	-0.050242
-0.00892143	-0.0126267	0.0081541
-0.00288872	0.00288792	0.00155112
0.00669299	0.0312366	-0.0309505
-0.00392446	0.00631775	0.00395648
0.00260028	0.00367518	-0.00498029
-0.0249538	0.00492781	0.0241058
0.0284854	-0.00335749	-0.0288886
-0.00260928	-0.0316249	0.0355614
0.0221564	-0.0139968	-0.0219855
0.00325417	-0.0480926	0.0472035
0.0104114	0.0268626	-0.0309012
0.0651268	-0.0651174	-0.0649708
-0.00158674	0.0267283	-0.0180517
0.0929168	-0.0410151	-0.0929281
0.0010247	-0.0424859	0.0422599
-0.0105094	0.0692569	-0.0662741
-0.0541614	0.0543415	-0.0176883
0.0255469	0.0200385	-0.0255347
0.00669607	-0.00763682	-0.00669311
-0.000594969	-0.0109631	0.0110106
0.00819564	0.00426522	-0.00556045
-0.000139184	-0.0207937	0.0228512
-0.00280729	-0.378804	0.375876
-0.0103062	0.00804594	0.0109184
-0.0129608	-0.024123	0.0232871
-0.0070469	0.00637367	0.00789057
0.00640425	-0.0486543	0.0485753
-0.0165928	-0.00771291	0.0166439
-0.01017	0.0115347	0.00987247
-0.00232788	-0.00532714	0.00630904
-0.00229092	0.00208455	0.00122069
-0.0153832	0.0158756	-0.0084355
-0.0543783	-0.0579182	0.0547884
-0.017597	0.0159893	0.0175986
0.00190776	0.00512817	-0.00472812
0.0138577	-0.00806751	-0.013081
0.00320655	-0.0252289	0.0263507
-0.0158618	-0.0178989	0.0158507
0.0287119	-0.0266388	-0.0273261
-0.0288202	-0.0209336	0.0297691
-0.020244	0.0186704	0.0137952
0.00384047	-0.0482024	0.0487758
-0.0356376	-0.0280558	0.0232313
-0.00905754	0.00892349	-0.00846772
0.000397169	0.00036794	-0.000383493
0.000505503	-0.00064812	-0.000613243
-0.0157994	-0.0150388	0.020064
-0.0432113	-0.0478007	0.0640242
0.00757445	-0.0300009	0.0299486
0.00607222	0.00334141	-0.00612219
0.0147101	-0.0120448	-0.0143094
0.00538918	-0.0421209	0.0419317
-0.00564317	0.00114699	0.00599896
0.00189008	-0.0139488	0.0126096
0.00360485	0.0203337	-0.019406
-0.0234253	0.0135863	0.0200406
-0.00588169	-0.025747	0.0286116
-0.00271141	0.00530696	0.00396283
0.00427326	-0.0413094	0.0410422
-0.00261935	-0.273422	0.275024
-0.0152078	0.0107535	0.0152329
0.00459822	-0.00952192	0.00615669
0.00126027	-0.00157637	0.000909176
0.003827	-0.0449012	0.044858
-0.000264771	0.0003309	0.00026563
0.00958205	-0.029139	0.0254072
0.00605448	0.00652304	-0.00603482
-0.00392928	-0.000114651	0.00433774
0.000811325	0.404836	-0.407516
-0.00607771	-0.00544539	0.00611386
-0.0195579	0.0626909	-0.0814994
0.0052435	0.00416495	-0.00479531
0.0343688	-0.0331374	-0.0332384
-0.00187062	0.00285817	-0.00291088
-0.013886	0.0128286	0.0140162
0.00357458	-0.0446629	0.0447005
-0.00158278	0.0348253	-0.0303308
-0.0219054	0.0221958	0.0219436
0.0061396	-0.0429555	0.0418561
0.00370573	-0.0117842	-0.000312906
0.00602056	0.000930517	-0.00129667
-0.000438819	4.90408e-05	0.000469706
-0.0175591	0.0178382	0.0175079
-0.0135764	-0.000506281	0.0134871
-0.00516141	0.00575608	0.00577088
0.00214401	-0.0441992	0.0441684
0.00603323	0.00741529	-0.00736828
-0.000125969	-6.05391e-05	0.000695271
0.00348693	0.00395795	-0.00447755
0.0525125	-0.0429725	-0.0525125
-0.00110422	-0.00399457	0.00230158
0.0052435	0.00416495	-0.00479531
0.00667406	-0.0299628	0.027919
-0.0228675	-0.0101507	0.023034
0.0396417	-0.0386148	-0.0397488
0.00124826	0.0225999	-0.0226689
-0.00493712	0.0213499	-0.0093008
0.00170372	-0.00198013	0.00198051
-0.0105957	-0.00521148	0.00593528
0.00255265	0.00917685	-0.00275198
0.003827	-0.0449012	0.044858
-0.00875658	0.0084126	0.00929203
-0.00750708	0.41181	-0.412169
0.00401806	0.00222629	-0.00408468
0.0300449	-0.0272885	-0.0290895
-0.00558178	-0.0146122	0.0116287
0.0514451	-0.00959195	-0.0675174
-0.00129765	0.249943	-0.250351
0.0028505	-0.01189	0.0125632
-0.0130891	0.00920613	0.0130892
-0.0432113	-0.0478007	0.0640242
0.107881	-0.103261	-0.107926
0.00115063	-0.0427959	0.0426902
-0.0300097	-0.0304653	0.0300184
0.00991724	-0.0222164	0.01875
0.00846839	0.00830397	-0.0084774
-0.00573786	0.000830859	0.0093345
-0.0113495	0.0726403	-0.0746005
-0.00893866	0.00759862	0.00756632
0.0137505	-0.0141576	-0.0374404
0.0101947	0.0100877	-0.0102115
-0.00218856	0.00917952	0.00153157
0.0138769	-0.0453225	0.0455423
0.00881349	-0.00931075	-0.00825453
0.00357115	-0.0486847	0.0493447
0.00146077	0.0123446	-0.0124097
0.00911548	0.00427873	-0.00799685
0.00317701	-0.0262343	0.0265328
0.022842	-0.0238244	-0.0244711
0.000255034	0.251103	-0.249783
0.001155	0.000937097	-0.00116858
0.0509976	-0.0479006	-0.0511635
0.00345528	-0.00744847	0.00349949
-0.0131916	0.0124547	0.0132765
-0.00470853	0.0133286	-0.0134625
0.00562374	0.00183335	-0.00568236
-0.00662801	0.00504602	0.00671888
-0.0606199	-0.0640197	0.0606659
0.00583522	0.00774907	-0.00617033
-0.00900758	0.0501438	-0.051806
0.00211734	0.0024759	-0.002117
-0.0102547	0.000567003	0.000100617
-0.0083997	-0.00690965	0.0158473
-0.00308925	0.00309385	0.00260209
-0.00479327	0.00775152	-0.00698589
-0.0078573	0.00627928	0.00687905
-0.172755	0.605515	-0.604948
0.00134177	0.00235127	-0.00137931
0.0593247	-0.0557577	-0.063139
0.00145059	-0.0387199	0.0383845
0.00615723	-0.00546426	-0.00742526
0.00115063	-0.0427959	0.0426902
-0.000171664	0.00368093	-1.79603e-05
0.00536728	-0.00484612	-0.0043147
0.00459822	-0.00952192	0.00615669
-0.000608876	-0.000839934	0.00090458
-6.50498e-05	-0.0373373	0.0404159
-0.000389952	-0.0184798	0.0259218
-0.00112222	0.00799126	-0.000108266
0.00440519	0.00236528	-0.00447047
0.00200296	-0.00911616	-0.00197354
-0.00121189	0.00748743	-0.00735905
-0.0613091	-0.476675	0.474822
-0.00611838	0.0139092	-0.0140735
-0.00655637	-0.00114596	0.0019759
-0.00130031	0.00274503	0.00392088
0.00777964	-0.0136396	0.0154639
-0.0825964	-0.0796925	0.105494
0.00459554	0.0150244	-0.0139711
0.00401806	0.00222629	-0.00408468
0.0329208	-0.0315792	-0.0344773
0.00640425	-0.0486543	0.0485753
0.00356552	-0.00275937	-0.0042234
0.00276035	0.0106179	-0.0119673
-0.0101747	-0.0446448	0.0394415
-0.0257708	0.026218	0.0257457
0.0143187	0.0294591	-0.0393239
-0.0166841	0.0156052	0.0149814
0.00840818	-0.0120833	0.0108375
0.00164696	0.0112818	-0.00209368
0.0122424	-0.00842787	-0.0123965
-0.00270906	0.0224881	-0.0138704
-0.00728761	0.00445576	0.00989578
0.00414028	-1.59242e-05	0.0009104
-0.0207651	-0.0902594	0.0859466
-0.00982413	0.0117269	-0.0196223
-0.0151391	-0.0157595	0.0151263
0.00386977	0.00548869	-0.0044509
0.00227097	-0.0453161	0.0455883
-0.0114249	-0.00657318	0.0114596
-0.00794636	-0.00987417	0.0130176
0.000397169	0.00036794	-0.000383493
-0.00944153	0.0106048	0.00881241
-0.000913192	-0.0609329	0.060823
0.061412	-0.0619509	-0.0612884
0.00739288	-0.0259311	0.0258911
0.00348693	0.00395795	-0.00447755
-0.00354452	0.0104218	0.00329581
0.00504686	-0.00874259	0.0110377
0.00721501	-0.00480321	-0.00551432
-0.00890912	0.127799	-0.126782
-0.0124762	-0.0111406	0.0124534
-0.0119142	0.00620734	0.0116819
0.00455528	4.76805e-05	0.00338732
0.007972	-0.00597062	-0.00752039
-0.00373956	0.0351123	-0.0340211
-0.027947	-1.43822	1.44076
-0.00764465	0.00733973	0.00765996
-0.00341518	0.00304037	-0.00214989
0.00432817	0.00352813	-0.00444915
4.76469e-05	-0.0110183	0.0111078
-0.0253757	-0.00617148	0.0261083
0.000923721	-0.025621	0.0235612
0.00379261	0.000576491	-0.00326501
-0.001728	0.0037993	0.00178826
0.00746367	-0.0110988	0.00983123
-0.772139	-0.00309839	0.729341
-0.00868871	0.0554066	-0.0555824
-0.00690664	-0.00485033	0.00691921
-0.00403848	0.00197378	0.00604262
0.003827	-0.0449012	0.044858
-0.00452995	0.00621615	0.00427264
0.00474748	0.00974066	-0.0119685
-0.0230791	0.00330721	0.0192763
-0.0198299	0.019844	0.0197016
-0.00177681	-0.0243394	0.0282168
-0.0113039	0.00891708	0.0102877
0.0040729	-0.048292	0.0486077
-1.50701	-0.0238241	1.48765
-0.00589088	0.00628937	0.00564597
-0.0147391	-0.0107722	0.0162376
-0.0113944	0.00970156	0.0049982
-0.00698641	0.0683546	-0.0678533
-0.0211161	-0.0296372	0.0278835
-0.125425	0.12325	-0.0800249
-0.0151391	-0.0157595	0.0151263
0.00321242	0.00597866	-0.00451468
0.00121639	0.0234596	-0.0223474
0.00846839	0.00830397	-0.0084774
0.0074451	-0.00754252	-4.44785e-05
-0.000192753	-0.308773	0.303235
-0.00730886	0.00603038	0.00716457
-0.00708907	-0.0188923	0.0181907
0.000866404	-0.00315096	-0.00166227
-0.00127252	0.0470718	-0.0466506
0.00083616	0.0047789	-0.000908941
0.00734494	-0.0067649	-0.00758547
-0.0125326	-0.0068911	0.00831423
-0.0155558	0.0120778	0.0152591
0.00248829	-0.0289333	0.0299696
0.00306669	0.00520958	-0.00302157
0.00338194	-0.00482814	-0.00338973
0.00364906	0.00329835	0.00348039
0.0398099	-0.0499245	-0.0393792
-0.00364945	0.00216328	-0.00171545
0.00694399	0.0749153	-0.0763945
-0.00799645	0.00961691	0.00841644
0.0129382	0.00820757	-0.0165934
-0.00364383	0.00566711	0.00203142
0.00248829	-0.0289333	0.0299696
-0.00898669	-0.0154648	0.0147655
0.0025659	-0.0121319	0.0112617
0.00104669	0.00918656	-0.00148606
0.0688992	-0.0691605	-0.0687988
0.00307294	-0.0114108	0.0130351
-0.000335004	0.00281551	0.000568637
-0.0252393	0.0259449	-0.0261227
-0.0226364	-0.0224484	0.02262
-0.011309	0.0112263	0.00748766
-0.053574	0.0500969	-0.0494612
-0.000594395	0.000821704	0.000279244
-0.00540211	0.00779581	-0.00965363
0.00401806	0.00222629	-0.00408468
0.0100702	-0.00514945	-0.0109353
-0.00134378	-0.0309847	0.0214216
0.0561294	-0.051878	-0.0557042
-0.000355461	0.0115961	-0.0127418
0.00573271	0.00479499	-0.00568099
0.0681932	-0.067383	-0.0680895
0.00608767	0.00746445	-0.00790313
-0.0113029	0.0124111	0.0074236
0.0010247	-0.0424859	0.0422599
0.00316853	0.00045137	-0.00283152
0.0055203	-0.0221716	0.0211501
0.00674364	0.00425581	-0.00674003
0.0122282	-0.00905067	-0.0123257
-0.0161725	0.012872	-0.0160882
-0.0120713	0.0172164	-0.00746348
-0.0118235	0.0113644	-0.0191166
0.00433119	0.00843698	-0.00788175
-0.0200491	0.0205442	0.0200492
-0.0308394	0.033745	-0.0344812
-0.000632348	0.00349781	-0.000637295
0.0017064	-0.0396792	0.0403337
0.00698477	0.0375054	-0.0393566
-0.00900008	0.00820633	0.00807005
0.00667406	-0.0299628	0.027919
-0.0134109	0.0129985	0.0133562
0.00185118	-0.0346444	0.0339272
-0.0228675	-0.0101507	0.023034
0.00750828	-0.00621838	-0.00787478
0.00455961	0.00899478	-0.0079753
-0.00231649	0.0119706	0.00234167
-0.0439414	0.0662597	-0.0635075
0.00880561	0.010302	-0.00914983
-0.00702117	0.00411137	0.00628641
0.00176271	-0.00893549	0.00926774
-0.0130868	0.006146	0.015675
0.00687992	-0.0120271	0.0117742
0.00911752	0.00905674	-0.00913116
0.0134243	0.0815779	-0.0957033
0.00777235	-0.025512	0.0234779
-0.0130503	0.0142899	0.0130027
0.00101174	0.0129085	-0.013654
-0.000466638	-0.00301819	1.12437e-05
0.0012352	0.0213562	-0.0214609
-0.00575331	-0.0279251	0.0252972
0.000195883	-0.0105427	-0.000204019
0.00327518	-0.0495054	0.0500848
0.00104195	-0.00161632	-0.00183166
-0.00279958	0.0470645	-0.046821
0.00427904	0.000932675	-0.00389088
0.0105566	-0.00978571	-0.0105003
0.0324544	0.0272453	-0.049621
0.00143175	0.0069305	-0.00238357
0.00264694	0.000593223	-0.00158321
0.00843349	0.0027536	-0.00586012
-0.0162508	0.0158149	0.0140969
0.00312036	0.000377987	0.000402741
-0.0203022	0.00193141	0.0187774
0.00138069	0.0321987	-0.0315208
-0.00869255	-0.0431737	0.0513178
0.00613183	-0.00606235	0.0035492
0.00315137	0.0020507	-0.00166589
-0.000253987	-0.000396033	9.8325e-05
-0.0154614	0.0158744	-0.0144844
0.001792	0.00335778	-0.00238642
0.00492144	-0.0122276	0.0105362
-0.017339	-0.0243318	0.02302
-0.00453587	0.00585831	0.00479336
0.002472	-0.0255208	0.0256415
-0.00604494	0.00630028	0.00445812
0.00561575	-0.0225101	0.0215283
0.00146143	0.00111628	-0.00146876
0.00516038	-0.00751671	-0.00527458
0.0044894	0.580417	-0.594566
0.0745999	-0.0779866	-0.0666989
0.00384047	-0.0482024	0.0487758
0.00228744	0.00289965	-0.00272973
-0.0108753	0.0126751	0.0100888
0.00200064	0.0247743	-0.0195467
0.0116925	-0.011544	-0.00967144
0.00214401	-0.0441992	0.0441684
-0.0113175	-0.0358915	0.0476071
0.00341301	-0.00167924	-0.0023743
0.00401806	0.00222629	-0.00408468
0.0748986	-0.0750913	-0.0748939
-0.0125412	0.0993561	-0.0989418
0.00211734	0.0024759	-0.002117
0.00339419	0.00122058	-0.00437935
-0.0186983	-0.0191565	0.0186839
-0.0156392	0.0138687	0.0155767
-0.0111509	0.0340414	-0.0345153
0.000883271	0.000676293	-0.000866256
-0.00232978	-0.002574	0.00297855
-0.0124082	-0.000111618	0.0126443
-0.0119308	0.0116218	0.0100434
0.00349554	-0.0519993	0.0544896
-0.0232247	0.0125934	0.0183118
0.00138069	0.0321987	-0.0315208
-0.00311769	0.0356182	-0.0343571
0.157578	-0.159504	-0.158849
-0.0142875	-0.000942889	0.00715074
-0.00874153	0.0101393	0.00861995
0.00121639	0.0234596	-0.0223474
0.00114981	-0.0317343	0.0384062
0.00150546	0.00406112	-0.00141727
-0.0220624	0.0133873	0.00301554
-0.0177654	0.0160509	0.0177712
0.00409914	-0.00509493	0.00449344
-0.00185856	-0.00183917	0.00251526
-0.00260928	-0.0316249	0.0355614
-0.00247982	0.00224405	0.00374015
-0.00916265	0.00993113	0.00888599
0.00210599	-0.0282102	0.0272502
0.00226944	0.00348082	-0.00308103
0.00602919	-0.00648062	0.00218487
0.00710006	-0.647167	0.645396
0.048248	-0.0496717	-0.0476031
-0.00773496	0.0804287	-0.0801784
-6.45896e-05	-0.000649638	7.67664e-05
0.00229356	-0.0442409	0.044157
-0.0160764	-0.0216649	0.0210724
0.00205196	-0.0166541	-0.00315638
0.00124955	-0.0290951	0.0310412
0.0181021	-0.0184485	-0.0178047
0.0028285	-0.0296245	0.0280412
-0.0137368	-0.00806963	0.013356
-0.0098287	0.00898262	0.0106911
-0.0358151	-0.06308	0.0623065
-0.00251567	0.0087222	0.00391753
0.00585199	1.30467	-1.30547
0.000353335	0.0587288	-0.051932
0.000923721	-0.025621	0.0235612
0.00421665	0.00498742	-0.00501523
-0.0218439	0.0165788	0.022439
-0.00494098	-0.0216581	0.021689
-0.0054978	-0.00477698	0.0055139
0.0167117	-0.0182026	0.0146609
0.00162502	0.00437423	-0.00164854
0.00881349	-0.00931075	-0.00825453
0.00800039	-0.0495952	0.0494849
0.00294351	-0.00677752	-0.00360923
0.00648247	-0.0308847	0.0306202
-0.000612997	0.0209077	-0.0128406
-0.0321455	0.0305952	0.0320817
0.00325417	-0.0480926	0.0472035
-0.035092	0.0120348	0.035089
-0.00232978	-0.002574	0.00297855
0.00457034	0.00728866	-0.00515194
-0.0175125	0.0175661	0.0175147
0.0133404	-0.0196275	0.000932767
-0.00100125	-0.0013487	0.00148647
-0.00470853	0.0133286	-0.0134625
-0.0175614	-0.0687438	0.0686985
-0.000725455	-0.000914724	0.000940172
-0.422007	0.220728	0.13044
-0.020655	0.0099072	0.0203908
-0.000594969	-0.0109631	0.0110106
0.00421665	0.00498742	-0.00501523
-0.00385312	0.0114569	-0.0118131
-0.000410975	0.00422639	-1.56537e-05
0.0684621	-0.068043	-0.0684629
-0.019663	0.0164707	-0.0165867
-0.0137368	-0.00806963	0.013356
-0.107086	0.106167	-0.111615
0.00509016	0.00516569	-0.00510829
0.00617731	0.00818133	-0.00640601
0.000819805	-0.0418823	0.0417022
-0.00354452	0.0104218	0.00329581
0.00238378	0.0322722	-0.0322634
-0.0165928	-0.00771291	0.0166439
0.0150362	-0.014825	-0.0150268
-0.000978261	-0.00158298	0.00287135
-0.00631363	-0.00422985	0.00642806
-0.0194321	0.0273517	-0.0295469
-3.13543e-05	0.00407975	7.28949e-05
0.0208979	-0.0183609	-0.020877
0.00603323	0.00741529	-0.00736828
0.0808338	-0.06413	-0.0476702
0.00259971	0.00748751	-0.00951281
0.00736375	0.00741534	-0.00735829
0.00397615	-0.0284551	0.0248864
-0.0150464	-0.020594	0.0193426
0.0223528	-0.0201109	-0.0203729
-0.00232603	0.00199481	0.000845069
0.00155414	0.00114027	-0.00159527
0.00593158	-0.0229384	0.0181776
0.0100169	-0.00131166	-0.000371085
-0.0145818	0.0118635	0.0115197
4.76469e-05	-0.0110183	0.0111078
-0.0250889	0.0100361	0.0252458
0.00258584	0.0131112	-0.0132535
0.00540703	0.0047985	-0.00533062
0.049467	-0.0520106	-0.0497067
-0.000432909	-0.0488731	0.0508792
0.0307474	-0.0326376	-0.0306828
0.00154482	-0.0137671	0.0128812
0.00509016	0.00516569	-0.00510829
-0.0131916	0.0124547	0.0132765
-0.0068646	-0.0177523	0.0172326
-0.00998873	0.0101574	0.00771267
-0.000955828	0.0117202	-0.0115379
0.00440519	0.00236528	-0.00447047
0.0108378	-0.0094256	-0.00902732
0.00508289	0.00586156	-0.00506174
-0.0138285	0.0120658	0.0136283
0.00384047	-0.0482024	0.0487758
-0.0193027	-0.019695	0.0193133
-0.0904294	0.0943268	-0.0941367
0.00186831	0.00558973	-0.00722268
-0.0286304	0.0285877	0.0285444
0.00546281	-0.0134817	0.0130732
0.0104726	-0.01029	-0.0105692
-0.00948419	0.0429883	-0.0429935
0.00845688	0.00736769	-0.00845373
0.00706327	-0.00792813	-0.00841441
-0.000432909	-0.0488731	0.0508792
-0.0211104	0.0148408	0.0207816
0.00486801	-0.0466533	0.0466107
0.00344878	0.00620005	-0.00564875
-0.00100172	0.00445504	0.000831926
-0.0242992	0.00469196	0.017806
0.115713	-0.114646	-0.115712
0.00507371	-0.0336372	0.0331328
0.00401806	0.00222629	-0.00408468
-0.0173359	0.0152717	0.0177672
0.00431813	0.00941334	-0.00814901
-0.000615275	-3.19477e-05	4.22232e-05
-0.00580585	0.103984	-0.103494
-0.00416357	0.00916026	0.00430255
0.00613183	-0.00606235	0.0035492
-0.0140022	-0.0607481	0.0590018
0.00485212	-0.00906791	-0.00425102
-0.00140509	0.01201	-0.0121259
0.00674364	0.00425581	-0.00674003
0.00212749	-0.00208497	0.00485381
0.00306669	0.00520958	-0.00302157
0.00205817	0.000639287	-0.000845369
0.00409914	-0.00509493	0.00449344
-0.00461422	0.00494684	0.00618494
-0.0353068	0.181621	-0.182171
0.00674364	0.00425581	-0.00674003
-0.0219054	0.0221958	0.0219436
0.00736762	-0.0317659	0.0304874
0.0159332	0.00822459	-0.0250705
0.00257804	0.00184991	-0.00340386
-0.00134559	-0.0571746	0.0514547
-0.00902949	0.00772402	0.00992326
0.00282318	0.00637193	-0.00541734
-0.0226584	0.0126106	0.0228904
-0.0290219	0.082624	-0.0819771
0.00876697	0.00296977	-0.00421515
0.00615723	-0.00546426	-0.00742526
-0.0296825	-0.00685234	0.029747
-0.0231312	0.0125226	0.0192398
0.00427326	-0.0413094	0.0410422
-0.014716	-0.00171534	0.0145397
0.0031084	-0.0207524	0.0172309
-0.00519789	0.00634904	0.00557312
-0.00770507	0.00729807	0.00668033
0.00210599	-0.0282102	0.0272502
-0.00452645	0.00630731	0.00291779
0.00376901	-0.00121934	0.000798251
0.00509016	0.00516569	-0.00510829
-0.0103175	0.0103928	0.00906486
-0.000226872	-0.0058899	0.00582558
-0.0164067	0.00963417	0.0161554
-0.0382233	0.0292459	-0.0195612
0.00379261	0.000576491	-0.00326501
0.0826981	-0.0774071	-0.083678
-0.0128947	-0.00198672	0.0158781
-0.0150034	0.0112816	0.0155313
0.00260028	0.00367518	-0.00498029
0.00605448	0.00652304	-0.00603482
0.0326793	-0.0382184	-0.0311771
0.00173248	-0.0140489	0.0139528
-0.00665914	0.00778863	-0.00033881
0.00365631	0.00217913	-0.00165955
0.00114981	-0.0317343	0.0384062
0.00051963	-0.0210864	0.0233286
0.00218395	0.00388324	-0.00189596
0.0201032	-0.0184683	-0.0203511
0.00145059	-0.0387199	0.0383845
-0.282515	-0.0172816	0.276306
0.00472733	-0.017958	0.0169595
0.00607222	0.00334141	-0.00612219
0.0214032	-0.00382033	-0.0245473
0.00439086	0.00096729	-0.000954793
-0.00709364	0.0120402	0.000456551
0.00654371	-0.0304188	0.030391
-0.00443889	-0.100506	0.0970008
-0.0130473	0.00658189	0.0131008
0.00385785	-0.0285187	0.0280197
-0.00390887	0.0029023	0.0039776
0.00358362	-0.0481744	0.0468051
0.00509016	0.00516569	-0.00510829
0.0324625	-0.030953	-0.032297
-0.00127548	3.33971e-05	0.00510204
0.0223528	-0.0201109	-0.0203729
-0.00512451	0.0923002	-0.091665
-0.00555813	-0.0455271	0.03912
-0.0884186	0.0871143	-0.0340803
-0.0190096	-0.00248773	0.0190654
-0.00691271	0.00584606	0.00946407
0.00137613	-0.0175915	0.017786
0.00479473	0.00551182	-0.00478836
-0.000637913	-0.00847607	0.010402
0.00607222	0.00334141	-0.00612219
0.00620649	-0.00373422	-0.00852278
-0.00128514	0.0164168	-0.0161731
0.0545487	-0.0556597	-0.0545739
0.000961504	-0.0249958	0.0263591
0.00243858	0.00208389	-0.00168819
-0.0022311	0.00817639	0.000914052
-0.000384347	0.0173791	-0.017538
-0.0119307	0.01189	0.0115827
-0.014387	0.434102	-0.43482
0.00226944	0.00348082	-0.00308103
-0.0079173	0.00778092	0.00802328
0.00155915	0.0201384	-0.0142084
-0.0136503	0.00924135	0.0144725
0.00222731	0.0389714	-0.0386815
0.00243395	0.00444829	-0.00240383
-0.00875658	0.0084126	0.00929203
0.00459822	-0.00952192	0.00615669
0.205299	-0.0639794	-0.187539
-0.0101983	0.0297962	-0.0292946
-0.0131452	-0.0169276	0.0159124
-0.0249346	0.0797301	-0.0846376
-0.0159049	0.0149908	0.00121238
-0.00799645	0.00961691	0.00841644
0.00312922	-0.022415	0.0209239
-0.00579176	0.0403796	-0.0356367
0.00713819	-0.0173207	0.0172479
0.00634889	0.00524022	-0.0050867
0.0095164	-0.00962964	-0.0103956
0.003827	-0.0449012	0.044858
-0.0130473	0.00658189	0.0131008
3.10523e-05	-0.00174878	0.00197748
-0.00500035	-0.00822899	0.00519875
-0.00505249	0.00535626	0.00683431
0.00422589	0.00143432	-0.00144354
0.0105156	-0.00378053	-0.0104812
0.00154482	-0.0137671	0.0128812
-0.00087701	-3.01391e-05	0.000906197
0.0052502	-0.00236776	-0.00577909
0.00459822	-0.00952192	0.00615669
-0.00746511	-0.0049285	0.0112488
0.0010247	-0.0424859	0.0422599
0.000985472	0.000680581	-0.000990824
0.0155603	-0.01763	0.0124989
0.00177589	0.00108393	-0.00174751
-0.00649702	0.00744964	0.00644382
0.00210599	-0.0282102	0.0272502
0.00348693	0.00395795	-0.00447755
-0.0102547	0.000567003	0.000100617
-0.00776892	-0.00806309	0.00776931
0.00287391	-0.0111817	-0.00289065
0.002472	-0.0255208	0.0256415
-0.0176103	0.0167763	0.0175564
0.0017064	-0.0396792	0.0403337
0.00494482	0.0304957	-0.0341715
0.0124191	-0.0170944	-0.0175133
0.00345069	-0.0722046	0.0757694
-0.022623	0.022036	0.0228368
0.00327518	-0.0495054	0.0500848
-0.0207216	-0.0306021	0.0208513
0.055887	-0.0507781	-0.0557161
-0.0145215	-0.0340628	0.0330003
-0.00699834	-0.000797626	0.00700375
-0.00173078	-0.00333924	0.00329903
0.00430228	0.00229528	-0.0072566
-0.0012191	0.000409097	0.0010325
0.0028113	0.00549281	-0.00484032
0.14315	-0.143555	-0.0642968
0.00473633	-0.00659508	0.00640329
0.00514113	0.00486968	-0.00514783
0.00109673	-0.00237845	-0.00255449
0.00739972	-0.0440807	0.0424183
-0.0286304	0.0285877	0.0285444
-0.0164697	-0.000375501	0.0031062
-0.00370693	0.00507372	0.00727429
0.00205784	-0.047216	0.0471342
0.00218395	0.00388324	-0.00189596
-0.00764147	0.00631311	0.00971006
-0.000544182	0.15443	-0.15191
0.0251254	-0.0297274	-0.0253447
-0.00894602	0.151652	-0.150295
0.000255193	-0.000949991	0.00167956
0.0626046	-0.0559164	-0.0632444
-0.00166491	-0.0333278	0.0316712
-0.00375181	0.0066118	-0.0122409
0.0040729	-0.048292	0.0486077
0.00501365	0.00534748	-0.00502684
-0.0201119	0.0174281	0.0206702
-0.0187975	-0.99667	0.991613
0.00187352	0.00139625	-0.001646
0.00378509	-0.00115757	0.00107212
-0.00158674	0.0267283	-0.0180517
0.0140894	-0.0173654	0.0129395
-0.0068646	-0.0177523	0.0172326
-0.00688114	0.0049209	0.00690807
0.00248118	-0.00339615	0.00170511
0.00458485	0.00317315	-0.00346143
-0.00444084	-0.00562112	0.00850875
0.00316853	0.00045137	-0.00283152
-0.0193723	0.0183504	0.0195348
0.00170372	-0.00198013	0.00198051
-0.00315757	0.00217012	0.00274069
0.00224181	-0.00961671	0.00798526
0.00483996	0.00125753	-0.00444634
-0.000518416	0.000873541	0.000505192
0.00411735	-0.0089587	0.00671463
-0.0075939	0.00765737	0.00885841
0.0040729	-0.048292	0.0486077
0.00421665	0.00498742	-0.00501523
0.00650226	-0.0073596	-0.00650649
-0.0637734	-0.0215118	0.0589935
0.135653	-0.136412	-0.123265
0.00475693	-0.00489602	0.00487918
-0.00119471	-0.315593	0.317114
0.00227006	-0.00166496	0.000315102
-0.024544	-0.0390847	0.04159
0.00432117	-0.00893509	-0.00409284
-0.00484916	-0.00847796	0.00768141
0.00501365	0.00534748	-0.00502684
0.0137542	-0.018396	0.0162147
-0.00869255	-0.0431737	0.0513178
0.0027012	0.00076153	-0.00474284
0.00210599	-0.0282102	0.0272502
-0.00523243	0.00292014	0.00605269
0.00115063	-0.0427959	0.0426902
0.00134177	0.00235127	-0.00137931
0.129014	-0.135651	-0.0808216
0.00121639	0.0234596	-0.0223474
0.0862972	-0.0859478	-0.0863605
-0.00738015	0.0238511	-0.0227732
-0.0372259	-0.0309709	0.0301205
0.036546	-0.0352055	-0.036445
0.00934144	-0.00258712	-0.00132525
0.00181406	-0.000449945	0.000886442
0.00276366	-0.0249107	0.0235786
-3.13543e-05	0.00407975	7.28949e-05
0.00500497	0.00116965	-0.00428296
-0.00245208	-0.000816279	-0.000301413
-0.0142301	0.0148067	0.0142292
0.00205784	-0.047216	0.0471342
0.0141801	0.00501333	-0.00711611
0.0116597	-0.0276629	0.0231636
-0.000264771	0.0003309	0.00026563
0.0506877	-0.0492911	-0.0507744
0.0012245	-0.0400809	0.0400716
0.00200064	0.0247743	-0.0195467
-0.00740847	0.00135259	-0.00621549
-0.00199018	0.00384827	0.0020169
-0.000634653	0.00490621	-0.00264877
0.00387632	-0.0412305	0.0413974
-0.0123813	0.00220498	0.0124227
0.00151846	-0.0166356	0.0180506
-0.000310076	0.00100987	0.00234726
-0.00947745	0.0118743	0.00965997
-0.0367822	0.138292	-0.10514
-0.0134831	0.00817611	0.0134147
0.00282198	-0.0518231	0.0513537
0.00401806	0.00222629	-0.00408468
0.00338985	-0.000236908	-0.00334051
0.000478947	-0.00398224	0.007434
-0.0059323	0.000244705	0.00562986
-0.00279958	0.0470645	-0.046821
0.00187996	0.027925	-0.0242372
-0.00672132	0.0188722	-0.0179529
-0.0809894	-0.10659	0.100632
-0.010962	0.0100524	0.0109632
0.00117658	-0.0130638	0.0133353
-0.0756009	-0.0749158	0.0787327
-0.0246995	0.0344665	-0.0348191
0.00427904	0.000932675	-0.00389088
-0.00891528	0.00963309	0.00831914
-0.0308394	0.033745	-0.0344812
0.000339307	-0.00117354	0.000652501
-0.0769231	0.244147	-0.243652
-0.0643557	-0.85567	0.854072
-0.0300924	0.0297537	0.0300812
-0.00535732	0.226182	-0.225965
-0.00618396	0.00508079	0.00610514
0.0102828	-0.01159	0.0114662
-0.00087701	-3.01391e-05	0.000906197
-0.0101766	0.00387832	0.00922205
-0.0242992	0.00469196	0.017806
0.0238845	-0.0237401	-0.0237212
-0.00140925	-0.00919948	0.00933658
0.0105842	0.00928872	-0.00965332
-0.0228277	0.0236069	0.022824
0.00104222	0.00357466	-0.00323349
-0.00210604	0.00483008	0.000792839
-0.0774072	0.0800005	-0.0780645
-0.0296825	-0.00685234	0.029747
-0.0129174	0.0090703	0.00382165
-0.0012213	0.00580914	-0.00408356
-0.00210604	0.00483008	0.000792839
0.00395474	-0.0365934	0.0344276
-0.0026742	0.00272734	0.00305391
-0.00272141	0.0151025	-0.015109
-0.00841298	-0.0189723	0.00844462
-0.0145195	0.0140788	0.010407
0.00459058	-0.0536366	0.0533902
0.0287119	-0.0266388	-0.0273261
0.00232269	-0.0294806	0.0284141
0.00312036	0.000377987	0.000402741
-0.00707715	0.00695191	0.000255208
0.00176271	-0.00893549	0.00926774
-0.015091	0.00536145	0.0184965
-0.00766817	0.0553454	-0.0563576
-0.000993828	-0.00111198	0.000990859
0.151943	-0.151625	-0.151949
-0.00893866	0.00759862	0.00756632
-0.0068939	-0.00963032	0.00925675
-0.00232978	-0.002574	0.00297855
0.00401806	0.00222629	-0.00408468
-0.00905754	0.00892349	-0.00846772
0.00634889	0.00524022	-0.0050867
0.00537539	0.00912904	-0.00566268
-0.0126516	-0.0208285	0.0243317
-0.0114718	-0.012892	0.0113278
0.00349554	-0.0519993	0.0544896
0.00431234	0.00485284	-0.00431138
-0.00728761	0.00445576	0.00989578
-0.00816197	-0.00296254	0.00232668
-0.00901728	0.00987049	0.00728207
0.00475693	-0.00489602	0.00487918
0.00422589	0.00143432	-0.00144354
-0.0110522	0.0142276	0.0112191
-0.00260928	-0.0316249	0.0355614
0.00701613	-0.0114038	-0.00763132
0.00338085	-0.0205198	0.0207173
-0.00555967	0.0110003	0.00496644
0.0429323	-0.0434211	-0.0429704
0.00924521	-0.00959531	0.00568583
-0.0286239	0.00356134	0.0269869
0.00272368	-0.0479499	0.0479455
-0.000264771	0.0003309	0.00026563
0.0036372	-0.00442113	-0.00389644
0.00155414	0.00114027	-0.00159527
-0.00436721	0.0128012	0.00455553
-0.0197044	0.0155343	-0.012812
-0.00199018	0.00384827	0.0020169
0.0130102	-0.021501	0.0169754
-0.00372601	0.0261053	-0.0322077
-0.000543543	0.00180924	0.00331638
0.0028355	0.262258	-0.264202
0.00483996	0.00125753	-0.00444634
0.00307906	-0.00339137	0.00430817
0.0114013	0.0480796	-0.0510158
-0.0133708	0.0130654	0.0109178
0.00648247	-0.0308847	0.0306202
0.00434393	-0.00433039	-0.000370431
0.0040729	-0.048292	0.0486077
-0.000171664	0.00368093	-1.79603e-05
0.00583522	0.00774907	-0.00617033
0.00148913	0.000283361	0.00166995
0.0321459	-0.0311815	-0.0311643
0.00448508	-0.0652071	0.0669322
0.00131065	0.071903	-0.0732697
-0.00027915	0.00582302	0.00181218
0.00455528	4.76805e-05	0.00338732
0.0654291	-0.0505094	-0.0567625
0.00330888	-0.0446383	0.0445491
0.00316853	0.00045137	-0.00283152
-0.0133445	0.14062	-0.137197
0.00501365	0.00534748	-0.00502684
0.0135751	-0.0147415	-0.0132281
0.00108143	-0.00953727	0.00935066
0.00607222	0.00334141	-0.00612219
0.00328093	-0.00437088	0.00718545
-0.000446798	-0.00766606	0.00403538
0.0274606	-0.025906	-0.0274236
0.00739288	-0.0259311	0.0258911
-0.000543543	0.00180924	0.00331638
-0.00272116	0.0359123	-0.0360766
0.00458485	0.00317315	-0.00346143
-0.00589088	0.00628937	0.00564597
0.0153807	0.085063	-0.0941469
0.0282705	-0.0278252	-0.0291136
-0.00228437	0.0535764	-0.0535597
0.00540703	0.0047985	-0.00533062
0.0167718	-0.0160591	-0.016771
0.00440519	0.00236528	-0.00447047
0.0159332	0.00822459	-0.0250705
0.00410183	0.0035469	-0.00339263
-0.00127548	3.33971e-05	0.00510204
-0.0139767	0.0132043	0.013978
-0.000438819	4.90408e-05	0.000469706
0.00227006	-0.00166496	0.000315102
0.00315864	-0.004703	0.00373264
-0.0240043	-0.00978869	0.0234056
-0.0114278	-0.0183792	0.0215672
0.0169752	0.0173734	-0.0169675
0.00568734	-0.00920455	-0.00143028
0.00133106	-0.00739153	0.00696059
-0.00335292	0.00365535	0.0075186
0.0010247	-0.0424859	0.0422599
0.00363642	0.00484575	-0.00359186
0.0268312	-0.023818	-0.0284011
0.00415427	-0.0609456	0.0636042
-0.00376293	0.00490182	0.00356317
0.00439612	-0.0148699	0.016773
-3.13543e-05	0.00407975	7.28949e-05
0.0436431	-0.0442089	-0.0439807
-0.00332653	0.0368869	-0.0305648
0.0682569	-0.067766	-0.0682563
0.00486047	-0.0659726	0.0646423
0.000899351	0.00068912	-0.000909602
0.0267961	-0.0252872	-0.0265919
-0.0152248	0.00082506	-0.00357233
-0.0160541	0.0166626	0.0160538
0.00214401	-0.0441992	0.0441684
0.00846839	0.00830397	-0.0084774
-0.00786479	-0.0218422	0.0246039
0.00228744	0.00289965	-0.00272973
0.0263805	-0.0260106	-0.0267207
0.00133205	-0.020693	0.0207063
-0.987071	0.0554954	0.890089
0.00317701	-0.0262343	0.0265328
0.00607222	0.00334141	-0.00612219
0.0900684	-0.0999485	-0.0395584
0.00669299	0.0312366	-0.0309505
-0.00442903	0.0025097	0.00580633
0.00484919	-0.0117163	0.0133058
0.00694399	0.0749153	-0.0763945
-0.00643503	0.00642654	0.00447491
-0.00177681	-0.0243394	0.0282168
-0.00847846	0.000200079	0.0110215
0.00118206	0.400668	-0.401151
-0.00547737	0.00170714	0.00587377
-0.0160576	0.00841101	0.0164037
0.00491452	-0.0069579	0.00400891
-0.0359535	0.00912801	0.0353653
0.00243344	0.0145429	-0.0148648
0.0028113	0.00549281	-0.00484032
0.0180702	0.105362	-0.117781
-0.0453743	-0.0446903	0.0453922
-0.00562287	-0.00316618	0.00651193
-0.0164697	-0.000375501	0.0031062
-0.000438819	4.90408e-05	0.000469706
-0.00411347	0.00427653	-0.00365038
-0.000614903	-0.00210795	0.000530412
-0.0378202	0.0157909	0.0378002
0.00518367	-0.00915722	0.00872408
-0.0211422	0.00349087	0.0211115
0.00486801	-0.0466533	0.0466107
0.00549687	0.10776	-0.111356
-0.0197011	0.0199821	0.0197411
-0.00853701	0.102119	-0.101447
-0.022379	0.0217945	0.0227288
0.000229878	0.0114413	-0.0106965
0.0034608	0.00267682	-0.0034397
-0.0083842	0.00638953	0.0109868
0.018303	0.0210304	-0.0334468
0.00351716	-0.0040084	-0.00330322
0.003827	-0.0449012	0.044858
0.00309581	0.0375728	-0.0372085
2.43038e-05	0.00554782	-0.00230053
-0.017125	-0.0560724	0.0512523
0.0576473	-0.0573816	-0.057661
0.00282198	-0.0518231	0.0513537
0.00162502	0.00437423	-0.00164854
-0.00361775	0.00868828	-0.0155838
-0.00110984	0.054685	-0.0576924
-0.0085962	0.00875138	0.00730311
-0.00367832	-0.00231557	0.00472645
0.00200064	0.0247743	-0.0195467
-0.00157421	0.0278054	-0.0274054
0.0126408	0.00607174	-0.00757772
-0.00027915	0.00582302	0.00181218
0.00330888	-0.0446383	0.0445491
-0.0145818	0.0118635	0.0115197
0.00157853	-0.0379186	0.0378432
-0.00229282	0.0392664	-0.0322768
0.18938	-0.188633	-0.189324
0.00914595	0.0494285	-0.0498248
-0.00392928	-0.000114651	0.00433774
-0.00264416	0.0664047	-0.0663088
0.000277872	0.0798365	-0.0792644
0.00282903	-0.00175422	-0.00331288
0.00256685	-0.0139057	0.0142493
0.00454254	0.00174403	-0.00409951
0.00627732	-0.0241898	0.024438
-0.0107367	0.0136271	-0.0054694
-0.00260928	-0.0316249	0.0355614
0.00531402	0.0310037	-0.030303
-0.0098025	0.00965219	0.00633172
0.00584405	-0.0144052	0.014653
0.00433119	0.00843698	-0.00788175
0.0038657	-0.0259691	0.0270289
-0.000438819	4.90408e-05	0.000469706
0.0289788	0.0034083	-0.0339673
-0.00523451	-0.0584392	0.0583169
-0.00709364	0.0120402	0.000456551
0.00757445	-0.0300009	0.0299486
-0.00518753	0.000862481	0.00520014
-0.0148746	-0.00318994	0.0166762
-0.0211375	0.0397404	-0.0401737
-0.00462767	0.00837792	0.00391875
-0.00159121	0.00308484	-0.0030283
-0.00236927	0.00376443	0.00239424
-0.00474808	0.00424171	0.00601205
-0.00152343	0.0235776	-0.0175939
0.124088	-0.124904	-0.124034
-0.0148633	0.188743	-0.187887
0.00228744	0.00289965	-0.00272973
0.028017	-0.0299121	-0.027196
-0.00184564	0.00206198	0.0026978
-0.0231239	0.0104977	0.0230588
-0.0188339	0.0177326	-0.0136229
-0.00199018	0.00384827	0.0020169
0.00718085	-0.0211218	0.0163397
0.00367198	-0.0417027	0.0458785
0.00287391	-0.0111817	-0.00289065
0.00476492	-0.0123877	0.014923
0.0035622	0.00135135	-0.00316765
0.00475693	-0.00489602	0.00487918
0.00728906	0.00593058	-0.00772365
0.0049435	-0.0116125	-0.00190675
-0.00948419	0.0429883	-0.0429935
-0.0214322	0.0216727	0.0214994
0.00486047	-0.0659726	0.0646423
0.00501365	0.00534748	-0.00502684
-0.0115821	0.00951835	0.0106914
-0.066144	-0.113095	0.130957
0.00143175	0.0069305	-0.00238357
0.00270172	-0.032386	0.0331157
0.00431234	0.00485284	-0.00431138
-0.0359535	0.00912801	0.0353653
0.000504961	-0.00414533	0.00129497
0.0222658	-0.0217679	-0.0288392
0.00800039	-0.0495952	0.0494849
0.00428358	0.00149782	-0.00221511
-0.00967914	0.0100393	-0.0102508
0.00155579	0.00852533	-0.00142103
-0.0145472	0.00781163	0.0131765
0.00154482	-0.0137671	0.0128812
0.00846839	0.00830397	-0.0084774
0.00124955	-0.0290951	0.0310412
-0.0240043	-0.00978869	0.0234056
-0.0127002	0.0137624	0.0123434
0.00514264	1.01598	-1.01744
-0.00374768	0.00871559	0.00225987
-0.0095135	-0.0255803	0.0255743
0.00138046	0.000240859	-1.31965e-05
0.0308901	-0.0308181	-0.0309567
0.00730934	0.00199781	-0.00677815
0.000477865	0.000430861	0.00151251
-0.00192112	-0.00701723	0.00872922
0.00846839	0.00830397	-0.0084774
0.00338194	-0.00482814	-0.00338973
0.000480338	-0.0166728	0.0174867
0.0842593	-0.0866734	-0.088132
0.00800039	-0.0495952	0.0494849
0.000255193	-0.000949991	0.00167956
0.00754199	-0.00590289	-0.00774642
-0.0931745	-0.0721078	0.0931766
-0.00462659	-0.00194086	0.00246464
0.00378509	-0.00115757	0.00107212
0.000752325	0.0034655	-0.000837539
-0.0014436	-0.0166127	0.0198704
0.00462232	0.0420634	-0.0388759
-0.0460277	0.00649326	0.0469722
0.00555544	-0.0445978	0.0431562
0.0576038	-0.0430302	-0.0573607
0.00548548	-0.010219	0.00946964
-0.012113	-0.0246422	0.037865
0.0100776	0.00502308	-0.0111925
0.000205945	0.0491362	-0.0489243
-0.0135875	0.0154608	0.0136189
0.0031206	-0.0333607	0.0310714
0.0103743	0.0053174	-0.00980136
0.00606223	-0.00714552	-0.00514557
0.00256685	-0.0139057	0.0142493
-0.0312633	0.0163756	0.030716
0.0024676	0.244195	-0.245876
-3.13543e-05	0.00407975	7.28949e-05
-0.00775084	0.00743102	0.00808957
-0.00194588	-0.00161407	0.00333269
0.0296034	-0.0361494	-0.0303685
0.00121639	0.0234596	-0.0223474
0.00155414	0.00114027	-0.00159527
0.00613183	-0.00606235	0.0035492
-0.00617204	-0.00612006	0.00618082
-0.00705867	0.00696163	0.0050395
-0.00869614	0.227109	-0.226263
-0.00898669	-0.0154648	0.0147655
-0.00254363	-0.0191158	0.019212
-0.0231869	-0.0574767	0.0544518
0.00872364	-0.00813328	-0.00818348
-0.0112845	0.051811	-0.0517301
0.00364107	-0.00483096	-0.00160925
-0.00740086	0.140202	-0.130774
0.0100929	-0.684691	0.680385
0.00484215	0.00208771	-0.0041186
-0.000572183	-0.0208873	0.0226157
-0.00730041	0.00773393	0.00582076
0.00400728	-0.0613734	0.0604257
0.00573271	0.00479499	-0.00568099
0.00756804	-0.00754377	-0.0072902
-0.0026742	0.00272734	0.00305391
-0.0344788	0.0162381	0.0246903
-0.00894959	-0.0261807	0.0260931
-0.00346448	-0.00293228	0.00346453
0.00440684	-0.0077311	0.0103398
-0.0115538	-0.0120569	0.0121027
-0.015091	0.00536145	0.0184965
-0.00269237	-0.00630334	0.00483219
0.000985472	0.000680581	-0.000990824
0.00275946	-0.0285063	0.027261
0.00501365	0.00534748	-0.00502684
0.0316165	-0.0296739	-0.0301453
0.00459058	-0.0536366	0.0533902
-0.00467803	0.00037562	0.00354495
-0.00827227	-0.0251913	0.0250327
-0.00504437	0.0112069	-0.00794393
-0.00789893	0.00800276	0.0078551
0.00418789	-0.0588562	0.0576756
-0.000198294	0.00205788	0.000231907
-0.061094	0.213685	-0.214133
0.00674364	0.00425581	-0.00674003
0.0193856	-0.0169858	-0.0196343
-0.0125784	-0.0390902	0.00954945
-0.00758305	0.0087664	0.00731891
0.00713819	-0.0173207	0.0172479
0.00435272	0.0159286	-0.0126302
-0.00556222	0.00334235	0.00821282
-0.00184564	0.00206198	0.0026978
-0.0250405	0.0255135	0.0250931
-5.35938e-05	-0.0117715	0.0125915
0.00292299	0.00241013	-0.00299168
-0.00414494	-0.0063317	0.00855585
0.0113888	0.0537775	-0.0580099
-0.00141941	0.00445362	0.0017113
0.00439835	-0.0485569	0.0479878
-0.173612	-0.047511	0.173521
0.00606209	-0.0480769	0.0478008
-0.00293645	0.0103474	0.00217156
0.0126012	-0.0125106	-0.00505369
0.00538918	-0.0421209	0.0419317
-0.00100259	-0.000762652	-0.00014559
-0.000226872	-0.0058899	0.00582558
0.00982183	0.000956197	-0.00301308
-0.00905734	0.00844608	0.00814286
-0.00247982	0.00224405	0.00374015
-0.00374768	0.00871559	0.00225987
0.00358362	-0.0481744	0.0468051
-0.0235548	-0.0117509	0.0107482
-0.0159412	0.0141684	0.0159429
-0.00152036	-0.0217616	0.0229238
-0.043651	0.0120194	0.0433308
3.10523e-05	-0.00174878	0.00197748
-0.000389952	-0.0184798	0.0259218
0.00439612	-0.0148699	0.016773
0.00083616	0.0047789	-0.000908941
-0.00885353	0.00724267	0.0073005
0.00410183	0.0035469	-0.00339263
0.00781027	0.00541518	-0.00976128
-0.00161081	0.0242693	-0.0214932
0.00344878	0.00620005	-0.00564875
0.00264798	-0.000766197	-0.00244307
-0.0682992	0.216101	-0.216088
0.0249368	-0.024666	-0.0237479
0.00606209	-0.0480769	0.0478008
0.00455961	0.00899478	-0.0079753
0.0733953	-0.0728514	-0.0719491
-0.00190821	0.0401892	-0.0402374
0.0396417	-0.0386148	-0.0397488
0.00232269	-0.0294806	0.0284141
0.00292299	0.00241013	-0.00299168
0.0295712	-0.03548	-0.0315984
-0.00469556	-0.0435265	0.0374509
0.0449318	-0.0454914	-0.044984
0.0010247	-0.0424859	0.0422599
-0.00164767	0.00618399	0.00190956
0.00483922	-0.00931457	-0.00499256
-0.024	0.0301658	-0.0603158
0.0156324	-0.0160539	-0.0155684
-0.00454868	0.644573	-0.646255
-0.0240043	-0.00978869	0.0234056
-0.0163474	0.0164285	-0.0135596
0.00713397	0.00480273	-0.00682863
0.00426051	-0.0121552	-0.00214111
-0.0287393	0.036633	-0.036429
0.000569381	-0.0187641	0.0189317
0.00327195	0.000168487	0.00012713
-0.000939418	0.0438787	-0.0416398
0.018039	-0.0240096	-0.0136559
-0.0280311	0.0573012	-0.0583252
0.00917791	-0.00988046	-0.00876172
0.00189008	-0.0139488	0.0126096
-0.00247982	0.00224405	0.00374015
0.00917108	-0.00974155	-0.00921548
-0.0432113	-0.0478007	0.0640242
-0.000169761	0.00199699	2.67482e-05
0.00454807	-0.047834	0.0467746
0.00211734	0.0024759	-0.002117
0.0219541	-0.0189463	-0.0220059
0.00455528	4.76805e-05	0.00338732
0.0208979	-0.0183609	-0.020877
0.00409914	-0.00509493	0.00449344
0.00483485	0.000392946	-0.00268755
0.00227386	0.00287909	0.000119936
-0.0143683	-0.0149361	0.0143317
-0.00770617	0.00865673	0.0063314
0.00104802	-0.0198329	0.0200966
-0.0772151	-0.0817142	0.0810179
-0.00126823	-0.015676	0.0177667
0.00431234	0.00485284	-0.00431138
-0.0232716	0.00970711	0.0244897
0.00422096	-0.00977888	0.00982642
0.0329004	-0.0324264	-0.0330916
0.003827	-0.0449012	0.044858
0.00428358	0.00149782	-0.00221511
-0.00715084	0.00783313	0.00974294
-0.00710082	0.0602598	-0.0626187
-0.00708097	0.00796674	0.00708128
0.00189008	-0.0139488	0.0126096
0.00494482	0.0304957	-0.0341715
0.0440991	-0.0418566	-0.0441908
-0.00430328	-0.0329398	0.0341395
-0.0171271	0.0166463	0.0125475
0.00422096	-0.00977888	0.00982642
-0.0154746	0.0119529	0.00115207
-0.00153663	0.00270977	0.00184817
0.00663934	-0.189753	0.19393
0.0448608	-0.0460744	-0.0447392
-0.00140925	-0.00919948	0.00933658
0.00207776	0.00168044	-0.00165869
0.0025659	-0.0121319	0.0112617
0.000899351	0.00068912	-0.000909602
0.0262898	-0.0249087	-0.0250399
-0.0126516	-0.0208285	0.0243317
0.00418529	-0.00290489	-0.00432018
-0.00718296	0.0606115	-0.0602458
0.00674364	0.00425581	-0.00674003
-0.0145818	0.0118635	0.0115197
0.00227386	0.00287909	0.000119936
0.0271331	-0.0245776	-0.0271476
-0.00479327	0.00775152	-0.00698589
-0.010429	-0.038734	0.0322266
0.0123924	-0.0111003	-0.0118625
-0.00687401	0.0392661	-0.034553
-0.0148245	0.0158588	0.0146363
0.000289391	0.0350623	-0.0356307
-0.0189868	-0.00804334	0.018065
0.0183286	-0.0201878	-0.0183197
0.0282631	0.0416839	-0.0643196
-0.00499817	0.00588317	0.00251614
-0.00159121	0.00308484	-0.0030283
-0.0228675	-0.0101507	0.023034
-0.00268258	0.00259325	-0.00650409
0.0106127	0.0428736	-0.0457336
0.00756804	-0.00754377	-0.0072902
0.00145059	-0.0387199	0.0383845
0.00573271	0.00479499	-0.00568099
-0.00986338	0.067229	-0.0729562
0.00572834	-0.0513104	0.0508087
0.0632425	-0.0642715	-0.0628635
0.000313939	0.00241802	-0.00242296
-0.0110133	0.0074959	0.00749935
-0.018749	-0.00996655	0.0157778
-0.0158618	-0.0178989	0.0158507
0.00822129	-0.00889987	-0.00418727
0.00663892	-0.00686529	0.00482574
0.0320935	-0.0327738	-0.029855
0.00130378	-0.0307481	0.0309136
0.0037832	0.0041202	-0.00375616
-0.0147795	0.0153644	0.0147559
-0.00152036	-0.0217616	0.0229238
-0.00521594	0.00525174	0.000492604
-0.0320834	0.0983071	-0.0976317
0.00177589	0.00108393	-0.00174751
-0.00696496	-0.0205971	0.021267
0.00155414	0.00114027	-0.00159527
0.000442089	-0.00178625	-0.000432988
0.00679498	0.0252525	-0.0291291
0.00911752	0.00905674	-0.00913116
0.00124572	-0.01749	0.0203392
0.00455961	0.00899478	-0.0079753
0.0108575	-0.0113923	-0.00939353
0.00337953	0.00974983	-0.00977692
0.00650646	-0.00433886	-0.00620014
0.00739288	-0.0259311	0.0258911
0.0100169	-0.00131166	-0.000371085
-0.0113923	0.00863622	0.0103563
0.00384047	-0.0482024	0.0487758
-0.0210669	0.0207216	0.0212404
0.00311428	-0.0459792	0.0458363
0.00980132	0.0092497	-0.00981353
0.0617617	-0.0642768	-0.0624563
-0.000856001	-0.014142	0.0157911
0.0428036	-0.0423561	-0.0428065
0.000819805	-0.0418823	0.0417022
0.00579598	0.00430597	-0.00578402
-0.00928315	0.00669829	0.00783534
-0.057218	-0.117097	0.117432
0.0268495	0.00688556	-0.0498697
-0.0212635	0.0710728	-0.0761925
-0.0174296	-0.00219913	0.0172152
-0.0848745	0.0862527	-0.0595377
0.0109757	0.0115011	-0.010972
0.0051143	-0.00376911	-0.00525943
0.00384047	-0.0482024	0.0487758
0.00333854	0.0149611	-0.0177321
-0.0049057	-0.00399038	0.00306206
0.00422589	0.00143432	-0.00144354
0.00379852	0.0098424	-0.00899917
0.00486801	-0.0466533	0.0466107
0.00926709	-0.00885087	-0.00905537
-0.00698641	0.0683546	-0.0678533
0.00658804	0.00577728	-0.00656321
0.0131348	-0.013823	-0.0134818
-0.058034	0.0580495	-0.0504822
0.00207155	-0.00546299	-0.00207161
0.000312802	-0.036845	0.0381562
0.00736375	0.00741534	-0.00735829
0.00993327	-0.00585742	-0.0098668
0.00819564	0.00426522	-0.00556045
0.0116925	-0.011544	-0.00967144
0.00669411	-0.0206454	0.0209085
-0.0454176	-0.0460273	0.0454067
-0.000639828	-0.000458686	0.00337075
0.00173248	-0.0140489	0.0139528
0.0049435	-0.0116125	-0.00190675
-0.0112658	0.0550079	-0.053011
-0.0704336	-0.0584159	0.0717458
0.00691165	-0.0133924	0.0104425
0.00132618	0.00141045	-0.00133559
-0.00588939	0.00708093	0.00603824
0.00290737	-0.0458442	0.0459723
0.0545099	-0.0534431	-0.055038
0.00660737	-0.0185219	0.0182691
0.00726356	-0.128303	0.127116
-0.00518756	0.00499517	0.000988061
0.00477288	-0.0466254	0.0451832
-0.00561334	0.00486288	0.00557257
0.00100382	0.0412455	-0.0414319
0.0052435	0.00416495	-0.00479531
-0.0197909	0.00930466	0.0168623
-0.00582278	0.0393613	-0.0335749
-0.00506751	0.0044929	0.00464564
-0.00661803	0.371318	-0.37022
-0.00164767	0.00618399	0.00190956
0.00632548	-0.00795571	-0.0101596
0.00608767	0.00746445	-0.00790313
0.0240178	0.0109641	-0.0209489
0.00320655	-0.0252289	0.0263507
0.00306669	0.00520958	-0.00302157
-0.0259516	0.0257738	-0.00799253
-0.0203254	-0.0205416	0.0203162
-0.00483748	0.00539553	0.00449994
0.00518876	-0.00222284	0.0037071
-0.0136925	0.0280619	-0.0188503
-0.00292774	0.0191474	-0.0197819
0.00177589	0.00108393	-0.00174751
-0.00442903	0.0025097	0.00580633
0.00486801	-0.0466533	0.0466107
-0.00561334	0.00486288	0.00557257
0.000961504	-0.0249958	0.0263591
0.000353335	0.0587288	-0.051932
-0.0109471	0.0117371	0.00713458
-0.00305003	-0.0050643	0.00885578
0.0105081	-0.00840776	-0.0104943
0.00319048	-0.0103423	0.00974489
0.00485881	0.00399282	-0.00487952
0.296924	-0.296618	-0.297509
0.00824978	-0.0016629	0.00181254
0.0831859	-0.0826268	-0.0311187
0.00227097	-0.0453161	0.0455883
-0.00158674	0.0267283	-0.0180517
0.00829561	-0.018296	0.0153511
-0.0171677	-0.0541525	0.0594618
-0.028359	0.00586577	0.0282949
-0.00279958	0.0470645	-0.046821
0.00203827	0.0029746	-0.00195312
-0.00367832	-0.00231557	0.00472645
0.000686131	0.000355162	-0.000690173
-0.0113944	0.00970156	0.0049982
0.000592924	0.0309119	-0.0308099
-0.00840427	0.0077402	0.00866247
-0.00345592	0.0712213	-0.0711902
-0.00298217	0.000547836	0.00301432
0.00279937	-0.00155665	-0.00564382
-0.0517299	0.0518064	-0.0273684
-0.00830038	0.00967201	0.00812823
-0.00695719	0.017935	-0.0202738
-0.0280127	-0.0784627	0.0783205
-0.0089235	0.00804231	0.00839707
0.0161446	-0.0353064	0.0213162
0.0856536	-0.0861795	-0.0861538
-0.00623885	0.108776	-0.108452
-0.0361006	-0.0389719	0.0444953
-0.00470538	0.00349646	0.00507157
-0.00234815	-0.0181306	0.0139424
-0.0314042	0.0177007	0.0246585
0.00391078	-0.0411235	0.0408489
0.00177589	0.00108393	-0.00174751
-0.00578872	0.00280025	0.000839445
0.00607222	0.00334141	-0.00612219
0.00247943	-0.00192289	-0.00231781
0.00282198	-0.0518231	0.0513537
0.00826554	-0.00868835	-0.00900498
0.00617606	-0.0259655	0.0262355
0.00309581	0.0375728	-0.0372085
0.00872364	-0.00813328	-0.00818348
0.00391078	-0.0411235	0.0408489
-0.00366788	0.00357765	0.00387691
-0.00827227	-0.0251913	0.0250327
-0.0293792	-0.106838	0.125955
0.0188181	-0.00889336	-0.0173138
0.00292299	0.00241013	-0.00299168
-0.0167612	0.0172241	0.0117815
0.00224181	-0.00961671	0.00798526
-0.0014017	-0.00133344	0.0013938
0.0133466	-0.0070752	-0.0121404
-0.015123	0.0282155	-0.018152
0.113454	-0.035391	-0.110947
-0.00607194	0.019876	-0.0201971
-0.0322283	-0.0229074	0.0325281
-0.00578872	0.00280025	0.000839445
0.00401806	0.00222629	-0.00408468
0.0125233	-0.0122498	-0.0120022
-0.000197792	-0.000673943	-0.00204797
-0.0110332	0.017782	-0.0192608
-0.00086813	-0.0179541	0.021307
0.00634889	0.00524022	-0.0050867
-0.0296653	0.00916547	0.031604
-0.00127252	0.0470718	-0.0466506
-0.00865657	0.00811321	0.00850939
0.0076353	0.0308079	-0.034576
0.00759779	-0.218815	0.222747
-0.0133708	0.0130654	0.0109178
0.0155603	-0.01763	0.0124989
-0.0280174	0.0278775	0.0280171
0.00185118	-0.0346444	0.0339272
0.0106127	0.0428736	-0.0457336
-0.0137522	0.00868107	0.0139486
0.018303	0.0210304	-0.0334468
-0.0233292	0.00502273	0.0216758
-0.00274886	-0.0212869	0.022413
-0.0239385	-0.223838	0.223003
-0.0154614	0.0158744	-0.0144844
0.0104408	-0.0176424	0.0137378
-0.00925707	0.0105873	0.0026701
0.00160013	-0.00825093	0.00879691
-0.000310076	0.00100987	0.00234726
0.0116597	-0.0276629	0.0231636
-0.0186983	-0.0191565	0.0186839
-0.0122172	0.0124646	0.0125013
-0.00103445	0.405633	-0.406806
-0.00650297	0.00621637	0.00612838
-0.000265223	0.233184	-0.230766
-0.0068646	-0.0177523	0.0172326
-0.015528	0.0155319	0.0119754
0.00611969	-0.0108375	0.00988033
0.010421	-0.01126	-0.0104141
0.00294242	-0.04993	0.0503068
-0.0498215	-0.0484069	0.0491386
0.000733739	0.00291705	-0.000285625
-0.00134378	-0.0309847	0.0214216
-0.0220661	0.0222132	0.0220677
0.00507371	-0.0336372	0.0331328
0.0028113	0.00549281	-0.00484032
-0.0231796	0.0240009	0.0232581
0.00427904	0.000932675	-0.00389088
-0.0108861	0.0107119	0.00716486
-0.0202436	0.200795	-0.199982
-0.000993828	-0.00111198	0.000990859
0.0180881	-0.0178123	0.0164936
0.0032624	0.0193076	-0.0148404
0.0598295	-0.0597562	-0.0617668
-0.00592471	0.00923946	-0.010245
0.00153192	0.0478525	-0.0446696
-0.0208241	-0.00209242	0.00841731
0.00777235	-0.025512	0.0234779
-0.00705998	0.00669814	0.00437442
-0.0490646	0.0547952	-0.0554039
0.0222075	-0.0228975	-0.0222345
0.0108462	-0.0130261	0.0133926
-0.00199018	0.00384827	0.0020169
-0.0100695	0.00819275	0.0101456
0.0103792	-0.0325932	0.0293883
-0.00590342	0.00773968	0.0061832
0.00232269	-0.0294806	0.0284141
0.00435877	0.00465529	-0.00435447
0.00516489	-0.00698571	-0.00526654
0.0258618	0.00823589	-0.0244711
-0.00801652	0.00923673	0.00807761
-0.00345592	0.0712213	-0.0711902
0.00241663	0.00326093	-0.00301827
0.0101045	-0.0137509	0.0144538
0.00312036	0.000377987	0.000402741
-0.00505249	0.00535626	0.00683431
0.00350405	0.00599947	-0.00544342
-0.000993828	-0.00111198	0.000990859
-6.50498e-05	-0.0373373	0.0404159
0.00846839	0.00830397	-0.0084774
-0.0104874	0.0120635	0.0102997
0.00761189	-0.0111373	0.0113294
-0.00410091	0.00569472	0.00700935
0.00440748	-0.0116387	0.0115696
0.00308205	0.040312	-0.0402363
-0.0114696	0.0106757	0.0111791
0.00101174	0.0129085	-0.013654
-0.0130473	0.00658189	0.0131008
0.0436639	-0.0435516	0.0235961
-0.00164767	0.00618399	0.00190956
-0.000518416	0.000873541	0.000505192
-0.000521459	0.0172294	-0.0119642
-0.000212686	-0.000463541	0.000476509
-0.00161906	0.0542711	-0.0536944
0.00777235	-0.025512	0.0234779
0.0195215	-0.0199502	-0.0195637
0.0114388	0.0104693	-0.0141435
-0.054099	0.00916406	0.0541974
0.00130378	-0.0307481	0.0309136
0.00134177	0.00235127	-0.00137931
-0.00922762	0.00940046	-0.00984685
0.00728906	0.00593058	-0.00772365
-0.00123994	0.00419326	0.00232851
0.00145059	-0.0387199	0.0383845
-0.00806772	-0.00233141	0.00257498
0.00205784	-0.047216	0.0471342
-0.00546341	-0.207312	0.207456
-0.0110661	0.00417396	0.00959595
0.00137613	-0.0175915	0.017786
-0.0100695	0.00819275	0.0101456
0.012743	-0.0124959	0.0113889
0.00480586	-0.125297	0.123239
0.0115211	-0.0119486	-0.0115206
-0.00305003	-0.0050643	0.00885578
-0.0177962	0.0104034	0.0176308
-0.0084321	-0.0208212	0.0199086
0.00433119	0.00843698	-0.00788175
0.0163761	-0.018495	-0.016372
-0.00844023	0.00821685	0.00656949
-0.0042938	0.00859355	0.00295284
0.00124826	0.0225999	-0.0226689
0.000336142	0.00229309	-0.000513103
-0.0249049	0.0232956	-0.00443096
0.00638047	0.00841297	-0.00793468
-0.0121718	0.00804602	0.0123246
-0.01557	-0.00289869	0.00239432
0.00348693	0.00395795	-0.00447755
0.0080066	-0.0126512	0.0085914
0.000397169	0.00036794	-0.000383493
0.00364107	-0.00483096	-0.00160925
0.003827	-0.0449012	0.044858
-0.00956287	0.00878668	0.0100356
0.00473633	-0.00659508	0.00640329
0.00148913	0.000283361	0.00166995
-0.00129207	0.0011062	0.00153028
-0.0115644	0.0278733	-0.0262293
0.0102967	-0.00107775	-0.0146239
0.00842318	0.0021224	-0.0033805
-0.00416357	0.00916026	0.00430255
0.0168396	-0.0172356	-0.0169014
0.0262095	0.0413651	-0.0629381
-0.00834506	0.00758394	0.0089974
0.000125435	-0.00719201	0.00725781
0.00509016	0.00516569	-0.00510829
0.0716147	-0.0715147	-0.071618
-0.0478394	-0.0742126	0.094973
-0.00571897	0.00302968	0.00614286
-0.0314651	0.036161	-0.0371354
0.00440519	0.00236528	-0.00447047
0.00991724	-0.0222164	0.01875
-0.00296085	0.004888	-0.00246584
-0.00681022	0.00744863	0.00675584
0.0012245	-0.0400809	0.0400716
0.00555401	-0.0124172	-0.00140664
0.000631749	-0.012628	0.0127972
0.0160852	0.010054	-0.0131577
0.0110382	-0.0113089	-0.0104125
0.00239567	-0.011685	0.0129347
-0.00959342	0.00898023	0.0097272
0.00338085	-0.0205198	0.0207173
-0.00277805	-0.29744	0.309446
-0.00868485	0.0107723	0.00809391
-0.00222586	-0.000846408	0.00296202
0.0146339	-0.00371359	-0.0154831
-0.00103445	0.405633	-0.406806
0.00736375	0.00741534	-0.00735829
-0.00333967	0.0026303	0.00203277
-0.00863437	-0.0139558	0.0148696
0.109553	-0.0579738	-0.101324
-0.0632262	0.14138	-0.143172
-0.00428026	-0.00436457	0.00425358
0.00159724	0.000463794	-0.0043566
0.00605448	0.00652304	-0.00603482
-0.0109212	0.00237406	0.0124089
-0.00110422	-0.00399457	0.00230158
-0.0306597	-0.0479063	0.0563084
-0.00177681	-0.0243394	0.0282168
-0.000612997	0.0209077	-0.0128406
0.0028994	0.00025504	-0.0029681
-0.00611712	0.0109204	-0.0113866
-0.0181674	0.0110942	0.0189368
0.000631749	-0.012628	0.0127972
0.000452119	-0.21182	0.209918
0.0173064	-0.0172472	-0.0169443
0.00152615	-0.00960393	0.0129747
-0.017384	0.00363661	0.0167355
-0.00285126	0.00451091	-0.00384163
-0.000993828	-0.00111198	0.000990859
-0.00123243	0.00498629	0.00178723
0.00488919	0.0523329	-0.0476467
0.0639673	-0.0648506	-0.0639669
-0.00469752	0.02945	-0.0294068
-0.00222586	-0.000846408	0.00296202
0.00294351	-0.00677752	-0.00360923
-0.000562367	-0.689593	0.700923
-0.0034011	0.00272139	0.00349645
-0.00724272	0.0320924	-0.0320317
0.00603323	0.00741529	-0.00736828
0.00317701	-0.0262343	0.0265328
0.000336142	0.00229309	-0.000513103
0.00650226	-0.0073596	-0.00650649
0.00678984	0.00997782	-0.01303
0.000568152	-0.00169261	-0.000858347
0.00678984	0.00997782	-0.01303
-0.0026742	0.00272734	0.00305391
0.0172077	-0.0162511	-0.0173032
0.00625784	-0.042155	0.0416184
0.0163902	-0.0169625	-0.0163465
4.76469e-05	-0.0110183	0.0111078
0.005781	0.0152762	-0.0188541
0.0782508	-0.0796108	-0.0768058
0.00124618	0.0284459	-0.0231213
-0.00234302	0.00615325	0.0010382
-0.000841096	0.00913165	-0.00954458
0.00562374	0.00183335	-0.00568236
0.173645	-0.172564	-0.173572
-0.0221225	-0.0532755	0.0545448
0.0786757	-0.00579157	-0.0786213
0.00713819	-0.0173207	0.0172479
-0.000264771	0.0003309	0.00026563
-0.00794636	-0.00987417	0.0130176
-0.0054978	-0.00477698	0.0055139
0.0359819	-0.0319077	-0.0359446
-0.000637913	-0.00847607	0.010402
-0.0441604	0.0195478	0.0159443
0.00171325	0.109999	-0.10864
-0.00128861	-0.21884	0.216162
0.0161176	-0.0189383	-0.0199786
0.002472	-0.0255208	0.0256415
-0.000161529	0.00209162	-0.00526537
0.00195568	0.367123	-0.367465
0.00573271	0.00479499	-0.00568099
-0.00836655	0.00664271	0.00820243
-0.000572183	-0.0208873	0.0226157
0.154628	-0.0370267	-0.156629
-0.00191529	0.00757376	-0.00845571
0.00466668	0.0721717	-0.0719309
0.00414008	0.00888655	-0.000512354
0.00377869	0.00985793	-0.00816654
0.105473	-0.110435	-0.0392643
-0.00216661	0.00114943	-0.000803283
-0.00346448	-0.00293228	0.00346453
-0.00169461	0.0127596	-0.00937236
-0.0711321	-0.0766174	0.0711324
0.0133907	-0.00939144	-0.0137108
-0.0346744	0.107683	-0.108339
0.0154435	0.00583756	-0.0084783
-0.00260928	-0.0316249	0.0355614
-0.0267221	-0.028092	0.0266946
-0.00775132	0.00750618	0.00796572
0.00464721	-0.0434492	0.0435531
-0.00131867	0.00165899	0.00128363
0.003827	-0.0449012	0.044858
0.0084605	0.0364596	-0.0380801
-0.00709364	0.0120402	0.000456551
-0.0028151	0.0414907	-0.0406121
0.0514743	-0.0506011	-0.0493526
0.00238536	-0.039292	0.0393437
0.00431813	0.00941334	-0.00814901
-0.00780631	0.00804677	0.00856606
0.0160648	-0.0267131	0.0087881
0.0321699	-0.0318767	-0.0321719
-0.00161906	0.0542711	-0.0536944
0.000899351	0.00068912	-0.000909602
0.00221363	-0.00239794	-0.00176708
-0.0210238	0.0228696	-0.0411245
-0.00119945	-0.00212123	0.000962236
-0.0175563	0.280576	-0.279585
0.00201116	0.0190087	-0.0132805
0.00691165	-0.0133924	0.0104425
0.000686131	0.000355162	-0.000690173
0.111004	-0.110628	-0.11162
0.00133106	-0.00739153	0.00696059
-0.109401	-0.121093	0.12643
0.0069095	-0.0125621	0.0125706
0.00555615	-0.133313	0.131745
-0.00733158	0.0144855	0.00756651
-0.00187062	0.00285817	-0.00291088
-0.00709481	0.00698758	0.00671454
-0.0181023	0.0654919	-0.0663531
-0.00630058	-0.00659417	0.00630672
-0.0109471	0.0117371	0.00713458
0.0155217	0.0202793	-0.0334476
-0.000682372	0.00193339	0.00013858
-0.000874094	0.062721	-0.0624749
-0.00239558	0.0425059	-0.0370938
0.037032	-0.0381975	-0.0370339
-0.00150786	0.0137711	-0.0072131
-0.00342291	-0.0011567	0.00342271
4.76469e-05	-0.0110183	0.0111078
-0.00310684	-0.006017	0.00700644
-0.00883869	0.0257261	-0.0225698
0.00641883	-0.138577	0.138401
0.00115787	-0.00398271	-0.000820836
0.00697366	0.00484235	-0.00479508
0.00134177	0.00235127	-0.00137931
-0.0158901	0.0907799	-0.0763492
0.00911752	0.00905674	-0.00913116
-0.00934396	0.00857978	0.00941547
0.0174957	-0.033048	0.0333293
0.000454679	-0.000806876	0.00062465
0.00255107	-0.0130513	0.0133137
-0.00305003	-0.0050643	0.00885578
0.0751107	-0.043168	-0.0780882
-0.0170242	0.0468863	-0.046148
-0.00744724	-0.00253789	0.00745394
0.00238536	-0.039292	0.0393437
-0.0133008	0.0706855	-0.0728001
0.125512	-0.125429	-0.125278
-0.00185856	-0.00183917	0.00251526
0.0652863	-0.0275164	-0.0683884
-0.0013397	0.00787957	-0.00798679
-0.0382776	-0.393826	0.386493
0.0359441	-0.0394736	-0.0354377
0.00458485	0.00317315	-0.00346143
-0.00927632	0.00857164	0.00645404
0.00259971	0.00748751	-0.00951281
0.00584778	0.0121732	-0.0107301
-0.00636081	-0.0397872	0.0436508
-0.00354781	-0.00326487	0.00351313
-0.00489274	-0.00120012	0.00489234
0.00778841	0.00404358	-0.00696668
-0.0197677	0.0194925	0.0197157
-0.0110603	0.0730075	-0.0729011
0.00177589	0.00108393	-0.00174751
0.054303	-0.0216878	-0.0484481
-0.0116263	0.0105253	-0.00983134
0.0264472	-0.00139709	-0.0264455
0.00113725	-0.0396014	0.0403402
-0.00607738	-0.0059471	0.00610466
-0.0083842	0.00638953	0.0109868
-0.00844023	0.00821685	0.00656949
0.0437571	-0.0430685	-0.0437597
0.00702553	-0.0207354	0.0202462
0.0113888	0.0537775	-0.0580099
0.00554551	-0.0107629	-0.00173717
-0.00353656	0.0967387	-0.0874212
0.0328313	-0.0233363	-0.0330446
-0.00272141	0.0151025	-0.015109
-0.000438819	4.90408e-05	0.000469706
-0.000572183	-0.0208873	0.0226157
-0.00087701	-3.01391e-05	0.000906197
0.00810078	-0.00327082	-0.00497884
0.00713911	-0.0267655	0.0265583
0.00369163	0.0170085	-0.0126522
-0.0557207	0.080396	-0.075157
-0.000888282	-0.00539832	0.0021484
0.0874019	-0.0875463	-0.0874158
-0.00128514	0.0164168	-0.0161731
0.12633	-0.12705	-0.12633
0.00378509	-0.00115757	0.00107212
-0.000388497	0.0826342	-0.075167
-0.000632348	0.00349781	-0.000637295
-0.00086813	-0.0179541	0.021307
0.0031101	0.00874772	-0.0046016
0.000811325	0.404836	-0.407516
0.00926703	0.00891667	-0.00928222
-0.0113745	0.0109608	0.0111717
0.00977358	0.0157629	-0.0269245
-0.0096159	0.00890837	0.00965603
-0.00618908	-0.024934	0.0247953
0.00428358	0.00149782	-0.00221511
0.00499731	-0.00639498	-0.0036269
-0.12041	-0.114079	0.120381
-0.00296765	-0.00293357	0.00323798
-0.00215737	0.0162989	-0.0163237
0.00846839	0.00830397	-0.0084774
-0.016315	0.166649	-0.171123
0.00777235	-0.025512	0.0234779
-0.00855362	0.00891181	0.00875512
0.0025296	0.290933	-0.292071
0.0350377	-0.0356564	-0.0351577
0.0040729	-0.048292	0.0486077
0.00427904	0.000932675	-0.00389088
-0.00932289	-0.00114214	0.00788779
-0.0112046	0.0458317	-0.0471786
0.00703381	-0.0349804	-0.00707344
0.0114611	-0.0123113	0.0123475
-0.0054978	-0.00477698	0.0055139
-0.00335524	0.00461726	0.00381728
0.00431813	0.00941334	-0.00814901
0.065269	-0.0565784	-0.0652689
0.000312802	-0.036845	0.0381562
-0.00239225	-0.00124351	0.00322894
0.498469	-0.498469	-0.498469
-0.189089	-0.492321	0.583073
0.00538703	-0.0210869	-0.00615524
0.00439086	0.00096729	-0.000954793
-0.0225596	0.0147449	-0.00160489
0.00958205	-0.029139	0.0254072
-0.00502308	0.0219461	-0.00980133
0.00405552	-0.00521806	-0.00415341
0.00100382	0.0412455	-0.0414319
-0.0347101	0.00957981	0.022532
0.00051963	-0.0210864	0.0233286
0.00537092	0.0839568	-0.0837649
0.0238126	-0.0194979	-0.0251885
0.002292	0.0321104	-0.0315976
0.00149758	-0.000764519	0.00105598
0.00312922	-0.022415	0.0209239
0.00967257	0.00991799	-0.00967979
-0.00238225	0.00824444	0.00158471
-0.00967914	0.0100393	-0.0102508
-0.0196707	0.0046669	0.0188102
0.00133106	-0.00739153	0.00696059
-0.0448704	-0.0536601	0.0524553
-0.00643446	0.0052161	0.00592875
-0.0252685	-0.0679385	0.0669824
0.0737011	-0.071483	-0.0737033
-0.00517913	0.155983	-0.156111
0.00782801	0.00192505	-0.00414303
-0.00945648	0.0370882	-0.0343938
0.0308543	0.0245809	-0.0308592
-0.00909739	-0.0030503	0.0100874
0.0010748	-0.0195268	0.0210249
-0.0474835	-0.0424888	0.0516515
0.00039823	0.0633662	-0.0639803
0.00792449	0.00821681	-0.00791094
-0.01661	0.0133487	0.0129253
-0.0121331	-0.0395096	0.0397409
-0.00273785	0.00203375	0.00286082
-0.00808284	0.0828915	-0.0822506
0.00491588	0.0279485	-0.0256431
-0.0230254	0.0224982	0.0229959
-0.00181127	0.00911605	-0.0092065
0.0397083	-0.0519666	-0.0396997
0.00410183	0.0035469	-0.00339263
0.00228744	0.00289965	-0.00272973
-0.0106629	0.0118474	0.0106026
-0.0243478	0.0101427	0.00979374
-0.0269024	0.0257438	0.0267692
0.00571374	-0.0160711	0.0156103
-0.000993828	-0.00111198	0.000990859
0.00875774	-0.0115581	-0.00802167
0.0351799	0.0323186	-0.0605968
-0.0145587	0.0128685	0.0145617
0.00687992	-0.0120271	0.0117742
0.00562374	0.00183335	-0.00568236
0.00906241	-0.018878	0.0167164
0.00573271	0.00479499	-0.00568099
-0.0034011	0.00272139	0.00349645
0.00224181	-0.00961671	0.00798526
0.018303	0.0210304	-0.0334468
0.0012352	0.0213562	-0.0214609
-0.0135327	-0.00976494	0.00823915
0.00597151	-0.00978478	-0.00703804
0.00414028	-1.59242e-05	0.0009104
0.000462002	0.000191492	0.0010204
-0.0252442	0.0294417	-0.0208539
-0.0116876	0.0121719	-0.0148962
0.00403072	-0.00314891	-0.000924895
0.00483485	0.000392946	-0.00268755
-0.00812457	0.00710947	0.00807621
0.00486047	-0.0659726	0.0646423
0.000752325	0.0034655	-0.000837539
-0.0130024	0.00965234	0.0137274
0.00684133	-0.0124441	0.0114387
-0.0133708	0.0130654	0.0109178
0.00713819	-0.0173207	0.0172479
0.00155414	0.00114027	-0.00159527
0.00957167	-0.0100379	0.00601495
0.00911752	0.00905674	-0.00913116
-0.0133708	0.0130654	0.0109178
0.0028355	0.262258	-0.264202
0.00345528	-0.00744847	0.00349949
-0.0319432	0.0417682	-0.0502643
-0.0103131	-0.0120359	0.0104939
0.00510849	-0.000624209	-0.00493582
0.00606209	-0.0480769	0.0478008
-0.011849	0.011094	0.0126945
0.00538918	-0.0421209	0.0419317
0.00508289	0.00586156	-0.00506174
0.00279937	-0.00155665	-0.00564382
0.00680809	-0.021516	0.0205005
-0.00523243	0.00292014	0.00605269
-0.0320294	0.19399	-0.195601
-0.00367916	-0.00368596	0.00364659
-0.00402903	0.00627948	0.00360735
-0.0146282	0.0159147	-0.003286
0.00462535	-0.00230289	-0.00444634
0.0048087	-0.00746011	0.00735726
0.000686131	0.000355162	-0.000690173
0.0118621	0.00973297	-0.0118956
-0.000521459	0.0172294	-0.0119642
-0.0223823	0.0147706	0.0229725
0.000908391	-0.0257511	0.0271686
0.00736375	0.00741534	-0.00735829
-0.00414494	-0.0063317	0.00855585
-0.0150086	-0.0108039	0.0146366
0.0501715	-0.0489791	-0.0500727
0.00275291	-0.00753949	0.00696444
0.0129382	0.00820757	-0.0165934
0.00222731	0.0389714	-0.0386815
0.0028113	0.00549281	-0.00484032
0.00531601	0.00776574	-0.00614519
0.00460827	-0.0030909	0.00288007
0.00232365	-0.00228071	-0.00233524
0.00395145	-0.00911092	0.011754
0.00243395	0.00444829	-0.00240383
-0.00801652	0.00923673	0.00807761
0.00306061	-0.0107211	0.0104817
-0.0141955	0.0154134	0.0141967
-0.00432773	0.463674	-0.458553
0.00479473	0.00551182	-0.00478836
-0.011351	0.00964577	0.0115146
0.0263885	0.0571742	-0.0741862
-0.0291772	0.00154218	0.0333535
0.00320655	-0.0252289	0.0263507
0.00846839	0.00830397	-0.0084774
-0.00756858	0.0158431	-0.0196046
-0.00544662	-0.514345	0.512915
0.00313554	0.00112576	-0.00424801
0.0010748	-0.0195268	0.0210249
-0.0140914	0.14859	-0.143922
0.0143187	0.0294591	-0.0393239
-0.00652207	-0.0065047	0.00650019
-0.0109642	0.0119773	0.0103832
-0.00523451	-0.0584392	0.0583169
-0.00536768	0.00485965	0.0055382
-0.00399349	-0.0235029	0.024703
0.000660887	-0.611201	0.612994
-0.0109642	0.0119773	0.0103832
0.0117677	0.0160171	-0.024029
0.0274875	-0.0282371	-0.0255346
0.00282198	-0.0518231	0.0513537
-0.000978261	-0.00158298	0.00287135
-0.0167975	0.0161316	0.0126039
-0.00597281	0.0921486	-0.0852443
-0.0216526	-0.00572086	0.0247879
0.00186276	0.0176889	-0.0180972
-0.00236927	0.00376443	0.00239424
0.00770426	-3.15164e-05	-0.0078151
-0.0341122	-0.0330986	0.0341668
0.00020564	0.000680568	-0.000836199
-0.00477011	0.0402009	-0.0428192
-0.00531409	-0.00490333	0.00531506
-6.50498e-05	-0.0373373	0.0404159
0.00162502	0.00437423	-0.00164854
0.0142217	-0.0145587	-0.0143077
0.00387757	-0.0243931	0.0241767
-0.0148052	0.0130822	0.015069
-0.0172646	0.00639121	-0.00615756
-0.00235859	-1.93115	1.93311
-0.0119308	0.0116218	0.0100434
-0.0028151	0.0414907	-0.0406121
0.0513859	-0.0511165	-0.0514305
0.00232892	0.0104634	-0.00973611
0.00401806	0.00222629	-0.00408468
0.0163761	-0.018495	-0.016372
0.00155915	0.0201384	-0.0142084
-0.0244367	0.00105104	0.0239718
0.000255034	0.251103	-0.249783
-0.00478907	-0.00605067	0.00477135
-0.00195716	-0.00105657	0.00169838
-0.00312456	0.0186341	-0.00740411
-0.0232716	0.00970711	0.0244897
-0.00580585	0.103984	-0.103494
0.00132618	0.00141045	-0.00133559
-0.0459641	0.0452445	-0.027031
0.00736375	0.00741534	-0.00735829
0.00339772	-0.00675301	-0.00361201
0.00133106	-0.00739153	0.00696059
-0.00588169	-0.025747	0.0286116
-0.000882045	-0.0198742	0.0209046
-0.00500035	-0.00822899	0.00519875
-0.0149197	0.0137585	0.00724586
-0.0172646	0.00639121	-0.00615756
-0.0155453	0.0136586	0.0155392
0.000702458	0.388455	-0.391392
0.00306669	0.00520958	-0.00302157
-0.00705998	0.00669814	0.00437442
0.00111579	-0.0156758	0.0157921
0.00463832	-0.00485392	-0.00461936
0.00224181	-0.00961671	0.00798526
0.00421665	0.00498742	-0.00501523
-0.00117273	0.000993629	0.000476906
0.00173248	-0.0140489	0.0139528
-0.0276383	0.00827667	0.0287962
-0.00140925	-0.00919948	0.00933658
-0.000780643	0.00378052	0.000886147
0.00124955	-0.0290951	0.0310412
0.00562374	0.00183335	-0.00568236
-0.0011619	0.00206718	-0.00220309
0.000908391	-0.0257511	0.0271686
0.00162502	0.00437423	-0.00164854
-0.00710082	0.0602598	-0.0626187
0.00228744	0.00289965	-0.00272973
-0.00387681	0.00437801	0.003932
-0.000913192	-0.0609329	0.060823
0.0170338	-0.0166832	-0.0170295
0.00640425	-0.0486543	0.0485753
-0.0502289	-0.101085	0.112784
-0.00200829	0.00030529	0.00376344
-0.00253815	0.0117357	-0.0120554
0.00784786	-0.00932159	-0.00727776
0.00397261	0.00267542	-0.00339116
0.00605448	0.00652304	-0.00603482
0.00781181	-0.00497696	-0.00915973
0.00228744	0.00289965	-0.00272973
0.0795988	-0.0779595	-0.0795991
0.00606209	-0.0480769	0.0478008
-0.00469946	0.0128882	-0.0104213
0.0983724	-0.0980692	-0.0987617
0.0111416	0.0636979	-0.0662294
-0.0123361	0.00968888	0.00581949
-0.00140925	-0.00919948	0.00933658
0.00911752	0.00905674	-0.00913116
0.00910805	-0.0270937	0.0239222
-0.00296085	0.004888	-0.00246584
-0.00419129	0.0054391	0.00430888
-0.0024847	0.0689357	-0.0686868
-0.015825	-0.0315605	0.0291334
-0.00176713	0.117394	-0.116488
0.00228744	0.00289965	-0.00272973
0.0052502	-0.00236776	-0.00577909
0.00473633	-0.00659508	0.00640329
0.00227006	-0.00166496	0.000315102
-0.00308658	0.0572146	-0.0572415
0.0037832	0.0041202	-0.00375616
-0.0187325	0.0183337	0.0187741
-0.00519789	0.00634904	0.00557312
-0.00291623	0.00740711	0.00163467
-0.0255699	0.0949278	-0.0865411
0.00503938	0.0533033	-0.0532074
-0.0108277	0.00855299	0.0110007
-0.00647828	0.00409297	0.00863376
0.0284854	-0.00335749	-0.0288886
-0.0150149	0.0166113	-0.0179164
-0.00274515	0.0138228	-0.0130442
-0.00139079	-0.0190482	0.0228198
-0.0047523	-0.0300133	0.0188903
-0.0243628	0.00779617	0.0283661
-0.000519769	0.00464304	-0.00476641
0.00455961	0.00899478	-0.0079753
0.00855909	0.00506867	-0.0101314
-0.0206369	-0.0144049	0.02065
-0.00797814	0.00796887	0.0105771
-0.068089	-0.0561151	0.0560152
0.0134921	-0.0152654	-0.0134664
-0.00161906	0.0542711	-0.0536944
-0.000815007	-1.25241	1.25186
-0.00276901	0.00705946	0.00145682
0.0061396	-0.0429555	0.0418561
0.0511174	-0.0503846	-0.0521983
0.0339538	-0.034234	0.0284051
-0.0465436	0.0439743	-0.0376107
0.00741655	-0.00703931	-0.00932025
0.0244102	0.0233194	-0.0418295
-0.0157647	0.0158259	0.0157594
0.000819805	-0.0418823	0.0417022
0.00316853	0.00045137	-0.00283152
0.0338468	-0.0345558	-0.0357289
0.00427904	0.000932675	-0.00389088
-0.0187405	-0.0180061	0.0158504
0.00120728	-0.0322673	0.0333207
0.00401806	0.00222629	-0.00408468
-0.0154312	0.0786088	-0.0755346
0.00458485	0.00317315	-0.00346143
-0.00246586	0.000752042	0.00451917
0.00303625	0.240889	-0.243405
-0.000333604	-0.00206048	0.00379002
0.00479301	-0.0108995	0.0102961
0.00367198	-0.0417027	0.0458785
-0.0098025	0.00965219	0.00633172
-0.00161906	0.0542711	-0.0536944
0.0323019	-0.0070488	-0.0323137
-0.0227585	0.137074	-0.135588
0.00526128	-0.128881	0.128644
-0.00242805	0.0077212	0.00141273
0.0211846	0.0489133	-0.0641068
0.0820274	-0.0818323	-0.0819915
0.00309283	0.245658	-0.248202
-0.00912451	-0.245338	0.249124
-0.00902949	0.00772402	0.00992326
-0.00184564	0.00206198	0.0026978
-0.0157595	0.00592398	0.015837
0.00746367	-0.0110988	0.00983123
-0.0277024	0.0363032	-0.0406827
0.00714368	-0.0110021	0.00849031
-0.00277359	-0.197805	0.203898
-0.00520401	0.00505243	0.00526503
-0.000362268	0.097691	-0.0986966
-0.285811	-1.01494	1.0127
-0.00867864	0.0278992	-0.026016
0.00348693	0.00395795	-0.00447755
0.0232321	-0.0200929	-0.0230534
-0.0112658	0.0550079	-0.053011
-0.023702	0.0243954	0.0238874
0.00330888	-0.0446383	0.0445491
-0.0165441	-0.0166165	0.0165552
0.052814	-0.0514142	-0.0528287
0.00358881	0.00325853	-0.00176607
-0.00865657	0.00811321	0.00850939
0.00254411	-0.0492205	0.0493496
0.00428358	0.00149782	-0.00221511
-0.00442903	0.0025097	0.00580633
-0.00184564	0.00206198	0.0026978
0.0352076	-0.0147153	-0.0422986
0.00561552	-0.0260869	0.0257756
0.00290214	-0.000178136	-0.00300295
-0.0100695	0.00819275	0.0101456
0.00605448	0.00652304	-0.00603482
0.140683	-0.0149381	-0.136145
0.00955706	-0.0108432	0.00984078
0.00498681	0.0124211	-0.0115059
0.0042144	-0.00439976	0.00230287
0.00155414	0.00114027	-0.00159527
0.0092029	0.00524742	-0.00926806
0.0024676	0.244195	-0.245876
-0.00595653	0.00982509	0.00541481
0.00571374	-0.0160711	0.0156103
0.000336142	0.00229309	-0.000513103
-0.00674929	0.00558172	0.00523575
0.00164713	-0.0200026	0.0214355
-0.0065575	0.00583972	0.00425406
-0.0028151	0.0414907	-0.0406121
0.00401806	0.00222629	-0.00408468
-3.13198e-05	0.00013884	0.000270084
-0.0471148	-0.170848	0.216591
0.0233573	-0.0220098	-0.0233573
-0.0255699	0.0949278	-0.0865411
-0.04332	-0.0451755	0.0432934
0.0165271	-0.0128675	-0.0167317
0.00440519	0.00236528	-0.00447047
-0.0155908	0.00475863	0.0184037
0.00137613	-0.0175915	0.017786
0.000397169	0.00036794	-0.000383493
-0.0244969	0.069228	-0.0883855
0.00911752	0.00905674	-0.00913116
-0.00204286	0.00716651	0.00269171
-0.00357884	0.0536504	-0.053323
0.0149846	0.0156631	-0.0253801
-0.00139079	-0.0190482	0.0228198
0.00059867	0.0269143	-0.0237668
0.00461298	0.00861345	-0.00538077
-0.0168607	0.0646949	-0.0625644
-0.0108809	0.0102935	0.0110079
-0.0105234	-0.0247129	0.0264523
-0.00416357	0.00916026	0.00430255
-0.001795	0.000864838	0.00180754
0.0038657	-0.0259691	0.0270289
-0.000847261	0.00576343	-0.00161982
0.00264694	0.000593223	-0.00158321
-0.00631254	-0.0708175	0.0712366
0.0118247	-0.0117507	-0.0175709
0.005781	0.0152762	-0.0188541
0.0226217	-0.0184965	-0.022484
-0.00200154	0.00286481	-0.00278842
0.00607222	0.00334141	-0.00612219
-0.00232788	-0.00532714	0.00630904
0.00255981	0.128378	-0.133656
0.222027	-0.150519	-0.212733
-0.00718296	0.0606115	-0.0602458
-0.00396211	0.00166755	-0.00135411
-6.50498e-05	-0.0373373	0.0404159
0.00774496	0.0141986	-0.012502
-0.0131916	0.0124547	0.0132765
-0.00236365	0.0455522	-0.0455281
0.0151738	-0.0116219	-0.0151657
0.00420746	-0.0128607	0.0125852
0.000336142	0.00229309	-0.000513103
0.102299	-0.102217	-0.102188
0.00558554	-0.0313036	0.031446
-0.00394091	0.0020146	0.00408149
0.0339538	-0.034234	0.0284051
-0.0265851	-0.00761812	0.0267856
0.0114894	-0.0209145	-0.00739562
0.0084605	0.0364596	-0.0380801
0.00692142	-0.00747438	-0.00679506
-0.00169443	-0.0335954	0.0338306
0.00431813	0.00941334	-0.00814901
0.00846712	-0.00994826	-0.00726534
0.00282318	0.00637193	-0.00541734
0.0366938	-0.0645847	-0.0323834
-0.0119997	0.437608	-0.435761
0.00967257	0.00991799	-0.00967979
0.00608879	0.0740682	-0.0754544
-0.00440229	0.0339653	-0.0303202
-0.0165974	0.0152209	0.0166873
-0.0125326	-0.0068911	0.00831423
-0.0316162	-0.068885	0.0801286
-0.0584241	0.0691616	-0.0682345
0.00433119	0.00843698	-0.00788175
0.00791583	-0.0128657	-0.00706436
0.00330888	-0.0446383	0.0445491
-0.000858798	0.0009933	0.0021691
0.0028943	-0.00361331	0.00203884
-0.0296825	-0.00685234	0.029747
0.0212068	-0.0225729	-0.0210424
0.00680809	-0.021516	0.0205005
0.019465	-0.0194714	-0.0194644
0.000834079	-0.00746327	0.00706103
0.00341789	0.0595259	-0.0603945
-0.0016286	0.000576835	0.00325876
-0.0174982	0.0105711	0.00512438
-0.00518803	0.00497423	0.00335758
-0.0130346	0.0238322	-0.0239611
-0.0114249	-0.00657318	0.0114596
-0.00883869	0.0257261	-0.0225698
0.00607222	0.00334141	-0.00612219
-0.0110661	0.00417396	0.00959595
0.000819805	-0.0418823	0.0417022
-0.00298217	0.000547836	0.00301432
0.00667406	-0.0299628	0.027919
0.0035622	0.00135135	-0.00316765
-0.00740608	0.0133665	0.00642116
0.00177604	-0.00445476	0.0045117
0.033193	-0.0337308	-0.033163
0.00137613	-0.0175915	0.017786
0.00228744	0.00289965	-0.00272973
0.00255265	0.00917685	-0.00275198
0.00585871	-0.042006	0.0404996
0.00181406	-0.000449945	0.000886442
0.012743	-0.0124959	0.0113889
-0.0273053	-0.0255788	0.0273033
0.0366938	-0.0645847	-0.0323834
-0.065408	-0.684023	0.739184
0.00569541	-0.00597258	-0.00554807
0.0010247	-0.0424859	0.0422599
0.00177589	0.00108393	-0.00174751
-0.00498827	0.00371324	0.00672346
0.000569381	-0.0187641	0.0189317
0.0971248	-0.113642	-0.097585
0.00548548	-0.010219	0.00946964
-0.00855885	-0.00868808	0.00855899
-0.0367822	0.138292	-0.10514
0.000899351	0.00068912	-0.000909602
0.00814563	-0.00589897	-0.00806473
0.00546281	-0.0134817	0.0130732
-0.00367225	-0.00664946	0.0123704
-0.00312522	0.0103945	-0.0095723
0.00455961	0.00899478	-0.0079753
-0.000634653	0.00490621	-0.00264877
0.00479961	-0.0183525	0.0181366
0.0190883	0.00175617	-0.0190606
-0.00823681	0.00667104	-0.00574207
0.00607222	0.00334141	-0.00612219
-0.00327294	0.00209376	0.00536898
-0.00274515	0.0138228	-0.0130442
-0.00730041	0.00773393	0.00582076
-0.00494098	-0.0216581	0.021689
0.00488922	0.0859332	-0.0863888
-0.0145818	0.0118635	0.0115197
-0.019702	0.00601533	-0.0185151
0.0313671	-0.0300555	-0.0191652
-0.00272141	0.0151025	-0.015109
-0.00520883	-0.00560595	0.00521003
-0.000358943	-0.0102213	0.0133936
0.00846839	0.00830397	-0.0084774
0.00695525	-0.00718975	-0.00794567
0.00439835	-0.0485569	0.0479878
0.00348693	0.00395795	-0.00447755
0.00119762	-0.0149748	0.0156409
-0.000191392	-0.00523749	0.000199827
0.00211737	0.00269364	-0.00187901
-0.0010054	-0.000968095	0.00161692
0.0232321	-0.0200929	-0.0230534
-0.00672488	0.0503368	-0.0501923
0.00401806	0.00222629	-0.00408468
0.00401671	-0.00394736	-0.00406963
-0.00367832	-0.00231557	0.00472645
0.00750078	-0.00829779	-0.00746439
0.00133205	-0.020693	0.0207063
0.00962694	0.0442283	-0.0473368
0.00111537	0.0030187	0.000902806
0.00226944	0.00348082	-0.00308103
0.0320252	-0.0290898	-0.0325812
0.0069095	-0.0125621	0.0125706
0.00607222	0.00334141	-0.00612219
-0.00721356	0.00664687	0.00813528
-0.0026742	0.00272734	0.00305391
-0.0177457	-0.00353135	0.0203869
-0.00235859	0.0688455	-0.0668936
0.00241663	0.00326093	-0.00301827
0.00385785	-0.0285187	0.0280197
-0.00844564	-0.0148355	0.0133568
-0.00489274	-0.00120012	0.00489234
-0.0125757	-0.0121882	0.0116752
0.024699	-0.0246817	-0.0251537
-0.00208276	0.0557483	-0.0554658
0.00674364	0.00425581	-0.00674003
-0.00623497	0.0059681	-0.00071032
0.00423238	0.0161823	-0.0137877
0.116871	-0.116817	-0.116868
0.00692175	-0.0139893	0.012738
-0.00715474	-0.00752849	0.00714519
0.0185946	-0.0166161	-0.0149138
-0.108686	-0.0848429	0.121907
-0.00161922	0.00152784	0.000937855
0.00687992	-0.0120271	0.0117742
-0.0150464	-0.020594	0.0193426
0.0117893	-0.0134063	-0.0108775
-0.00597114	-0.0488722	0.0468627
0.0165398	-0.0184774	-0.0167775
0.00441068	0.00112724	-0.00122832
-0.00665103	-0.00658637	0.00666017
-0.00220175	0.00175321	0.00322585
0.001155	0.000937097	-0.00116858
-0.00544367	0.00552122	0.00558353
0.0024676	0.244195	-0.245876
-0.0376999	-0.211885	0.249533
0.016734	-0.0181659	0.0122489
-0.000310076	0.00100987	0.00234726
-0.00728761	0.00445576	0.00989578
0.00123438	-0.00320014	0.00303793
0.114414	-0.11324	-0.113788
0.00687992	-0.0120271	0.0117742
0.00674364	0.00425581	-0.00674003
-0.00652263	0.00687186	0.00720675
0.00680809	-0.021516	0.0205005
-0.0221859	0.0125703	0.0226916
0.0114611	-0.0123113	0.0123475
0.00911752	0.00905674	-0.00913116
-0.00533404	0.0088651	-0.00032639
-0.00148595	-0.000926792	0.00299379
-0.00430173	0.00190342	0.00299728
0.00439086	0.00096729	-0.000954793
-0.0103363	-0.00164801	0.0105106
0.00162492	0.0030138	-0.00544619
0.011045	0.0117779	-0.0110351
-0.0022311	0.00817639	0.000914052
0.00145059	-0.0387199	0.0383845
0.00736375	0.00741534	-0.00735829
0.00718085	-0.0211218	0.0163397
0.00421665	0.00498742	-0.00501523
-0.00916684	0.00830579	0.00902012
-0.0371063	0.130441	-0.129858
0.00473843	-0.0055546	-0.00461453
-0.0296305	0.0861585	-0.0842557
-0.0037194	0.00871102	-0.00579027
-0.0162628	0.0141508	0.0122267
0.00185118	-0.0346444	0.0339272
0.0247528	-0.0255199	-0.0234919
0.00414672	-0.0088481	0.00820888
0.00697428	-0.406933	0.404253
-0.038425	0.0195634	0.0384047
0.00148913	0.000283361	0.00166995
0.0297284	-0.0298897	-0.0297659
0.00151846	-0.0166356	0.0180506
0.00228744	0.00289965	-0.00272973
-0.000325814	0.00548137	0.00216774
0.00176271	-0.00893549	0.00926774
-0.0171461	0.0129113	0.0139118
0.00617606	-0.0259655	0.0262355
0.001155	0.000937097	-0.00116858
0.0103792	-0.0325932	0.0293883
0.00401806	0.00222629	-0.00408468
-0.0120315	0.00789762	0.0120082
0.00185118	-0.0346444	0.0339272
0.0041251	-0.0587448	0.0495327
0.00894793	-0.0137469	0.0148498
-0.00547405	-0.00464922	0.00941473
0.00763585	-0.00384529	-0.00779164
0.00392293	-0.0343985	0.0343678
-0.00102503	0.003599	0.00115524
0.0180881	-0.0178123	0.0164936
-0.00087701	-3.01391e-05	0.000906197
-0.000847835	0.00141952	0.00261671
-0.00139079	-0.0190482	0.0228198
0.122991	-0.122881	-0.122991
0.0038644	-0.0286106	0.0287124
-0.00555967	0.0110003	0.00496644
-0.00234302	0.00615325	0.0010382
-0.000359437	0.00314279	0.00455307
0.0923081	-0.0926789	-0.0440123
-0.000594969	-0.0109631	0.0110106
-0.0250739	-0.0258805	0.0248299
0.00440443	-0.0210298	0.022196
-0.00989551	0.146087	-0.15196
-0.0296653	0.00916547	0.031604
4.76469e-05	-0.0110183	0.0111078
0.00573271	0.00479499	-0.00568099
0.00317701	-0.0262343	0.0265328
-0.000612997	0.0209077	-0.0128406
-0.0123813	0.00220498	0.0124227
-0.0152705	0.147059	-0.149227
0.00894357	-0.0186995	-0.00682399
0.002472	-0.0255208	0.0256415
0.0052435	0.00416495	-0.00479531
0.0185946	-0.0166161	-0.0149138
-0.000901082	0.0104057	-0.00948615
0.0088436	-0.00978969	-0.00702876
0.00314853	-0.00346987	0.00632919
-0.0682962	-0.0183026	0.0679747
-0.00248872	-0.0228952	0.00703444
0.0220821	0.0234577	-0.0393392
-0.00571897	0.00302968	0.00614286
0.000908391	-0.0257511	0.0271686
0.00728906	0.00593058	-0.00772365
-0.00210237	0.00299563	0.00107163
0.00200226	-0.00910626	0.0107005
0.0667027	-0.0661059	-0.0612217
0.0042012	-0.00993774	0.00975422
-0.00841327	-0.00856805	0.00840112
-0.00220825	0.0598494	-0.0624984
0.0118564	0.0601933	-0.0638705
-0.00234302	0.00615325	0.0010382
0.00511735	-0.0454369	0.0438422
-0.00157537	0.0162179	-0.00947085
4.6552e-05	-0.00688222	0.0074768
0.000752325	0.0034655	-0.000837539
-0.00494943	0.00289938	0.00766634
0.00479961	-0.0183525	0.0181366
-0.0160659	0.00707423	0.0165695
0.0196104	-0.0192885	0.0177253
0.00508289	0.00586156	-0.00506174
-0.0179604	0.0142076	0.0099297
0.0130709	0.0113327	-0.0176958
0.000836109	0.00301314	0.00159254
0.00312922	-0.022415	0.0209239
0.00443087	-0.046582	0.0463674
0.0116925	-0.011544	-0.00967144
0.00173248	-0.0140489	0.0139528
0.00868322	-0.000174067	-0.00852702
-0.00173078	-0.00333924	0.00329903
0.00571701	0.00538605	-0.00571199
-0.104883	0.105077	-0.0811994
-0.00715474	-0.00752849	0.00714519
-0.0121746	0.00613305	0.0143687
0.00224181	-0.00961671	0.00798526
0.00345528	-0.00744847	0.00349949
0.00608879	0.0740682	-0.0754544
-0.00862828	-0.00574338	0.00888959
-0.0171669	0.0113591	0.0177748
-0.000896881	-0.00366409	0.00336489
-0.00374002	0.00295874	0.00216953
-0.00793869	-0.00894719	0.0092166
-0.0447256	-0.036387	0.0447699
0.0160741	0.00878323	-0.017033
0.0032654	-0.012586	0.0152921
-0.0108915	0.00957949	0.0100459
0.00189008	-0.0139488	0.0126096
-0.000389952	-0.0184798	0.0259218
0.00111537	0.0030187	0.000902806
-0.010429	-0.038734	0.0322266
-0.0136623	0.0105491	0.0125647
0.0021955	0.0169635	-0.0173971
0.00134177	0.00235127	-0.00137931
-0.0108915	0.00957949	0.0100459
0.00352961	0.00398005	-0.00352222
0.0445379	-0.045445	-0.0453712
0.00425555	-0.0486036	0.0485202
-0.0494656	-0.0198739	0.0487039
0.00667406	-0.0299628	0.027919
0.00114981	-0.0317343	0.0384062
-0.0112429	0.0126022	0.0116177
-0.0105234	-0.0247129	0.0264523
-0.00614607	0.00495204	0.0040761
0.00640425	-0.0486543	0.0485753
-0.00762208	-0.00904246	0.0101185
-0.0038773	0.00616965	0.00228664
4.6552e-05	-0.00688222	0.0074768
-0.00488163	0.00529992	0.00725974
-0.00484916	-0.00847796	0.00768141
-0.0014017	-0.00133344	0.0013938
-0.0115752	0.00837465	0.0101806
0.0019211	-0.0167459	0.0168884
-0.0416401	0.0346828	0.0416401
0.00389068	-0.0336258	0.032715
-0.0375175	-0.0188491	0.0374389
-0.00860213	0.0101598	0.00897679
-0.0314357	0.0229495	-0.00454099
0.006309	-0.00789263	-0.00706215
0.00460827	-0.0030909	0.00288007
0.0109757	0.0115011	-0.010972
-0.00254363	-0.0191158	0.019212
0.00846839	0.00830397	-0.0084774
-0.00757895	0.0073804	0.0078239
0.00248118	-0.00339615	0.00170511
-0.00219199	-0.076949	0.0654194
-0.00086813	-0.0179541	0.021307
0.00243658	0.00489786	-0.00201079
0.622321	0.0862119	-0.737987
0.00228093	0.0461248	-0.0468164
0.0379203	-0.0339565	-0.0380441
0.00227386	0.00287909	0.000119936
-0.000264771	0.0003309	0.00026563
0.00218195	0.00209489	-0.000336869
-0.0128206	0.00577737	-0.00370146
-0.0119111	0.0122657	0.011736
0.00592298	-0.0146503	0.0169022
0.00282318	0.00637193	-0.00541734
-0.0131038	0.0091012	0.0140356
0.00104222	0.00357466	-0.00323349
-0.016572	0.0165218	0.016556
-0.00173078	-0.00333924	0.00329903
0.0028113	0.00549281	-0.00484032
0.00344508	-0.0057309	-0.00494322
0.00550745	0.00256052	-0.00550466
-0.00533404	0.0088651	-0.00032639
-0.00189283	0.0543122	-0.0537036
-0.0479758	-0.0480941	0.0479786
-0.00086813	-0.0179541	0.021307
0.00453056	0.0772698	-0.0800293
0.063039	-0.0650824	-0.0631681
0.00264694	0.000593223	-0.00158321
-0.0169278	0.0173091	0.0168632
0.00254328	0.0147841	-0.0147611
-0.000780643	0.00378052	0.000886147
0.302901	-0.154158	-0.194263
-0.00260928	-0.0316249	0.0355614
0.00181406	-0.000449945	0.000886442
0.00334239	-0.030597	0.030955
0.00455138	0.0046545	-0.00454841
0.0163282	-0.016788	-0.0151074
0.0108128	0.0503797	-0.0523875
-0.00647216	0.00281476	0.00938194
0.00232269	-0.0294806	0.0284141
0.0110413	0.0131902	-0.0118498
0.00906877	-0.00877891	-0.00924116
-0.0242953	-0.391996	0.396143
-0.0294325	-0.00214614	0.0289417
-0.00128314	0.0476036	-0.04743
-0.00715474	-0.00752849	0.00714519
0.0116597	-0.0276629	0.0231636
0.00340554	0.0033818	-0.00341206
0.0228253	-0.021461	-0.0216736
-0.00454868	0.644573	-0.646255
0.00728906	0.00593058	-0.00772365
-0.0512173	0.0820921	-0.0809487
0.00389963	0.0014345	-0.00385886
-0.0276383	0.00827667	0.0287962
-0.00161906	0.0542711	-0.0536944
-0.000627864	0.000692745	0.00112226
0.0161663	-0.0154207	0.0171982
-0.0449285	-0.034878	0.0451522
-0.00769543	0.00377961	0.00791209
0.0128038	-0.0251456	0.0203184
0.0263124	-0.0175607	-0.0262188
0.00185118	-0.0346444	0.0339272
0.00674364	0.00425581	-0.00674003
0.0383384	-0.0273198	-0.0370683
-0.00707279	0.00180084	-0.000330152
-0.0230473	0.0132252	0.0162249
-0.00738015	0.0238511	-0.0227732
0.00736375	0.00741534	-0.00735829
-0.00086813	-0.0179541	0.021307
-0.000578088	-0.0012701	0.000549036
-0.00482125	0.00650565	0.00335268
-0.000274656	-0.00360814	0.00411524
-0.00694631	0.0217893	-0.00837831
0.00667406	-0.0299628	0.027919
-0.00261935	-0.273422	0.275024
-0.0151215	0.0150345	0.0151744
-0.0165099	0.0514047	-0.0509089
0.0082319	-0.0122699	-0.00878909
0.0010748	-0.0195268	0.0210249
0.00344878	0.00620005	-0.00564875
0.00434019	-0.00372275	-0.00442137
-0.00927416	0.163928	-0.153814
0.00980805	-0.0103536	-0.00968682
-0.00261852	0.0812281	-0.0814611
0.00348693	0.00395795	-0.00447755
0.0125329	-0.0105028	-0.0126037
0.00200226	-0.00910626	0.0107005
0.00313554	0.00112576	-0.00424801
-0.00742481	0.0664765	-0.0677163
-0.00247982	0.00224405	0.00374015
-0.0243194	0.0225853	0.0241824
0.0258618	0.00823589	-0.0244711
0.0389949	-0.0458141	-0.00820462
-0.0368834	0.121861	-0.121868
0.00261481	0.00327768	-0.00261069
-0.0133822	0.0418367	-0.0398551
0.00146143	0.00111628	-0.00146876
-0.00910842	0.00647136	0.00899119
0.00224181	-0.00961671	0.00798526
0.0263885	0.0571742	-0.0741862
0.00640425	-0.0486543	0.0485753
-0.00469946	0.0128882	-0.0104213
-0.00188238	-0.0101231	0.00185832
0.00420746	-0.0128607	0.0125852
-0.0188737	0.01842	0.018998
0.00621005	-0.00610449	0.00583689
-0.26356	-0.806861	0.804613
0.0398214	-0.0488036	-0.0398657
-0.00305003	-0.0050643	0.00885578
0.0354186	-0.0362698	-0.035761
0.00011908	0.370452	-0.37315
0.00470387	-0.164054	0.161695
-0.00884316	0.00539669	0.0079972
-0.000856001	-0.014142	0.0157911
-0.0115676	0.0106938	0.00540269
-0.009769	0.123028	-0.122904
-8.39808e-05	0.00208671	0.000261441
-0.00055686	-0.00841531	0.00342567
-0.0759828	-0.0749133	0.0760102
-0.00824164	-0.0332998	0.0159836
0.00282198	-0.0518231	0.0513537
-0.00690664	-0.00485033	0.00691921
0.000259259	0.00395666	-0.00448911
0.00098509	0.000681021	-0.000982433
0.0907608	-0.0901995	-0.0911774
0.00376901	-0.00121934	0.000798251
-0.00227163	0.00300096	0.00234446
-0.00780887	0.0134775	-0.0102798
-0.000614903	-0.00210795	0.000530412
-0.015528	0.0155319	0.0119754
-0.00328987	0.0029213	-0.0078237
0.023142	-0.0219871	-0.0237938
0.00294242	-0.04993	0.0503068
-0.00760916	-0.0573866	0.0533039
-0.00399985	0.00759902	0.00304177
0.0135058	0.0303991	-0.0489421
-0.0150608	0.0115969	0.00855535
-0.00321875	0.0657396	-0.0659896
-0.0385113	0.00267136	0.0383698
0.0204725	-0.0201075	-0.0206
0.00352023	0.012952	-0.00459554
0.140683	-0.0149381	-0.136145
0.00395145	-0.00911092	0.011754
0.00306669	0.00520958	-0.00302157
0.00730934	0.00199781	-0.00677815
0.00431813	0.00941334	-0.00814901
-0.00659731	0.00598993	0.00654766
0.0038644	-0.0286106	0.0287124
0.0921818	-0.0913531	-0.0920741
0.00648247	-0.0308847	0.0306202
-0.00519789	0.00634904	0.00557312
0.0248138	-0.0188721	-0.0251225
-0.00232978	-0.002574	0.00297855
-0.00643503	0.00642654	0.00447491
-0.046508	0.0606516	-0.0642284
-0.00178837	-0.260166	0.258512
-0.000726138	0.00371981	0.000482867
0.0258618	0.00823589	-0.0244711
-0.0122614	0.0144299	0.0111411
-0.00992388	0.0372608	-0.0362367
0.00573271	0.00479499	-0.00568099
0.028149	-0.0208213	-0.0277816
0.00713397	0.00480273	-0.00682863
0.0552747	-0.0076669	-0.0686676
0.00420746	-0.0128607	0.0125852
0.00508289	0.00586156	-0.00506174
0.0140894	-0.0173654	0.0129395
-0.000993828	-0.00111198	0.000990859
-0.00606097	0.00476785	0.00463643
0.00248118	-0.00339615	0.00170511
-0.0250739	-0.0258805	0.0248299
0.00958205	-0.029139	0.0254072
0.000985472	0.000680581	-0.000990824
-0.0116096	0.0116604	0.0111781
-0.00611712	0.0109204	-0.0113866
0.0283901	-0.0282296	-0.0283849
0.00486801	-0.0466533	0.0466107
0.0199874	0.0190836	-0.0199693
0.00181406	-0.000449945	0.000886442
-0.0601242	0.0579531	-0.0145913
0.0216054	-0.0212612	-0.0221891
0.00434495	-0.0287857	0.0283259
-0.00239225	-0.00124351	0.00322894
0.000295804	-0.00430285	0.000620603
0.00654742	-0.0183938	0.0137943
0.0107047	-0.00801883	-0.0107179
0.00115063	-0.0427959	0.0426902
0.000686131	0.000355162	-0.000690173
0.0105081	-0.00840776	-0.0104943
0.0184363	0.0146426	-0.0184187
-0.000818519	0.00724953	0.00133012
-0.0491507	0.0624084	-0.0617426
0.00346634	0.0036348	-0.00347771
0.0128038	-0.0251456	0.0203184
0.00771062	0.00625801	-0.005816
-0.00467966	0.00221412	0.00433509
-0.00369779	0.013423	-0.0137365
0.0175598	-0.0166067	-0.0173947
0.00281238	0.0116591	-0.0145582
-0.0075266	0.0223065	-0.00874735
-0.00647216	0.00281476	0.00938194
-0.0463431	0.12813	-0.130058
-0.000845759	0.000869744	0.00246557
0.00254411	-0.0492205	0.0493496
0.0121222	0.00664496	-0.00916794
0.0237143	-0.0252641	-0.0226067
-0.00687401	0.0392661	-0.034553
0.109248	-0.102799	-0.109149
0.00585871	-0.042006	0.0404996
0.00734119	0.00590513	-0.00733382
0.000917874	-0.00153419	-0.000631909
0.000478947	-0.00398224	0.007434
0.0100196	-0.0103548	-0.011049
0.00640425	-0.0486543	0.0485753
0.001155	0.000937097	-0.00116858
0.0148387	-0.0147708	0.00431234
0.00629197	-0.144361	0.146104
-0.00296587	0.0048618	0.00299994
0.00210599	-0.0282102	0.0272502
0.00934144	-0.00258712	-0.00132525
-0.0115644	0.0278733	-0.0262293
0.00207776	0.00168044	-0.00165869
0.0128664	-0.0158691	-0.0131874
0.00439086	0.00096729	-0.000954793
-0.00865657	0.00811321	0.00850939
0.00312621	-0.0532599	0.0525403
0.00579598	0.00430597	-0.00578402
0.00754382	-0.00726378	-0.00754896
0.00107174	-0.0494711	0.0529111
0.0335276	-0.0337246	-0.0331094
-0.0125757	-0.0121882	0.0116752
0.00694399	0.0749153	-0.0763945
-0.00988006	0.0103586	0.0101751
-0.00148595	-0.000926792	0.00299379
0.0298065	-0.0264905	-0.0297994
0.003827	-0.0449012	0.044858
0.00573271	0.00479499	-0.00568099
-0.00597967	0.00613124	-0.0058706
-0.102306	-0.107668	0.102307
-0.00485005	-0.0111791	0.00849636
-0.0108079	0.00568377	-0.00462527
-0.0804148	-0.0743197	0.0783625
0.00613183	-0.00606235	0.0035492
0.0104114	0.0268626	-0.0309012
-0.0101239	0.0102191	0.00998056
0.00376901	-0.00121934	0.000798251
-0.0121615	0.0129429	0.0122281
0.000816174	0.021983	-0.0218061
0.00363642	0.00484575	-0.00359186
-0.0117473	0.0112143	0.0117673
0.000674679	0.0306208	-0.0302298
-0.0124616	0.0120273	0.00388561
0.0010247	-0.0424859	0.0422599
-0.00989973	-0.00923627	0.00991194
0.00218195	0.00209489	-0.000336869
0.0072047	-0.0667723	0.054098
0.00558612	-0.00489721	-0.00710806
0.00327518	-0.0495054	0.0500848
0.00134177	0.00235127	-0.00137931
-0.00764147	0.00631311	0.00971006
-0.00150786	0.0137711	-0.0072131
-0.00170726	0.00264304	-0.00707629
-0.00821632	0.182387	-0.180838
0.00098509	0.000681021	-0.000982433
-0.00967914	0.0100393	-0.0102508
-0.0124762	-0.0111406	0.0124534
-0.00817019	0.00821511	0.00780309
0.000289391	0.0350623	-0.0356307
0.00459822	-0.00952192	0.00615669
0.00639357	-0.0203494	0.0202223
-0.00506173	-0.0144302	0.0161886
-0.0134585	0.00634526	0.0130026
0.00327293	-0.00997886	0.00973268
0.0531211	-0.0538066	-0.0529586
0.00621005	-0.00610449	0.00583689
-0.010952	-0.0100352	0.0109967
0.00770426	-3.15164e-05	-0.0078151
0.0302097	0.000248061	-0.02725
-0.00442903	0.0025097	0.00580633
0.0040729	-0.048292	0.0486077
0.00421665	0.00498742	-0.00501523
-0.00399985	0.00759902	0.00304177
0.00256685	-0.0139057	0.0142493
0.0309219	-0.0274375	-0.0305288
0.00067186	0.046187	-0.0472328
-0.162718	-0.161263	0.162715
0.00397615	-0.0284551	0.0248864
-0.0435539	-0.044291	0.0435433
-0.0230173	0.0106749	0.0242111
-0.0072879	0.281539	-0.281728
-0.00367916	-0.00368596	0.00364659
0.00345069	-0.0722046	0.0757694
0.00315137	0.0020507	-0.00166589
-0.023171	0.0236478	0.0231509
-0.00941394	0.0531154	-0.0532672
-0.00598925	0.00480745	0.00503606
0.00475693	-0.00489602	0.00487918
-0.00836946	-0.00209071	0.00721869
-0.0162628	0.0141508	0.0122267
-0.00327629	0.0393587	-0.0363223
-0.00257376	0.00192981	0.0025736
0.00327518	-0.0495054	0.0500848
0.00226944	0.00348082	-0.00308103
0.00608822	-0.00207028	-0.00603608
0.00488919	0.0523329	-0.0476467
-0.00191785	0.00743839	0.002972
-0.000274656	-0.00360814	0.00411524
0.00703261	0.00220644	-0.00723257
-0.0039083	-0.00457941	0.0050862
0.00603323	0.00741529	-0.00736828
-0.00801652	0.00923673	0.00807761
0.00295215	-0.00136011	0.00818217
0.00098509	0.000681021	-0.000982433
-0.00453848	0.00892796	-0.0117386
0.00509016	0.00516569	-0.00510829
0.0345124	-0.0180686	-0.0344547
-0.0148242	0.0653883	-0.0675518
0.00112368	0.022058	-0.0160349
-0.0698974	0.0662809	-0.0696964
-0.00158674	0.0267283	-0.0180517
-0.0063642	0.00668137	0.00463949
0.00287803	-0.014506	0.0146999
-0.00502774	0.00505475	0.00418897
0.00441068	0.00112724	-0.00122832
-0.0110946	-0.0642419	0.0654513
-0.01017	0.0115347	0.00987247
-0.00195563	-0.00164877	0.0098526
0.0231762	-0.0241102	-0.0188439
0.0031206	-0.0333607	0.0310714
0.00453056	0.0772698	-0.0800293
-0.0121281	0.0126336	0.0116437
-0.000446798	-0.00766606	0.00403538
-0.00707715	0.00695191	0.000255208
-0.00827227	-0.0251913	0.0250327
-0.0300097	-0.0304653	0.0300184
0.00608536	-0.00977335	0.00942675
0.00551125	0.0545841	-0.0544094
-0.000592009	0.00554902	0.000290584
0.00189008	-0.0139488	0.0126096
0.00608767	0.00746445	-0.00790313
0.0007981	-0.0310652	0.0302429
-0.0153326	-0.0148641	0.0153507
-0.0160659	0.00707423	0.0165695
0.00660737	-0.0185219	0.0182691
-0.00826114	0.00686253	0.00841938
-0.00114669	8.72975e-05	-0.00018678
0.00980132	0.0092497	-0.00981353
-0.000725455	-0.000914724	0.000940172
-0.00126823	-0.015676	0.0177667
0.0178768	-0.0205641	-0.0185048
0.00259971	0.00748751	-0.00951281
0.0062527	-0.0821697	0.0810391
0.019625	-0.0046831	-0.0187728
-0.0173875	-0.0147769	0.0135813
0.016872	-0.0102388	-0.0197812
0.000125435	-0.00719201	0.00725781
0.0103311	0.00721843	-0.0103077
-0.0192226	0.0104378	0.0190892
-0.00756406	-0.00336869	0.00499026
0.133837	-0.0188106	-0.130127
-0.00334313	0.0268824	-0.025892
0.00363642	0.00484575	-0.00359186
-0.0341957	0.0499574	-0.0483699
-0.00199018	0.00384827	0.0020169
0.00926457	-0.00933414	-0.00931661
0.00486047	-0.0659726	0.0646423
0.0430358	-0.0444828	-0.0431652
-0.0129235	0.00411648	-0.0053778
0.00422589	0.00143432	-0.00144354
-0.0011619	0.00206718	-0.00220309
0.00120728	-0.0322673	0.0333207
-0.00437273	0.00394867	0.00396178
0.00067186	0.046187	-0.0472328
-0.00234815	-0.0181306	0.0139424
-0.00242805	0.0077212	0.00141273
0.0273662	0.00657854	-0.0232281
0.0676477	-0.0693237	-0.067785
0.00257804	0.00184991	-0.00340386
-0.00136474	0.0440545	-0.0404966
-0.00980155	0.00896297	0.00970969
-0.00296085	0.004888	-0.00246584
0.137231	-0.101995	-0.131925
0.00736665	0.00889579	-0.0115733
-0.0179217	0.0136983	-0.00610864
-0.0183737	1.76962	-1.81227
0.000397169	0.00036794	-0.000383493
0.0198828	-0.0186244	-0.0198382
0.00154482	-0.0137671	0.0128812
0.00203827	0.0029746	-0.00195312
-0.00703421	0.000177558	0.00749857
0.00348693	0.00395795	-0.00447755
-0.001286	0.00226696	-0.000320262
0.0021955	0.0169635	-0.0173971
-0.00715371	0.00656648	0.00685274
0.000455236	0.0499475	-0.050548
-0.0514559	-0.0362376	0.0516233
0.0134288	-0.0124034	-0.0117729
-0.00177681	-0.0243394	0.0282168
-0.0123361	0.00968888	0.00581949
-0.00332491	0.0661878	-0.066087
-0.00960898	0.114682	-0.114527
-0.0047976	0.00434033	0.0046247
0.00148913	0.000283361	0.00166995
0.00868322	-0.000174067	-0.00852702
0.0021955	0.0169635	-0.0173971
-0.000922956	0.0271611	-0.0205796
0.0176907	-0.0171896	0.0182682
0.0184363	0.0146426	-0.0184187
0.012502	-0.0133564	-0.0125003
0.0061396	-0.0429555	0.0418561
0.00421665	0.00498742	-0.00501523
0.00256947	0.00627179	-0.0118594
-0.0258664	-0.0684437	0.0639124
-0.00333967	0.0026303	0.00203277
-0.0630809	0.119268	-0.118434
0.0506519	-0.0499929	-0.0506307
0.00547191	-0.0046378	0.00460631
0.00134177	0.00235127	-0.00137931
-0.0180387	0.0126236	0.0177317
0.00371322	-0.00472626	0.0101545
-0.0034011	0.00272139	0.00349645
-0.0319305	0.0318134	-0.0258807
0.00698869	0.0146391	-0.0181458
-0.0104874	0.0120635	0.0102997
-0.0118794	-0.0443239	0.0383988
0.00989655	-0.00210149	-0.0114197
-0.0181694	0.0896788	-0.090554
0.00652294	0.00359773	-0.00650164
0.00393389	-0.00347526	-0.00251291
0.00348693	0.00395795	-0.00447755
-0.0257274	0.024722	0.0257279
-0.00169443	-0.0335954	0.0338306
-0.000673489	-0.00250627	0.000673837
-0.000809769	-0.027576	0.0301812
0.000397169	0.00036794	-0.000383493
0.0141761	-0.0143888	-0.0142732
0.00453748	-0.0072614	0.0117298
-0.00391825	-0.0106044	0.0140253
0.00409914	-0.00509493	0.00449344
-0.0296825	-0.00685234	0.029747
0.00186692	-0.00519403	-0.00154802
0.00261238	0.0931962	-0.0924007
0.0694489	-0.0705777	-0.0693863
-0.00277945	-0.00728334	0.00698402
-0.0203737	-0.0087806	0.0199041
0.00339772	-0.00675301	-0.00361201
0.00256685	-0.0139057	0.0142493
0.0134288	-0.0124034	-0.0117729
0.00327518	-0.0495054	0.0500848
0.00605448	0.00652304	-0.00603482
0.173749	-0.0331073	-0.162962
-0.00874142	0.0150948	-0.00525668
0.00172875	0.00675908	-0.00250478
0.00330888	-0.0446383	0.0445491
-0.0789194	-0.0791959	0.0789346
-0.00177681	-0.0243394	0.0282168
-0.000264771	0.0003309	0.00026563
-0.00927105	0.00891982	0.00949798
0.00275291	-0.00753949	0.00696444
-0.0195444	-0.0193583	0.0195736
-0.00519518	-0.0125397	0.0143894
0.00344878	0.00620005	-0.00564875
-0.000137732	-4.45367e-05	-0.00113175
-0.00373375	0.0506604	-0.05069
-0.00446868	0.00458506	0.00465175
0.00561552	-0.0260869	0.0257756
-0.00495248	-0.0426841	0.0463299
0.0117795	-0.0110253	-0.0119003
0.0015904	0.0295722	-0.0286269
-0.00510153	0.00097038	0.00462146
0.00229356	-0.0442409	0.044157
-0.00989973	-0.00923627	0.00991194
-0.0265278	0.0251799	0.0265285
0.00491452	-0.0069579	0.00400891
-0.0111574	0.0140872	0.0114167
0.00137613	-0.0175915	0.017786
0.0052435	0.00416495	-0.00479531
-0.00583084	0.00204756	0.00593394
0.00458485	0.00317315	-0.00346143
0.00980805	-0.0103536	-0.00968682
-0.0494565	0.0241502	-0.0265285
-0.00157373	-0.00260953	0.00312193
0.00256947	0.00627179	-0.0118594
0.000397169	0.00036794	-0.000383493
0.0124538	-0.0109181	-0.0127948
0.00133106	-0.00739153	0.00696059
-0.0110051	-0.0661648	0.0613016
-0.000955828	0.0117202	-0.0115379
-0.00303011	-0.00824352	0.00255209
-0.0327037	0.00983329	0.0340923
0.00137613	-0.0175915	0.017786
-0.00875658	0.0084126	0.00929203
-0.00512451	0.0923002	-0.091665
-0.0101851	-0.00980659	0.0102117
-0.00604871	0.00435242	0.00615794
0.00345528	-0.00744847	0.00349949
-0.00928286	0.00903483	0.00592805
0.000179958	-0.0377432	0.0393133
-0.0028322	-0.378609	0.375091
-0.0222972	0.0226851	0.0223726
-0.00137466	0.0277635	-0.020032
0.0743688	-0.0256391	-0.0787135
-0.00127252	0.0470718	-0.0466506
-0.0101117	-0.00980847	0.0101152
-0.0112504	0.00996518	0.00066418
0.000397169	0.00036794	-0.000383493
-0.0162243	0.0152724	0.0117614
-0.00757612	0.165285	-0.157303
0.00824978	-0.0016629	0.00181254
-0.000139184	-0.0207937	0.0228512
-0.000438819	4.90408e-05	0.000469706
-0.004869	0.0097132	0.00538973
0.0138769	-0.0453225	0.0455423
-0.0145818	0.0118635	0.0115197
0.00254411	-0.0492205	0.0493496
-0.037768	-0.303597	0.309294
-0.0162243	0.0152724	0.0117614
0.00449471	0.0145316	-0.021681
-0.00176784	0.000776368	0.00193683
0.00232269	-0.0294806	0.0284141
0.00508289	0.00586156	-0.00506174
0.0125329	-0.0105028	-0.0126037
-0.0305876	-0.0330673	0.0533844
0.00445764	0.00765409	-0.00346673
0.00307906	-0.00339137	0.00430817
-0.0203737	-0.0087806	0.0199041
-0.0189568	-0.00169596	0.0189546
0.00866046	0.00568852	-0.00864254
0.0109658	-0.00683802	-0.0107408
-0.00896772	0.203918	-0.203151
0.0101947	0.0100877	-0.0102115
-0.00177681	-0.0243394	0.0282168
-0.056255	-0.058716	0.056897
-0.00612137	0.00536118	0.00564954
0.0101045	-0.0137509	0.0144538
-0.00503789	0.00515472	0.00455293
0.00350773	-0.00615025	0.00638643
0.00243395	0.00444829	-0.00240383
0.00282107	-0.0107486	-0.00322631
-0.00216974	0.00817181	-0.00761571
-0.00336327	0.00358285	0.00226391
0.00145059	-0.0387199	0.0383845
-0.0212667	-0.00788757	0.0213074
0.013093	-0.00985701	-0.0131275
-0.00367225	-0.00664946	0.0123704
0.00812272	-0.00745011	-0.00815604
-0.00432773	0.463674	-0.458553
-0.0689545	0.0541631	-0.0470619
0.0149898	-0.0153886	-0.014999
-0.00245208	-0.000816279	-0.000301413
0.0126012	-0.0125106	-0.00505369
-0.00272141	0.0151025	-0.015109
-0.0240496	-0.019587	0.0186593
0.0128038	-0.0251456	0.0203184
0.00177589	0.00108393	-0.00174751
-0.00781884	0.00799562	0.00735113
0.00598149	-0.0438228	0.0427977
0.00155915	0.0201384	-0.0142084
0.0418524	-0.041305	0.0140415
0.00573271	0.00479499	-0.00568099
-0.00549027	0.00582412	0.00427697
0.0069095	-0.0125621	0.0125706
0.010631	-0.00989524	-0.0106376
0.0028285	-0.0296245	0.0280412
-0.00184564	0.00206198	0.0026978
-0.00905028	0.0107214	0.00894818
-0.0293181	0.461643	-0.454213
-0.00705998	0.00669814	0.00437442
0.00585871	-0.042006	0.0404996
0.000909242	-0.00471677	0.00579662
0.0561294	-0.051878	-0.0557042
-0.00555813	-0.0455271	0.03912
0.0253531	-0.0175022	-0.0301342
0.00440748	-0.0116387	0.0115696
0.00427904	0.000932675	-0.00389088
0.00691165	-0.0133924	0.0104425
-0.030749	-0.0316662	0.030521
-0.0176139	0.00354653	0.015837
4.76469e-05	-0.0110183	0.0111078
-0.0114249	-0.00657318	0.0114596
0.00855909	0.00506867	-0.0101314
-0.00087701	-3.01391e-05	0.000906197
-0.00153173	0.000306342	0.0051541
0.00761189	-0.0111373	0.0113294
0.0118368	-0.0124487	-0.011603
0.00660737	-0.0185219	0.0182691
0.00427904	0.000932675	-0.00389088
-0.0305737	0.0175394	0.030575
-0.0255013	0.0256622	-0.0243718
0.00848523	-0.00794468	-0.00582032
0.00215128	-0.0162005	0.0173243
0.00348693	0.00395795	-0.00447755
-0.00589088	0.00628937	0.00564597
-0.00478277	-0.070352	0.0624207
-0.0023776	0.0123928	0.00242364
-0.000355461	0.0115961	-0.0127418
0.0035622	0.00135135	-0.00316765
-0.00757895	0.0073804	0.0078239
-0.00396211	0.00166755	-0.00135411
0.0424804	-0.0423141	-0.0220122
-0.00114669	8.72975e-05	-0.00018678
-0.00751492	-0.0103735	0.0073266
-2.43428e-05	-0.00558629	0.00892322
-0.0588204	-0.0313968	0.0587786
0.00737486	-0.00691747	-0.00849134
0.00369639	-0.0270038	0.0256692
0.00124694	0.0195519	-0.0217769
0.00538918	-0.0421209	0.0419317
-0.000993828	-0.00111198	0.000990859
-0.0308927	0.00987278	0.0317383
0.003827	-0.0449012	0.044858
0.0376663	-0.0379566	-0.0379398
0.00229356	-0.0442409	0.044157
-0.00987558	-0.0394117	0.036046
0.0256547	-0.0256121	-0.0257137
-0.01054	0.0037353	-0.00303973
-0.00715084	0.00783313	0.00974294
0.00120458	-0.0375263	0.0376973
-0.0232106	-0.00495609	0.0231954
-0.00397196	-0.00187928	0.00411224
-0.00136258	0.034922	-0.0307215
0.0246282	-0.0292515	-0.0101879
0.0102902	1.18922	-1.19045
0.0028113	0.00549281	-0.00484032
-0.0388893	0.108403	-0.113729
0.00846839	0.00830397	-0.0084774
-0.00707295	0.00166758	0.00628184
-0.00312522	0.0103945	-0.0095723
0.001155	0.000937097	-0.00116858
-0.00696496	-0.0205971	0.021267
0.00584778	0.0121732	-0.0107301
0.0132856	-0.0148715	-0.0134581
-0.0135753	-0.0558333	0.0561204
0.00546159	0.000667776	-0.00529666
0.00327293	-0.00997886	0.00973268
0.00162502	0.00437423	-0.00164854
0.0111357	-0.0109011	-0.0109871
0.00076306	-0.0428117	0.0444927
-0.00545608	0.00200296	0.00766939
0.00844533	0.0104021	-0.0137963
0.000336142	0.00229309	-0.000513103
-0.0147795	0.0153644	0.0147559
-0.0147391	-0.0107722	0.0162376
-0.00486611	0.00788251	0.00574811
0.00380857	-0.0193099	0.0203273
-0.0333351	-0.0396127	0.0371398
-0.0114696	0.0106757	0.0111791
-0.00844023	0.00821685	0.00656949
-0.00438676	0.00527926	0.00262871
0.00272368	-0.0479499	0.0479455
0.00608767	0.00746445	-0.00790313
-0.00126823	-0.015676	0.0177667
0.00162502	0.00437423	-0.00164854
-0.00971708	0.00720166	0.00988757
-0.0131001	0.0348399	-0.0327688
0.0100169	-0.00131166	-0.000371085
-0.00343842	0.00467257	-0.00289995
-0.000171664	0.00368093	-1.79603e-05
-0.00400733	0.0082944	0.00379374
-0.0261116	0.0312446	-0.0306329
-0.011309	0.0112263	0.00748766
0.00164713	-0.0200026	0.0214355
0.0037832	0.0041202	-0.00375616
0.0233058	-0.0367033	-0.0207649
-6.77314e-05	0.0965926	-0.0912012
0.0128118	-0.0112625	-0.0128642
0.000639609	0.0667606	-0.0662257
0.00282318	0.00637193	-0.00541734
0.0310773	-0.0257801	-0.0307921
0.0162684	0.00779694	-0.0109608
0.164683	-0.0573606	-0.165102
-0.0034985	0.0287645	-0.0274675
0.000336142	0.00229309	-0.000513103
0.00844579	-0.00937269	0.00398833
0.00479473	0.00551182	-0.00478836
-0.013886	0.0128286	0.0140162
0.00264694	0.000593223	-0.00158321
0.0043262	0.0176788	-0.0168698
0.0260323	-0.0260532	-0.0223894
0.0023797	0.000167195	-0.00223026
0.00736193	-0.0044785	-0.00773645
0.00420746	-0.0128607	0.0125852
-0.00430154	-0.00412704	0.00524085
0.00330888	-0.0446383	0.0445491
0.00263991	0.0954072	-0.0927785
0.00492895	0.000158065	-0.00479272
0.00958205	-0.029139	0.0254072
0.0167671	-0.0181123	-0.0187616
0.0025296	0.290933	-0.292071
-0.000171664	0.00368093	-1.79603e-05
0.0450485	-0.0443507	-0.0439286
0.00377869	0.00985793	-0.00816654
-0.0266689	0.00911337	0.0260508
-0.0174373	-0.0148435	0.012769
-0.00199018	0.00384827	0.0020169
-0.00692509	0.00604497	0.00701155
-0.00148595	-0.000926792	0.00299379
-0.0508602	0.0101524	0.0511019
0.00243404	-0.0104721	0.0121369
-0.00630058	-0.00659417	0.00630672
0.0117677	0.0160171	-0.024029
0.00186831	0.00558973	-0.00722268
0.0137963	-0.00776975	-0.0138868
0.00307294	-0.0114108	0.0130351
0.0672714	-0.0679517	-0.0675533
0.00739288	-0.0259311	0.0258911
0.00138046	0.000240859	-1.31965e-05
-0.0107905	-0.00313391	0.00970239
-0.000384347	0.0173791	-0.017538
0.0138429	-0.0147451	-0.0132757
-0.00896772	0.203918	-0.203151
0.00483996	0.00125753	-0.00444634
0.0291979	-0.0273435	-0.0298623
-0.0491863	-0.0846056	0.101246
-0.00108579	0.00100445	-0.000628439
0.00248118	-0.00339615	0.00170511
-0.014716	-0.00171534	0.0145397
0.00218195	0.00209489	-0.000336869
0.00377869	0.00985793	-0.00816654
-0.0150808	0.00166533	0.00949116
0.00518876	-0.00222284	0.0037071
0.012225	0.00663879	-0.0095356
0.0025659	-0.0121319	0.0112617
0.0035622	0.00135135	-0.00316765
0.0205918	-0.0238163	-0.0208158
0.0131236	-0.012802	0.0148501
-0.00367225	-0.00664946	0.0123704
0.00546802	-0.015585	0.0166361
-0.0114249	-0.00657318	0.0114596
-0.00912022	0.0013422	0.01151
0.00202926	0.0206361	-0.0205252
-0.00998873	0.0101574	0.00771267
0.0021689	-0.0433253	0.0447833
-0.010323	-0.00937339	0.01036
-0.00574874	0.00787028	0.00623065
0.00204809	-0.0200078	0.0234804
-0.011309	0.0112263	0.00748766
0.00507371	-0.0336372	0.0331328
0.00421665	0.00498742	-0.00501523
-0.0021584	0.000755901	0.00225232
-0.0258119	-0.0812457	0.0837224
-0.00518756	0.00499517	0.000988061
-0.00618908	-0.024934	0.0247953
-0.0075266	0.0223065	-0.00874735
0.0141382	-0.0140779	0.0102833
-0.00229248	0.00526843	0.00203894
0.00778609	-0.00362706	-0.0078415
0.00227097	-0.0453161	0.0455883
0.001155	0.000937097	-0.00116858
0.0007981	-0.0310652	0.0302429
0.00550036	0.00545943	-0.00550064
-0.000243684	-0.000671007	-0.000183018
-0.000913192	-0.0609329	0.060823
9.96605e-05	-0.0175931	-8.68262e-05
0.00448405	-0.0105413	0.0105283
0.0052435	0.00416495	-0.00479531
0.00703028	0.00403527	-0.00713732
-0.00636081	-0.0397872	0.0436508
0.23495	-0.0399927	-0.226902
0.00133106	-0.00739153	0.00696059
-0.0836398	-0.0774033	0.0828364
-0.0012191	0.000409097	0.0010325
0.00285917	-0.0123065	0.0107872
-0.00353215	0.00204776	0.00335691
0.00210599	-0.0282102	0.0272502
0.0113888	0.0537775	-0.0580099
-0.00354452	0.0104218	0.00329581
-0.0230791	0.00330721	0.0192763
0.000537824	-0.00515886	-0.000574852
-0.00114757	0.00490774	-0.00516622
-0.0679169	-0.16674	0.162254
0.003431	-0.00323555	-0.00154447
-0.00575331	-0.0279251	0.0252972
-0.00636057	0.00777118	0.0054285
-0.0614316	0.0862596	-0.087029
0.00498681	0.0124211	-0.0115059
0.00958205	-0.029139	0.0254072
0.00177589	0.00108393	-0.00174751
-0.00442903	0.0025097	0.00580633
-0.00311255	0.0213931	-0.0217036
-0.0168992	0.0170409	0.0171413
0.00270172	-0.032386	0.0331157
-0.00886171	-0.358604	0.352871
0.0568259	-0.057133	-0.0578723
0.0163264	0.519058	-0.528288
0.0137662	-0.0118631	-0.0168316
0.00229356	-0.0442409	0.044157
-0.00506173	-0.0144302	0.0161886
0.0071685	-0.0108574	-0.00486023
-0.00421478	0.120752	-0.11437
0.018039	-0.0240096	-0.0136559
0.00186276	0.0176889	-0.0180972
0.000269822	0.0364775	-0.0283261
0.00855909	0.00506867	-0.0101314
-0.00562105	-0.00230807	0.0044041
-0.00430084	0.0133623	0.00459708
0.00311428	-0.0459792	0.0458363
0.00508289	0.00586156	-0.00506174
0.0275878	-0.0277236	0.0223533
-0.00236927	0.00376443	0.00239424
0.0346549	-0.0345344	-0.0342269
-0.00611712	0.0109204	-0.0113866
-0.0180387	0.0126236	0.0177317
-0.021963	0.0502759	-0.0503694
0.00608767	0.00746445	-0.00790313
-0.0127002	0.0137624	0.0123434
-0.111599	0.234024	-0.199479
-0.00176784	0.000776368	0.00193683
0.000454043	-0.000114424	-0.000214021
0.00344878	0.00620005	-0.00564875
-0.0105912	0.00921471	0.0105949
-0.010429	-0.038734	0.0322266
0.0293109	-0.025755	-0.0287952
0.00254411	-0.0492205	0.0493496
-0.0213844	-0.0307845	0.0280614
-0.00354452	0.0104218	0.00329581
-0.185823	-0.64694	0.726783
-0.00609636	-0.0082559	0.00418628
0.00357458	-0.0446629	0.0447005
-0.070128	-0.0759767	0.0754321
-0.00414494	-0.0063317	0.00855585
-0.0348454	-0.0369205	0.0306574
-0.00431671	0.00590547	0.00433105
-0.0084321	-0.0208212	0.0199086
-0.000335004	0.00281551	0.000568637
-0.00888337	0.0368422	-0.0368136
0.00501365	0.00534748	-0.00502684
0.00810078	-0.00327082	-0.00497884
0.00258584	0.0131112	-0.0132535
0.00464925	0.00272986	-0.00528798
0.00160013	-0.00825093	0.00879691
0.00674364	0.00425581	-0.00674003
-0.00308341	0.00595731	0.00401481
-0.01729	0.0160773	-0.00764315
-0.00438676	0.00527926	0.00262871
-0.00136653	-0.00456068	0.00451998
0.00290214	-0.000178136	-0.00300295
-0.027532	0.0108515	0.0266541
0.00379261	0.000576491	-0.00326501
-0.0143137	0.0094289	0.0143141
-0.0150234	0.0132252	-0.0126652
0.00248048	0.00316704	-0.00247955
-0.0405462	0.127432	-0.12797
0.00134177	0.00235127	-0.00137931
-0.000305409	0.000926439	0.00191844
0.00391078	-0.0411235	0.0408489
0.00479473	0.00551182	-0.00478836
0.00844579	-0.00937269	0.00398833
0.0084087	0.0635377	-0.0651363
-0.00766012	0.00785489	0.00907008
0.00459058	-0.0536366	0.0533902
0.0221246	-0.0120775	-0.0221283
0.00115063	-0.0427959	0.0426902
0.000686131	0.000355162	-0.000690173
-0.00817121	0.00808161	0.00829551
0.0007981	-0.0310652	0.0302429
-0.00593784	0.00558796	0.00726985
0.00260028	0.00367518	-0.00498029
0.000752325	0.0034655	-0.000837539
-0.0127002	0.0137624	0.0123434
0.00521509	0.00562125	-0.00600963
0.0760373	-0.00137035	-0.0759941
0.00479301	-0.0108995	0.0102961
0.00316853	0.00045137	-0.00283152
-0.0192226	0.0104378	0.0190892
0.00148189	0.00141858	-0.00148436
-0.00614009	0.0105501	0.00642812
0.00327518	-0.0495054	0.0500848
0.00509016	0.00516569	-0.00510829
-0.0100574	0.00379949	-0.00415215
0.00510548	-0.097655	0.0959811
0.00405552	-0.00521806	-0.00415341
0.0035603	-0.00462809	0.00456935
0.0306447	-0.0300119	-0.0305254
0.00739288	-0.0259311	0.0258911
-0.0304291	-0.00743	0.0302339
-0.00374768	0.00871559	0.00225987
0.00257804	0.00184991	-0.00340386
-0.0114696	0.0106757	0.0111791
-0.00285126	0.00451091	-0.00384163
-0.00367231	-0.00710628	0.00382711
-0.00887039	0.00721328	0.00884188
0.00431813	0.00941334	-0.00814901
0.0305393	-0.0210425	-0.0306071
0.00560591	-0.0426251	0.0419522
0.00162502	0.00437423	-0.00164854
0.042813	-0.0382853	-0.0428127
-0.00128066	0.00354275	-0.0028762
0.0890136	-0.00797486	-0.0889931
-0.0133746	-0.015245	0.0153114
-0.0367614	-0.0367985	0.0366223
-0.00086813	-0.0179541	0.021307
0.00226944	0.00348082	-0.00308103
0.0228253	-0.021461	-0.0216736
0.00414948	-0.0618264	0.0626917
0.0141801	0.00501333	-0.00711611
0.00386439	-0.00317161	0.00110845
0.00284968	0.00138252	-0.00269087
0.00617731	0.00818133	-0.00640601
-0.00239357	0.030339	-0.0316417
-0.00598925	0.00480745	0.00503606
0.00722705	-0.00464756	0.0025781
0.00401806	0.00222629	-0.00408468
0.0239285	-0.0243444	-0.0239303
-0.00012866	-0.00513072	0.00877569
0.139178	0.0117581	-0.163764
-0.00206024	0.429452	-0.430274
-0.00134559	-0.0571746	0.0514547
-0.0135948	0.0127642	0.0133999
0.00140645	0.0184172	-0.021526
0.0405537	-0.0392788	-0.0405532
-0.000594969	-0.0109631	0.0110106
0.00508289	0.00586156	-0.00506174
0.0333045	-0.0101345	-0.0346592
-0.0228675	-0.0101507	0.023034
-0.00188238	-0.0101231	0.00185832
0.00475693	-0.00489602	0.00487918
0.00379261	0.000576491	-0.00326501
0.00691165	-0.0133924	0.0104425
0.00284968	0.00138252	-0.00269087
-0.00333967	0.0026303	0.00203277
0.000834079	-0.00746327	0.00706103
0.038191	-0.0311093	-0.0380137
-0.0379008	0.00632128	-0.00706068
0.00573271	0.00479499	-0.00568099
-0.011309	0.0112263	0.00748766
0.00357115	-0.0486847	0.0493447
-0.0277619	0.0164951	0.0272625
0.0028355	0.262258	-0.264202
0.00421665	0.00498742	-0.00501523
0.00678424	-0.00511027	-0.00650858
-0.00195563	-0.00164877	0.0098526
-0.0105179	0.00951185	0.0113423
-0.00190821	0.0401892	-0.0402374
0.00143281	0.00450616	-0.0013129
-0.00647216	0.00281476	0.00938194
-0.00806772	-0.00233141	0.00257498
-0.0229064	0.00752664	0.025339
0.00627732	-0.0241898	0.024438
-0.0103621	0.0440981	-0.0424258
0.0164508	-0.0175106	0.0113264
0.00501365	0.00534748	-0.00502684
-0.0100066	0.00589196	0.0105159
0.000179958	-0.0377432	0.0393133
-0.145655	-0.00288426	0.142991
-0.00916273	-0.0370017	0.0406093
0.0035622	0.00135135	-0.00316765
-0.00681995	0.00109575	0.00508225
-0.0240188	0.0211341	-0.0205922
0.0159873	-0.0162835	-0.0160771
0.00374355	-0.00318616	0.00890469
0.00690454	0.0461924	-0.0447165
-0.00998873	0.0101574	0.00771267
0.00207809	0.463913	-0.462024
-0.0122614	0.0144299	0.0111411
0.00418789	-0.0588562	0.0576756
-0.0642791	-0.0692253	0.0638495
-0.0160586	0.0161782	0.0161296
0.0100169	-0.00131166	-0.000371085
-0.00853073	-0.0127613	0.0132925
0.00464721	-0.0434492	0.0435531
0.0028113	0.00549281	-0.00484032
0.0183701	-0.0189797	0.0148702
0.00316853	0.00045137	-0.00283152
-0.0135767	0.00570454	0.0173758
-0.00200154	0.00286481	-0.00278842
-0.0054978	-0.00477698	0.0055139
0.00159484	-0.000322325	-0.00383673
0.00573271	0.00479499	-0.00568099
0.0913463	-0.0921955	-0.0914822
-0.00776062	0.108015	-0.10734
-0.00772465	0.00687704	0.00788959
0.00400203	-0.00300607	0.00345118
0.000478947	-0.00398224	0.007434
0.068356	-0.0583682	-0.0693385
0.00319048	-0.0103423	0.00974489
0.108978	-0.110699	-0.108923
-0.00827227	-0.0251913	0.0250327
0.0052435	0.00416495	-0.00479531
-0.0127748	0.00844515	0.0126205
0.000181169	0.0380509	-0.0325981
-0.0135743	0.00925409	0.01439
0.00137613	-0.0175915	0.017786
-0.000993828	-0.00111198	0.000990859
-0.00522986	0.00474238	0.00769713
0.00422589	0.00143432	-0.00144354
0.197741	-0.0257703	-0.182346
0.00404355	-0.00550867	0.0078451
-0.0195733	-0.0274827	0.0261148
0.00385785	-0.0285187	0.0280197
-0.000922956	0.0271611	-0.0205796
-0.0021388	0.00109523	0.00273083
0.00189008	-0.0139488	0.0126096
0.00455528	4.76805e-05	0.00338732
0.00137434	0.0145343	-0.014753
-0.012113	-0.0246422	0.037865
-0.0119308	0.0116218	0.0100434
-0.0228139	0.0487789	-0.048594
0.014331	-0.0159716	-0.0143733
-0.0284777	0.0108822	-0.0129114
-0.0448365	-0.0231584	0.0450377
-0.0115678	0.00788074	0.0122359
-0.00504437	0.0112069	-0.00794393
0.0231848	-0.0263653	-0.0232361
0.0028943	-0.00361331	0.00203884
0.00846839	0.00830397	-0.0084774
-0.0083842	0.00638953	0.0109868
-0.00396211	0.00166755	-0.00135411
0.10808	-0.102964	-0.10807
0.000519532	0.0397742	-0.0402963
0.000397169	0.00036794	-0.000383493
0.0117677	0.0160171	-0.024029
0.000752325	0.0034655	-0.000837539
-0.0115752	0.00837465	0.0101806
-0.00494098	-0.0216581	0.021689
0.00134177	0.00235127	-0.00137931
0.00339419	0.00122058	-0.00437935
-0.00179025	-0.00134	0.00177971
-0.00405671	0.00361354	0.00252009
-0.00128514	0.0164168	-0.0161731
0.0249368	-0.024666	-0.0237479
-0.00381419	0.0747174	-0.0740477
0.00510414	0.0292497	-0.0270947
-0.015528	0.0155319	0.0119754
0.00414948	-0.0618264	0.0626917
-0.00825821	0.00546054	0.00746555
0.00327518	-0.0495054	0.0500848
-0.000993828	-0.00111198	0.000990859
0.00585332	-0.00541789	-0.00586308
0.000480338	-0.0166728	0.0174867
0.23619	-0.223287	-0.236175
4.76469e-05	-0.0110183	0.0111078
-0.000920163	-0.204012	0.200241
0.147333	-0.1479	-0.147611
0.0052435	0.00416495	-0.00479531
0.015647	0.00426736	-0.0173319
0.000819805	-0.0418823	0.0417022
-0.00520883	-0.00560595	0.00521003
0.0303147	0.377845	-0.398844
0.00774496	0.0141986	-0.012502
0.0329127	-0.0312465	-0.0332652
-0.01086	0.0721161	-0.0741204
-0.00410091	0.00569472	0.00700935
0.00357458	-0.0446629	0.0447005
0.00243395	0.00444829	-0.00240383
0.0264472	-0.00139709	-0.0264455
0.00598149	-0.0438228	0.0427977
-0.0192226	0.0104378	0.0190892
0.00294242	-0.04993	0.0503068
0.00608767	0.00746445	-0.00790313
0.0311181	-0.0373618	-0.0315217
0.00433119	0.00843698	-0.00788175
-0.00577852	0.0072929	0.007008
0.00499861	-0.0397446	0.0378701
0.00568762	0.0040484	-0.00569965
-0.0211934	0.0214067	0.0211926
-0.000310076	0.00100987	0.00234726
-0.00153173	0.000306342	0.0051541
0.00378509	-0.00115757	0.00107212
0.00473663	0.0162277	-0.014015
3.09209e-05	-0.00956614	0.0132192
0.000336142	0.00229309	-0.000513103
0.0455148	-0.0489301	-0.0453436
0.00369639	-0.0270038	0.0256692
-0.00688841	-0.0299102	0.0306872
0.00358881	0.00325853	-0.00176607
0.00608767	0.00746445	-0.00790313
0.00573626	-0.00521016	-0.00576071
0.00800039	-0.0495952	0.0494849
-0.00410091	0.00569472	0.00700935
-0.0148242	0.0653883	-0.0675518
-0.00547737	0.00170714	0.00587377
0.0254117	-0.0247809	-0.0254926
-0.00086813	-0.0179541	0.021307
-0.00288872	0.00288792	0.00155112
0.0040729	-0.048292	0.0486077
0.000504961	-0.00414533	0.00129497
-0.00583084	0.00204756	0.00593394
0.0274874	0.0042837	-0.0219666
0.0424804	-0.0423141	-0.0220122
-0.00469752	0.02945	-0.0294068
-0.000333604	-0.00206048	0.00379002
-0.0122821	0.00898034	0.0129221
0.00134177	0.00235127	-0.00137931
0.00432117	-0.00893509	-0.00409284
0.00293863	-0.00936054	0.00965169
0.000752325	0.0034655	-0.000837539
0.0202696	-0.0202371	0.0158002
0.00535909	0.0970594	-0.0989377
-0.00636774	0.00329548	0.00752257
0.000255034	0.251103	-0.249783
-0.00523243	0.00292014	0.00605269
-0.0140022	0.0208267	-0.0215242
0.00162502	0.00437423	-0.00164854
0.0185946	-0.0166161	-0.0149138
0.00151846	-0.0166356	0.0180506
-0.00692427	0.0033508	0.00696699
-0.00465861	0.0460784	-0.0461043
-0.0328737	-0.0377775	0.0304518
-0.000315356	-9.96791e-05	0.0007605
0.00491452	-0.0069579	0.00400891
-0.000632348	0.00349781	-0.000637295
0.00478459	-0.0327352	0.0322229
0.0052435	0.00416495	-0.00479531
-0.0118901	0.00942822	0.0128976
0.00282318	0.00637193	-0.00541734
0.0600445	-0.0488701	-0.0619169
-0.0248288	0.557651	-0.557297
0.00475555	-0.468632	0.468231
0.00667406	-0.0299628	0.027919
0.00363642	0.00484575	-0.00359186
-0.00417471	0.00809782	0.00338879
0.00349981	-0.0550711	0.0541274
0.00654742	-0.0183938	0.0137943
0.00252099	-0.0404023	0.0425437
0.00220402	0.000494308	-0.00211944
-0.00503597	0.00572602	0.00278517
0.00475693	-0.00489602	0.00487918
-0.00394427	0.00492167	0.00331184
0.00270172	-0.032386	0.0331157
0.0100169	-0.00131166	-0.000371085
0.0100222	-0.0107448	-0.0102113
0.0134243	0.0815779	-0.0957033
0.0141127	-0.0121533	-0.0139512
0.00145059	-0.0387199	0.0383845
0.00306735	0.00836095	-0.00370218
0.0143679	-0.0147575	-0.0143629
0.000478947	-0.00398224	0.007434
0.1482	-0.074961	-0.145601
0.003827	-0.0449012	0.044858
-0.00443889	-0.100506	0.0970008
-0.0208241	-0.00209242	0.00841731
-0.0953135	-0.0226448	0.0954774
-0.00366937	0.00201912	0.00381592
0.00628989	-0.0383818	0.0381249
0.013376	0.0121288	-0.0147839
0.00910805	-0.0270937	0.0239222
0.00363642	0.00484575	-0.00359186
0.0203968	-0.0133723	-0.0199639
0.0171449	-0.0137466	0.0141624
-0.00744313	0.00520822	0.00802229
0.000631749	-0.012628	0.0127972
0.00376168	-0.676959	0.683876
-0.0191145	0.0195588	0.019123
-0.0478366	0.26741	-0.23422
0.110229	-0.110973	-0.110228
-0.00445384	-0.00425896	0.0045684
-0.00764737	-0.00274759	0.00771608
-0.0179986	0.00636272	0.021081
0.0244102	0.0233194	-0.0418295
-0.00971708	0.00720166	0.00988757
0.00486801	-0.0466533	0.0466107
-0.000922956	0.0271611	-0.0205796
0.064347	-0.0656522	-0.0631179
0.00573271	0.00479499	-0.00568099
-0.00204513	0.00534825	0.00420769
0.00315864	-0.004703	0.00373264
0.00728906	0.00593058	-0.00772365
0.00991724	-0.0222164	0.01875
0.00360485	0.0203337	-0.019406
-0.000325814	0.00548137	0.00216774
-0.00417698	-0.0251879	0.0245387
-0.000333604	-0.00206048	0.00379002
-0.020059	0.0715381	-0.0715771
0.00550745	0.00256052	-0.00550466
0.00279937	-0.00155665	-0.00564382
-0.00760527	0.131961	-0.131417
-0.00176784	0.000776368	0.00193683
0.00384047	-0.0482024	0.0487758
0.00155414	0.00114027	-0.00159527
0.0130467	-0.0140184	-0.0172613
0.0404569	0.0304927	-0.060002
0.0292507	0.0102038	-0.0313951
0.00585871	-0.042006	0.0404996
-0.0114249	-0.00657318	0.0114596
0.00166434	3.75513e-05	-0.00159594
-0.00247982	0.00224405	0.00374015
0.0447547	-0.0558707	-0.044031
-0.00181127	0.00911605	-0.0092065
-0.00087701	-3.01391e-05	0.000906197
-0.00444084	-0.00562112	0.00850875
-0.0149921	-1.5828	1.58506
0.0109957	0.000571737	-0.012122
-0.0114578	0.0605895	-0.0625963
-0.00087701	-3.01391e-05	0.000906197
0.00124955	-0.0290951	0.0310412
-0.00690664	-0.00485033	0.00691921
-0.00769723	0.00522762	0.00147162
-0.0214375	0.0736166	-0.0734576
-0.00354452	0.0104218	0.00329581
0.0012352	0.0213562	-0.0214609
-0.0175614	-0.0687438	0.0686985
-0.00537985	0.00434584	0.00531963
-0.0317282	0.229847	-0.210245
-0.00320288	0.00109102	0.00322079
-0.00742481	0.0664765	-0.0677163
-0.0232106	-0.00495609	0.0231954
-0.00908978	0.0105029	0.00914528
-0.0242992	0.00469196	0.017806
0.030317	0.00176599	-0.0309582
-0.0440219	0.025283	-0.0249779
0.00509016	0.00516569	-0.00510829
-0.00195002	0.00415004	0.00204781
-0.0151391	-0.0157595	0.0151263
0.0649398	-0.059025	-0.0649394
0.000631749	-0.012628	0.0127972
0.00427904	0.000932675	-0.00389088
0.0196695	-0.0198112	0.0153797
-0.00239225	-0.00124351	0.00322894
0.0162983	-0.0175699	-0.0161368
0.00678984	0.00997782	-0.01303
0.00284968	0.00138252	-0.00269087
-0.0034985	0.0287645	-0.0274675
0.00551125	0.0545841	-0.0544094
-0.000632348	0.00349781	-0.000637295
0.00137613	-0.0175915	0.017786
-0.0173032	0.00854137	0.0172767
0.00130378	-0.0307481	0.0309136
-0.0172305	-0.0236452	0.0227975
-0.012654	0.0120056	0.0127383
0.000909242	-0.00471677	0.00579662
0.007972	-0.00597062	-0.00752039
-0.00657581	0.292871	-0.292177
-0.0213844	-0.0307845	0.0280614
0.00622057	-0.0097845	-0.00852151
0.00819564	0.00426522	-0.00556045
-0.0125759	0.0133387	0.00856291
0.00287803	-0.014506	0.0146999
-0.0026546	-0.00636634	0.00117559
-0.0407844	0.066182	-0.0697279
-0.00338666	-0.00389363	0.000462098
0.00115423	0.00100306	-0.00125944
0.00357115	-0.0486847	0.0493447
-0.00229248	0.00526843	0.00203894
-0.046508	0.0606516	-0.0642284
-0.051042	-0.0471825	0.0494948
-0.00894344	0.00539442	0.00989036
-0.0547349	0.0686658	-0.0720627
0.0149588	-0.00608583	-0.0155225
-0.00470853	0.0133286	-0.0134625
-0.042514	-0.0656633	0.0618263
0.00450128	0.00202888	-0.00573354
0.0117677	0.0160171	-0.024029
-0.0034011	0.00272139	0.00349645
-0.00140509	0.01201	-0.0121259
-0.00199018	0.00384827	0.0020169
0.0165178	-0.0159496	-0.016517
-0.00367225	-0.00664946	0.0123704
0.152251	-0.0179563	-0.190399
-0.00151891	0.0123452	-0.0123557
0.0100169	-0.00131166	-0.000371085
-0.0131916	0.0124547	0.0132765
-0.0677405	-0.0517656	0.0504523
-0.00647216	0.00281476	0.00938194
0.00973066	-0.0126394	0.0130601
-0.000171664	0.00368093	-1.79603e-05
0.0007981	-0.0310652	0.0302429
0.0127189	0.0129162	-0.0127238
0.0571075	-0.0566506	-0.0542276
0.00400728	-0.0613734	0.0604257
0.0176789	-0.017804	-0.0166881
0.003827	-0.0449012	0.044858
0.00483485	0.000392946	-0.00268755
0.0024725	0.00712739	-0.00390602
7.39219e-05	-0.0380756	0.038559
0.0336699	-0.0356124	-0.0337316
-0.0170522	0.231754	-0.23037
0.00616516	0.00257953	-0.00641503
-0.00787429	0.00785637	0.00782929
-0.0307684	-0.0370429	0.0294633
0.0941016	-0.0929453	-0.0941016
0.000289391	0.0350623	-0.0356307
-0.00780784	-0.0117763	0.00781636
0.00589318	-0.00914892	-0.00618331
0.0028113	0.00549281	-0.00484032
0.115952	0.00297155	-0.114195
0.00214401	-0.0441992	0.0441684
0.00652294	0.00359773	-0.00650164
-0.00982413	0.0117269	-0.0196223
0.00603323	0.00741529	-0.00736828
0.00676807	-0.0064068	-0.00668643
0.00257804	0.00184991	-0.00340386
-1.03753	-0.0311175	0.997199
-0.00118968	-0.0166557	0.0189256
0.00401806	0.00222629	-0.00408468
0.111174	-0.000743532	-0.142127
4.76469e-05	-0.0110183	0.0111078
0.0469656	-0.0503539	-0.0468345
0.00711809	-0.00563693	0.00357928
-0.0162793	0.0220418	-0.000709668
-0.00335524	0.00461726	0.00381728
0.00301604	-0.069649	0.0734734
0.00341251	0.00966	-0.00379001
0.00248118	-0.00339615	0.00170511
0.0034804	0.00482857	-0.00421487
0.00425377	-0.00467346	-0.00410819
-0.00872029	-0.0610517	0.0532898
0.0372356	0.000149505	-0.0371937
0.000125435	-0.00719201	0.00725781
0.0035622	0.00135135	-0.00316765
-0.025124	0.114285	-0.118744
-0.0821483	-0.0786839	0.0821619
0.0686204	-0.0645079	-0.0721186
-0.0029047	0.00302238	-0.001546
0.00155414	0.00114027	-0.00159527
0.00865616	-0.01212	0.0112549
0.00501365	0.00534748	-0.00502684
-0.00398259	0.00440873	0.00308179
0.000816174	0.021983	-0.0218061
0.0292978	-0.0195394	-0.0294322
0.000313939	0.00241802	-0.00242296
-0.00555813	-0.0455271	0.03912
0.00341175	-0.00353013	-0.00352866
0.00151846	-0.0166356	0.0180506
0.034189	-0.0431582	-0.0339302
0.0120698	-0.00116917	-0.000560947
0.00573271	0.00479499	-0.00568099
0.00740351	0.000919971	-0.00909906
0.0258636	0.00209111	-0.0188639
-0.0081292	0.00949955	0.00761121
0.00420746	-0.0128607	0.0125852
0.0141801	0.00501333	-0.00711611
-0.00366937	0.00201912	0.00381592
-0.0173875	-0.0147769	0.0135813
-0.0309251	0.0153955	0.0243758
0.00327518	-0.0495054	0.0500848
0.00218395	0.00388324	-0.00189596
-0.231684	0.227548	-0.153638
0.00207776	0.00168044	-0.00165869
0.061115	-0.0594761	-0.0602672
-0.000841096	0.00913165	-0.00954458
0.00824978	-0.0016629	0.00181254
-0.00140509	0.01201	-0.0121259
0.00771062	0.00625801	-0.005816
0.0573661	-0.0583737	-0.0580546
0.00750451	0.069099	-0.0684369
0.0467045	-0.0492809	-0.046726
0.00319408	0.000917165	0.00237715
0.00433119	0.00843698	-0.00788175
-0.000518416	0.000873541	0.000505192
-3.91983e-05	0.0279901	-0.0221196
-0.00459002	0.00732426	0.00562055
0.0031206	-0.0333607	0.0310714
0.00410734	0.0368651	-0.0387229
-0.00783668	0.00802797	0.0077274
0.00237367	0.0252706	-0.0207505
-0.00744724	-0.00253789	0.00745394
-0.00853701	0.102119	-0.101447
-0.0211161	-0.0296372	0.0278835
0.0130102	-0.021501	0.0169754
-0.0176631	0.0122808	0.0045936
-0.0176139	0.00354653	0.015837
-0.00484916	-0.00847796	0.00768141
-0.000171664	0.00368093	-1.79603e-05
-0.0203055	-0.00335607	-0.000837275
-0.00989973	-0.00923627	0.00991194
-0.00353825	0.0125351	0.00366332
0.00486801	-0.0466533	0.0466107
-0.0123813	0.00220498	0.0124227
0.0012245	-0.0400809	0.0400716
0.00346731	0.00400752	-0.00335503
0.0102328	0.00351525	-0.0113908
0.00363452	-0.0574427	0.057544
-0.00970303	0.00915391	0.0097484
0.00100382	0.0412455	-0.0414319
-0.0358192	-0.0351425	0.0358399
0.0343008	-0.0341633	-0.0343365
-0.00305003	-0.0050643	0.00885578
6.5297e-05	0.000620349	-6.81093e-05
0.00392293	-0.0343985	0.0343678
0.00598634	0.028649	-0.0293204
0.0146211	-0.0189678	-0.0144875
-0.0108906	0.0216152	-0.00451946
-0.0229266	0.00408927	0.0216818
0.00404355	-0.00550867	0.0078451
-0.00338666	-0.00389363	0.000462098
0.00926346	-0.0101061	0.00541853
0.00782715	0.00162739	-0.00292211
-0.017666	0.0122087	0.0166763
0.00349981	-0.0550711	0.0541274
-0.0023356	0.00323253	-0.00196184
0.00307906	-0.00339137	0.00430817
0.00162502	0.00437423	-0.00164854
-0.00998873	0.0101574	0.00771267
0.00486801	-0.0466533	0.0466107
-0.00719146	0.00233421	0.00661013
-0.0266295	0.093763	-0.0967966
0.00421274	0.00843712	-0.00425148
-0.0104033	0.00830778	0.010082
0.0104289	-0.026189	0.018241
0.00260133	0.00806528	-0.0040933
-0.000666907	0.0826312	-0.0834732
0.00226944	0.00348082	-0.00308103
-0.00179164	-0.00548878	0.00301791
0.00377869	0.00985793	-0.00816654
0.0890136	-0.00797486	-0.0889931
-0.0280311	0.0573012	-0.0583252
-0.0068646	-0.0177523	0.0172326
0.00051963	-0.0210864	0.0233286
-0.000993828	-0.00111198	0.000990859
-0.00573786	0.000830859	0.0093345
0.00325417	-0.0480926	0.0472035
0.00736375	0.00741534	-0.00735829
-0.00367832	-0.00231557	0.00472645
-0.00518753	0.000862481	0.00520014
0.0145566	0.00795474	-0.0182531
0.0117871	-0.0332465	0.0334368
0.00126027	-0.00157637	0.000909176
0.00294242	-0.04993	0.0503068
0.00728906	0.00593058	-0.00772365
0.0169737	-0.017331	-0.017053
0.00317701	-0.0262343	0.0265328
-0.00440488	0.00162555	0.00696314
0.00280557	-0.0176664	0.0183507
0.00401806	0.00222629	-0.00408468
-0.0222972	0.0226851	0.0223726
0.0100959	-0.0638846	0.0469538
-0.0109896	0.00995251	0.0100982
0.00120728	-0.0322673	0.0333207
-0.00199018	0.00384827	0.0020169
-0.0104445	0.0105226	0.0103338
-0.00862577	-0.00747154	0.00860705
-0.020365	0.00741137	0.0199563
-0.00827227	-0.0251913	0.0250327
-0.000191392	-0.00523749	0.000199827
0.00256947	0.00627179	-0.0118594
-0.0211161	-0.0296372	0.0278835
-0.000903648	-0.00221702	0.00524927
-0.00332491	0.0661878	-0.066087
0.0123351	-0.0120254	-0.0124179
-0.00484916	-0.00847796	0.00768141
0.00187996	0.027925	-0.0242372
-0.00901221	0.0018481	0.00766176
0.00511873	-0.0154255	0.0144887
-0.00609933	0.00787748	0.00563285
0.0012245	-0.0400809	0.0400716
0.00427904	0.000932675	-0.00389088
-0.0071104	0.00988998	0.00690628
-0.00358236	-0.0920699	0.0800304
-0.00525003	0.00954659	0.00555275
-0.00179771	0.483584	-0.481674
-0.00141096	-0.00606357	0.00128713
0.0606438	-0.0602872	-0.0600786
-0.0023356	0.00323253	-0.00196184
-0.000311206	-0.0274026	0.000481588
0.00311428	-0.0459792	0.0458363
-0.0282815	-0.00863942	0.0278246
-0.000358943	-0.0102213	0.0133936
0.000832996	0.0241536	-0.0170212
0.0024985	-0.00166997	-0.00234359
0.00327518	-0.0495054	0.0500848
0.00807332	0.00414918	-0.00689389
-0.00930988	-0.0139536	0.017145
-0.0305876	-0.0330673	0.0533844
-0.0174098	-0.00340986	0.0174524
-0.00272116	0.0359123	-0.0360766
-0.0160576	0.00841101	0.0164037
-0.000874094	0.062721	-0.0624749
0.00466668	0.0721717	-0.0719309
0.00616643	0.00843021	-0.00643881
0.00328886	0.0268802	-0.0291573
-0.00482125	0.00650565	0.00335268
0.00314031	-0.0419671	0.0406003
-0.00690664	-0.00485033	0.00691921
0.026476	-0.0255854	-0.0261184
-0.0128947	-0.00198672	0.0158781
0.0652464	-0.0662226	-0.0635353
0.00272368	-0.0479499	0.0479455
0.00792449	0.00821681	-0.00791094
0.00477999	0.19551	-0.203184
-0.0118977	-0.0139656	0.0133613
-0.0130213	0.00506689	0.0151727
0.0026851	-0.00466375	0.00757657
0.00656969	0.00640843	-0.00657634
0.0331194	0.394367	-0.420109
-0.000410975	0.00422639	-1.56537e-05
-0.00410091	0.00569472	0.00700935
-0.112565	0.020175	-0.0207145
0.0322122	-0.0171183	-0.0320442
-0.00161906	0.0542711	-0.0536944
0.0104114	0.0268626	-0.0309012
-0.00882946	0.00987728	0.00882673
0.00130378	-0.0307481	0.0309136
-0.0012191	0.000409097	0.0010325
0.00690525	-0.0163544	0.0164866
0.000686131	0.000355162	-0.000690173
-0.00291623	0.00740711	0.00163467
0.0375533	0.0141636	-0.0390054
0.0148203	-0.0167917	-0.014777
0.00735849	0.0176633	-0.0171308
0.000223058	0.0144118	-0.0155955
0.00746703	-0.00681822	-0.00458252
0.00399104	0.0289564	-0.0258581
-0.0175486	0.0103079	0.0174118
-5.35938e-05	-0.0117715	0.0125915
0.00458485	0.00317315	-0.00346143
0.00278597	-0.0339991	0.0333699
-0.0130869	-0.0479769	0.0455968
0.01618	-0.0181259	-0.0175434
0.00282198	-0.0518231	0.0513537
-0.077901	-0.0460068	0.0884426
0.00357458	-0.0446629	0.0447005
0.012225	0.00663879	-0.0095356
-0.0149197	0.0137585	0.00724586
4.76469e-05	-0.0110183	0.0111078
0.0168043	-0.0162413	-0.0163597
0.00518367	-0.00915722	0.00872408
0.00344878	0.00620005	-0.00564875
0.0104674	-0.0217844	-0.00829405
0.00828531	0.0883737	-0.0961998
-0.0258832	0.0100328	0.0267166
0.00113725	-0.0396014	0.0403402
0.0100169	-0.00131166	-0.000371085
-0.00687215	0.00493729	0.0091499
-0.0252685	-0.0679385	0.0669824
0.024814	-0.0751337	-0.0233603
0.00392293	-0.0343985	0.0343678
0.0108324	0.00488718	-0.00936343
-0.0100574	0.00379949	-0.00415215
-0.0250739	-0.0258805	0.0248299
-0.00210604	0.00483008	0.000792839
-0.0276648	-0.00110842	-0.00205082
0.00728906	0.00593058	-0.00772365
-0.00012866	-0.00513072	0.00877569
0.000752325	0.0034655	-0.000837539
-0.0195906	0.0159491	0.0187294
-0.022302	-0.027364	0.0265969
0.0113808	-0.011403	-0.0118245
0.00440748	-0.0116387	0.0115696
-0.0185828	0.00446978	0.000348163
0.00111537	0.0030187	0.000902806
0.00369639	-0.0270038	0.0256692
0.0109791	-0.0123595	-0.0109124
-0.00285126	0.00451091	-0.00384163
0.00379261	0.000576491	-0.00326501
0.00719942	-0.007956	-0.00742789
-0.000732907	-0.0042472	0.00630661
0.0263548	-0.0269292	-0.026098
0.0017064	-0.0396792	0.0403337
0.00639407	0.00303823	-0.00320399
0.0136506	-0.0101608	-0.0134778
0.00285917	-0.0123065	0.0107872
0.197741	-0.0257703	-0.182346
0.00365631	0.00217913	-0.00165955
0.00377869	0.00985793	-0.00816654
-0.0407768	0.0409344	-0.0348516
0.00435272	0.0159286	-0.0126302
0.0346673	-0.0320926	-0.0345024
0.00248118	-0.00339615	0.00170511
0.00243395	0.00444829	-0.00240383
0.00617606	-0.0259655	0.0262355
-0.00694631	0.0217893	-0.00837831
0.00944884	-0.0160945	-0.0106357
-0.00240857	0.0716082	-0.0718596
-0.00601628	0.00859643	0.00589419
-0.00501045	0.0470238	-0.0482942
0.00377869	0.00985793	-0.00816654
-0.00681022	0.00744863	0.00675584
-0.00280574	0.0215574	-0.0118663
-0.00589575	0.00843728	0.00633576
0.00189008	-0.0139488	0.0126096
0.00736375	0.00741534	-0.00735829
0.182695	-0.182532	-0.182806
0.00345528	-0.00744847	0.00349949
-0.0110421	0.0108019	0.00472285
0.00713911	-0.0267655	0.0265583
0.00360485	0.0203337	-0.019406
3.09209e-05	-0.00956614	0.0132192
0.00846839	0.00830397	-0.0084774
0.00222274	0.00661221	-0.00277967
-0.00494098	-0.0216581	0.021689
0.00982183	0.000956197	-0.00301308
0.00385785	-0.0285187	0.0280197
0.00674364	0.00425581	-0.00674003
0.0237531	-0.0235046	-0.0237393
0.0069095	-0.0125621	0.0125706
-0.000903121	0.00195368	0.000502241
-0.00272116	0.0359123	-0.0360766
0.0028113	0.00549281	-0.00484032
-0.00823008	0.00816658	0.00342224
-0.01054	0.0037353	-0.00303973
0.0470012	-0.0480931	-0.0470301
0.00384047	-0.0482024	0.0487758
0.00587583	-0.091193	0.0879376
0.00249624	0.00232906	-0.00194562
0.0103743	0.0053174	-0.00980136
0.00812272	-0.00745011	-0.00815604
0.00160013	-0.00825093	0.00879691
-0.0174693	0.0134388	-0.0118802
-0.013189	0.0103879	0.0132456
-0.0314401	-0.63989	0.639358
-0.00604494	0.00630028	0.00445812
-0.00232978	-0.002574	0.00297855
0.00658804	0.00577728	-0.00656321
0.00613183	-0.00606235	0.0035492
0.00771371	0.0063185	-0.00756391
0.00313511	-0.00203332	0.000259489
0.00157853	-0.0379186	0.0378432
0.0165311	-0.0168042	-0.0165388
-0.00128514	0.0164168	-0.0161731
0.00363642	0.00484575	-0.00359186
0.00379852	0.0098424	-0.00899917
-0.00519803	0.0651787	-0.0658464
0.0122282	-0.00905067	-0.0123257
0.00678984	0.00997782	-0.01303
0.00462232	0.0420634	-0.0388759
-0.00367455	0.00402475	0.00352168
0.0021907	0.0435007	-0.0417156
-0.00698247	0.00872715	0.00672011
-0.00103445	0.405633	-0.406806
0.00138046	0.000240859	-1.31965e-05
0.00268046	-0.00896601	-0.00197938
0.0174499	0.00231721	-0.00940742
-0.00709364	0.0120402	0.000456551
-0.0523584	0.0523988	-0.0522712
-0.000171664	0.00368093	-1.79603e-05
-0.00414494	-0.0063317	0.00855585
0.000594769	0.0570841	-0.0514675
-0.0067659	0.00485884	0.00198575
0.00358362	-0.0481744	0.0468051
0.000752325	0.0034655	-0.000837539
0.00308618	0.022619	-0.0275964
0.000452119	-0.21182	0.209918
-0.00400733	0.0082944	0.00379374
0.00289727	-0.00794107	0.00783969
0.0430099	-0.051422	-0.0430345
0.00224181	-0.00961671	0.00798526
0.00501365	0.00534748	-0.00502684
-0.00606029	0.00563928	0.00375595
0.00308618	0.022619	-0.0275964
-0.00483327	0.0074223	0.00433602
0.00439835	-0.0485569	0.0479878
0.000752325	0.0034655	-0.000837539
-0.0176372	0.0175435	0.0176369
-0.010429	-0.038734	0.0322266
0.0329208	-0.0315792	-0.0344773
0.00473633	-0.00659508	0.00640329
0.00427904	0.000932675	-0.00389088
0.0106398	0.345593	-0.361733
0.000397169	0.00036794	-0.000383493
-0.0105696	-0.0223206	0.0102312
0.00223891	-0.0122598	0.0119967
0.0127189	0.0129162	-0.0127238
-0.0347321	0.0524379	-0.0587087
0.00713397	0.00480273	-0.00682863
-0.0164061	0.0163216	0.0166704
0.0069095	-0.0125621	0.0125706
-0.00184993	0.00288352	0.00209475
0.00289727	-0.00794107	0.00783969
0.00713397	0.00480273	-0.00682863
-0.00793668	0.00594638	0.00859622
-0.00216661	0.00114943	-0.000803283
-0.0111017	0.0128565	0.0114872
0.00254411	-0.0492205	0.0493496
0.000314803	0.00128399	-0.000283109
0.0386955	-0.0390898	-0.0399055
0.0172666	0.0136295	-0.0231335
0.0736279	-0.0731391	-0.0737687
-0.0125412	0.0993561	-0.0989418
0.0107004	0.00881871	-0.0106791
-0.00860425	0.0112842	0.00879105
0.000353335	0.0587288	-0.051932
-0.00368804	-0.000131746	0.00368813
-0.0345144	0.0363756	-0.0401964
0.00658804	0.00577728	-0.00656321
0.0453475	-0.0453588	0.0310643
0.000397169	0.00036794	-0.000383493
-0.00710289	0.00676416	0.00755716
0.0012245	-0.0400809	0.0400716
0.000909242	-0.00471677	0.00579662
-0.00235293	0.263284	-0.262307
-0.0075266	0.0223065	-0.00874735
-0.0125759	0.0133387	0.00856291
0.00170372	-0.00198013	0.00198051
-0.00718609	0.00758252	0.00775219
-0.000880088	0.103667	-0.104512
0.00290214	-0.000178136	-0.00300295
0.0118985	-0.00953081	-0.0120889
-0.00328987	0.0029213	-0.0078237
-0.0071393	0.00439175	0.00713907
0.00325417	-0.0480926	0.0472035
-0.010323	-0.00937339	0.01036
-0.00498843	0.00199276	0.00510184
-0.0458912	-0.0345353	0.0384505
-0.00573786	0.000830859	0.0093345
3.10523e-05	-0.00174878	0.00197748
-0.0124762	-0.0111406	0.0124534
-0.00086813	-0.0179541	0.021307
-0.0447889	-0.370437	0.371743
0.0125329	-0.0105028	-0.0126037
-0.0837566	0.0797721	-0.0819637
-0.0679738	-0.0628301	0.0685514
0.00349047	-0.0118146	0.0134796
0.00245448	-0.00265502	-0.00224674
-0.00834506	0.00758394	0.0089974
0.00754345	-0.0241125	0.0242393
-0.00985311	0.00812973	0.00984224
0.00648247	-0.0308847	0.0306202
-0.0115531	-0.0033109	0.0116456
-0.0188007	0.00566029	0.00802675
0.00686913	-0.0154764	0.0174734
0.00845249	-0.00818077	-0.00838963
0.00151114	-0.0445799	0.044377
0.00508289	0.00586156	-0.00506174
-0.020244	0.0186704	0.0137952
0.00256685	-0.0139057	0.0142493
-0.00385766	0.00174194	0.00419186
0.000819805	-0.0418823	0.0417022
0.00310419	-0.101513	0.106101
-0.00910044	-0.00511366	0.00927379
0.00148913	0.000283361	0.00166995
-0.0176407	0.00903897	0.0176081
0.00397044	-0.00520666	0.00553913
-0.0118977	-0.0139656	0.0133613
0.00719757	-0.0172333	0.0133019
-0.000264771	0.0003309	0.00026563
-0.0192464	0.0162297	0.0177039
0.00404355	-0.00550867	0.0078451
-0.00746806	-0.00506381	0.00531545
0.00259971	0.00748751	-0.00951281
0.00728906	0.00593058	-0.00772365
-0.00997107	0.00653644	0.00708924
0.0105245	-0.034521	0.0347465
0.0515182	-0.0522671	-0.0514455
-0.0274264	0.0197205	-0.0170922
0.00509703	0.00789501	-0.00917777
0.00613626	0.000192459	-0.00944705
0.00200226	-0.00910626	0.0107005
-0.00905028	0.0107214	0.00894818
0.00210599	-0.0282102	0.0272502
0.000397169	0.00036794	-0.000383493
0.0398717	-0.0395053	-0.0397848
0.00256685	-0.0139057	0.0142493
0.00325194	-0.00349422	-0.00541717
0.00222731	0.0389714	-0.0386815
0.00421665	0.00498742	-0.00501523
0.00829561	-0.018296	0.0153511
0.00103267	0.086677	-0.0812289
0.00181406	-0.000449945	0.000886442
-0.0126516	-0.0208285	0.0243317
0.00700326	0.0135534	-0.00833727
0.00107174	-0.0494711	0.0529111
0.00509016	0.00516569	-0.00510829
0.0256776	-0.0319904	-0.0253213
0.00713819	-0.0173207	0.0172479
-0.011309	0.0112263	0.00748766
0.00215128	-0.0162005	0.0173243
-0.00690664	-0.00485033	0.00691921
-0.015528	0.0155319	0.0119754
-0.00177681	-0.0243394	0.0282168
-0.00865657	0.00811321	0.00850939
0.00325417	-0.0480926	0.0472035
0.00491519	0.00470949	-0.00495169
-0.00069904	-0.000446866	0.000543996
-0.0316162	-0.068885	0.0801286
0.0525125	-0.0429725	-0.0525125
0.000313386	0.0573068	-0.0576656
-0.0100846	-0.0380338	0.0335597
-0.00806996	0.00721601	0.00888212
-0.00224082	0.0220163	-0.0120376
-0.0139262	0.00341922	0.0078033
-0.00269237	-0.00630334	0.00483219
-0.057955	-0.0866853	0.107176
0.00507965	-0.00456885	0.00141749
-0.0282815	-0.00863942	0.0278246
0.0506432	-0.00515058	-0.0440373
-0.00332491	0.0661878	-0.066087
0.00793146	-0.00986043	-0.00830766
0.00561552	-0.0260869	0.0257756
0.00440519	0.00236528	-0.00447047
-0.00707295	0.00166758	0.00628184
-0.00409652	0.0822488	-0.0823742
-0.0155453	0.0136586	0.0155392
0.00108143	-0.00953727	0.00935066
-0.0121109	-0.283524	0.28118
-0.00971014	0.00733099	0.00953676
-0.00707279	0.00180084	-0.000330152
0.0185946	-0.0166161	-0.0149138
0.00275291	-0.00753949	0.00696444
0.00605448	0.00652304	-0.00603482
-0.00233352	0.0032428	0.00196992
0.00535158	-0.0523773	0.0395958
-0.0313744	0.00083974	0.0301604
0.00357458	-0.0446629	0.0447005
0.00638047	0.00841297	-0.00793468
-0.00794636	-0.00987417	0.0130176
0.0105842	0.00928872	-0.00965332
-0.00629642	0.0111429	0.00631168
-0.00740086	0.140202	-0.130774
-0.00396211	0.00166755	-0.00135411
-0.00632596	0.0151702	-0.014985
-0.0225596	0.0147449	-0.00160489
-0.00383963	-0.00214851	0.00198397
0.00606209	-0.0480769	0.0478008
-0.00704459	0.00758971	0.00773988
0.00276366	-0.0249107	0.0235786
0.00103267	0.086677	-0.0812289
-0.00643503	0.00642654	0.00447491
0.0155997	-0.0153008	0.0145381
-0.00420524	0.00714606	0.00435902
-0.00184518	0.018536	-0.0190897
0.00599614	-0.146124	0.144457
0.00341175	-0.00353013	-0.00352866
0.00241931	-0.0093588	0.00911773
0.00740471	-0.00907218	-0.0133905
-0.0227732	0.0732802	-0.0728939
0.0107614	-0.509429	0.50652
-0.00177681	-0.0243394	0.0282168
-0.0380431	-0.036843	0.0365569
0.0250965	-0.0207148	-0.0250456
0.00414672	-0.0088481	0.00820888
-0.00837768	-0.0130445	0.0114355
0.00736762	-0.0317659	0.0304874
0.000397169	0.00036794	-0.000383493
-0.0219054	0.0221958	0.0219436
0.0040729	-0.048292	0.0486077
-0.00417656	0.00533977	0.00383865
-6.0805e-05	0.0650059	-0.0651361
6.49802e-05	0.0361333	-0.0332491
-0.00450111	0.00560654	0.00680242
4.6552e-05	-0.00688222	0.0074768
-0.00490668	0.00387157	0.00483236
0.0062027	-0.0118269	0.0117028
0.000899351	0.00068912	-0.000909602
-0.0168237	0.0167292	0.0169811
-0.0312518	0.00762148	0.0217844
-0.00704459	0.00758971	0.00773988
0.00145059	-0.0387199	0.0383845
-0.00547737	0.00170714	0.00587377
0.0829056	-0.0802336	-0.083214
-0.00994742	-0.0134512	0.00978815
-0.0145195	0.0140788	0.010407
-0.00285126	0.00451091	-0.00384163
-0.00087701	-3.01391e-05	0.000906197
-0.0206697	0.0352181	-0.0366671
0.00458485	0.00317315	-0.00346143
-0.0127748	0.00844515	0.0126205
-0.0491976	0.0525342	-0.0571085
-0.000978261	-0.00158298	0.00287135
-0.00919933	0.0374755	-0.0354086
-0.00504437	0.0112069	-0.00794393
-0.00954965	0.00809304	0.00835
0.00392293	-0.0343985	0.0343678
0.0904319	-0.0892617	-0.0905707
0.00598149	-0.0438228	0.0427977
0.00713397	0.00480273	-0.00682863
-0.00837926	0.00817712	0.00527994
-0.0362469	0.0362851	-0.026724
-0.0109393	0.0127698	0.0108697
-0.000384347	0.0173791	-0.017538
-0.00506241	-0.00537279	0.00505335
-0.0146574	0.0148317	0.0148465
0.005781	0.0152762	-0.0188541
-0.0130473	0.00658189	0.0131008
0.00330888	-0.0446383	0.0445491
0.00572834	-0.0513104	0.0508087
0.00829561	-0.018296	0.0153511
0.00473663	0.0162277	-0.014015
-0.0155558	0.0120778	0.0152591
0.00232892	0.0104634	-0.00973611
0.000397169	0.00036794	-0.000383493
-0.00169461	0.0127596	-0.00937236
0.001155	0.000937097	-0.00116858
0.0283916	-0.033725	-0.0255281
-0.0509593	0.0941227	-0.0936365
0.0372546	-0.0364043	-0.0374646
0.00475693	-0.00489602	0.00487918
-0.0174982	0.0105711	0.00512438
-0.00442903	0.0025097	0.00580633
0.000179958	-0.0377432	0.0393133
0.100092	-0.045887	-0.100082
0.00312922	-0.022415	0.0209239
-0.0352802	-0.0272876	0.0340675
-0.00982634	0.00422787	0.00989657
-0.0227986	-0.0990411	0.122009
0.00434324	-0.00511266	-0.00425423
0.00164713	-0.0200026	0.0214355
0.0084605	0.0364596	-0.0380801
0.00947063	-0.0103934	-0.00840196
-0.0619918	-0.175136	0.182711
0.137984	-0.14392	-0.138024
0.00227097	-0.0453161	0.0455883
0.00540703	0.0047985	-0.00533062
0.00555404	-0.00545443	0.00438018
0.00292299	0.00241013	-0.00299168
0.00491471	-0.00573268	-0.00516429
-7.82023e-05	0.0328097	-0.0364619
0.000569381	-0.0187641	0.0189317
-0.0034985	0.0287645	-0.0274675
0.0028113	0.00549281	-0.00484032
0.0329094	-0.0104668	-0.0351139
0.00713819	-0.0173207	0.0172479
0.00474342	-0.00653069	-0.00349061
-0.0382233	0.0292459	-0.0195612
0.00535909	0.0970594	-0.0989377
0.0198114	-0.0197464	-0.0199143
0.000480338	-0.0166728	0.0174867
-0.00564982	0.00911155	0.00090844
0.00602056	0.000930517	-0.00129667
-0.0190096	-0.00248773	0.0190654
0.0321459	-0.0311815	-0.0311643
-0.0126443	0.0164114	-0.00274178
-0.0098025	0.00965219	0.00633172
-0.00308658	0.0572146	-0.0572415
0.00306669	0.00520958	-0.00302157
0.0010241	-0.00991949	0.0128284
6.49802e-05	0.0361333	-0.0332491
-0.00817121	0.00808161	0.00829551
0.00257804	0.00184991	-0.00340386
-0.0677349	-0.0712092	0.0698244
-0.00672132	0.0188722	-0.0179529
0.00911752	0.00905674	-0.00913116
-0.0104117	0.0107001	0.0103955
0.00761189	-0.0111373	0.0113294
0.000284248	0.000495879	-0.000714845
0.00327293	-0.00997886	0.00973268
0.00226944	0.00348082	-0.00308103
0.0278533	-0.027659	-0.027717
-0.0223478	0.0223263	-0.0246145
0.041856	-0.0416087	-0.0424223
0.0009325	0.0810875	-0.0801294
0.0037832	0.0041202	-0.00375616
0.0212109	-0.0204578	-0.0206675
0.0220821	0.0234577	-0.0393392
0.0132299	-0.0234404	-0.0160859
-0.00261852	0.0812281	-0.0814611
0.00284968	0.00138252	-0.00269087
0.062308	-0.061681	-0.0621768
-0.0026742	0.00272734	0.00305391
-0.000169761	0.00199699	2.67482e-05
0.0061396	-0.0429555	0.0418561
0.000255193	-0.000949991	0.00167956
0.0196695	-0.0198112	0.0153797
-0.0185348	-0.0181324	0.018398
0.0291871	-0.0263034	-0.0288293
0.00133205	-0.020693	0.0207063
0.0427944	-0.0432223	-0.0487326
0.00137613	-0.0175915	0.017786
0.0105842	0.00928872	-0.00965332
0.00481736	-0.00734575	-0.00604187
-0.00300306	0.0176895	-0.0181161
0.0118787	-0.0121713	-0.0118918
-0.00363498	0.0220338	-0.0219886
-0.0253853	-0.0268885	0.0278496
-0.0222121	0.0219876	0.0223969
-0.00722997	-0.14591	0.147413
0.0160741	0.00878323	-0.017033
-0.000408591	0.104943	-0.105941
0.00846839	0.00830397	-0.0084774
-0.00830601	0.00589514	0.0104877
0.00579212	0.0502496	-0.0454226
0.00299689	-0.000712464	0.000535027
0.00800039	-0.0495952	0.0494849
0.00370341	0.00365108	-0.00370211
-0.0324347	0.0324848	-0.0277532
-0.00651803	-0.00483762	0.00307546
-0.00218191	0.00168911	0.00285662
-0.0014453	-0.0140602	0.0149365
-0.0201519	-0.0312802	0.0270767
-0.00359872	-0.00968857	0.0124521
0.00782801	0.00192505	-0.00414303
-0.00509617	0.000754469	0.0082225
0.00800039	-0.0495952	0.0494849
0.000836709	-0.00218353	-0.000684219
0.00320655	-0.0252289	0.0263507
-0.0198026	-0.0636622	0.069276
0.0315748	-0.0316182	-0.0315725
0.00829561	-0.018296	0.0153511
0.0630904	-0.0601096	-0.0630896
-0.00169443	-0.0335954	0.0338306
0.00573271	0.00479499	-0.00568099
0.00451008	0.00439286	-0.00503644
-0.0100087	0.00213928	0.0066606
0.0372356	0.000149505	-0.0371937
-0.00202235	0.45612	-0.453922
-0.00158278	0.0348253	-0.0303308
-0.0170155	0.0158704	0.0171313
-0.00294922	-0.370851	0.367641
0.00181406	-0.000449945	0.000886442
-0.00848698	-0.00264861	0.00100563
-0.00506173	-0.0144302	0.0161886
0.0150268	0.0995262	-0.11336
0.000504961	-0.00414533	0.00129497
0.00172875	0.00675908	-0.00250478
-0.0329908	0.0375895	-0.0378374
0.000786227	-0.000859151	-0.000921255
-0.00235859	0.0688455	-0.0668936
0.0106127	0.0428736	-0.0457336
-0.0270535	0.00931122	0.0266384
-0.0255013	0.0256622	-0.0243718
0.0802753	-0.0800261	-0.0803917
-0.00874711	0.628743	-0.628602
-0.00207988	-0.378935	0.375708
0.0128637	-0.0157268	-0.0130874
-0.00222586	-0.000846408	0.00296202
0.0549047	-0.053918	-0.0544896
0.00143562	0.249679	-0.249918
0.00736375	0.00741534	-0.00735829
0.0995986	-0.0993732	-0.0995923
0.0311727	0.0509577	-0.0721199
0.00868322	-0.000174067	-0.00852702
0.00640425	-0.0486543	0.0485753
0.00508289	0.00586156	-0.00506174
0.00191923	-0.0128607	0.0141372
0.00605448	0.00652304	-0.00603482
0.0110378	-0.0131049	-0.00986178
0.00686913	-0.0154764	0.0174734
0.00285917	-0.0123065	0.0107872
-0.00169461	0.0127596	-0.00937236
0.00603323	0.00741529	-0.00736828
-0.00229092	0.00208455	0.00122069
-0.00381419	0.0747174	-0.0740477
-0.013886	0.0128286	0.0140162
-0.00342397	-0.0301968	0.0303242
0.00155414	0.00114027	-0.00159527
-0.0263161	0.0257138	0.026497
0.00231693	0.296446	-0.292822
-0.0105416	-0.00641579	0.00728068
0.00280557	-0.0176664	0.0183507
0.00462232	0.0420634	-0.0388759
-0.0111375	0.00533806	0.0134257
0.00431813	0.00941334	-0.00814901
-0.0149197	0.0137585	0.00724586
-0.00750708	0.41181	-0.412169
0.00562374	0.00183335	-0.00568236
0.0128038	-0.0251456	0.0203184
-0.0324199	-0.020746	0.0324162
-0.00233352	0.0032428	0.00196992
-0.0346744	0.107683	-0.108339
0.00479473	0.00551182	-0.00478836
-0.00578872	0.00280025	0.000839445
0.00846839	0.00830397	-0.0084774
-0.0103646	0.0104403	0.0105358
-0.112963	0.250157	-0.25217
-0.00806996	0.00721601	0.00888212
0.00486801	-0.0466533	0.0466107
-0.0126358	0.00474457	-0.00427736
-0.0148412	0.0145798	0.0139581
0.00459554	0.0150244	-0.0139711
0.00568734	-0.00920455	-0.00143028
0.00113725	-0.0396014	0.0403402
-0.00222586	-0.000846408	0.00296202
0.0350767	-0.0345556	-0.0348955
0.00934144	-0.00258712	-0.00132525
0.0276116	-0.027607	-0.0276116
0.00571374	-0.0160711	0.0156103
-0.0014017	-0.00133344	0.0013938
0.0500267	-0.0500824	-0.0501446
0.00491588	0.0279485	-0.0256431
-0.0112884	0.00423255	0.0130781
-0.00332991	0.01361	-0.0126978
0.00226944	0.00348082	-0.00308103
-0.0017172	0.00133745	-0.00319409
0.00607222	0.00334141	-0.00612219
-0.0110522	0.0142276	0.0112191
0.0012245	-0.0400809	0.0400716
-0.0191672	-0.0334552	0.00674093
0.00866575	-0.0493223	0.049231
0.00774496	0.0141986	-0.012502
-0.00733158	0.0144855	0.00756651
-0.00941394	0.0531154	-0.0532672
-0.0064866	0.0051006	0.00687614
-0.00625391	0.133131	-0.132489
-0.000264771	0.0003309	0.00026563
0.0734948	-0.0712715	-0.0736047
-0.0290203	0.000640172	0.0174289
0.0210699	-0.0197338	-0.0208496
0.00257804	0.00184991	-0.00340386
0.00243658	0.00489786	-0.00201079
0.00917604	-0.00981444	-0.00882026
0.00968493	0.0530115	-0.0542933
-0.0245952	0.0145712	0.0242967
0.00151114	-0.0445799	0.044377
-0.00651803	-0.00483762	0.00307546
-0.000276394	0.000235515	-0.00520423
0.0104114	0.0268626	-0.0309012
-0.0176139	0.00354653	0.015837
-0.000851955	0.209996	-0.210669
0.00379261	0.000576491	-0.00326501
-0.0346358	0.0368851	-0.0352761
0.001155	0.000937097	-0.00116858
-0.000471513	-0.000867308	0.000470815
-0.00121189	0.00748743	-0.00735905
-0.00370529	0.00414501	0.0049148
-0.00157421	0.0278054	-0.0274054
0.000752325	0.0034655	-0.000837539
-0.0160711	0.0152014	0.0147935
-0.0136431	0.0407685	-0.0396148
0.0133558	-0.0129244	-0.013447
0.00400203	-0.00300607	0.00345118
-0.0133008	0.0706855	-0.0728001
0.0445192	-0.0451646	-0.0445154
0.00335128	0.014775	-0.0150029
-0.0127871	0.0157501	0.00963782
0.00298411	-0.0477036	0.0475678
0.00443087	-0.046582	0.0463674
-0.00759568	0.00915746	0.00812592
0.00226944	0.00348082	-0.00308103
0.00313511	-0.00203332	0.000259489
-0.00216661	0.00114943	-0.000803283
0.00226944	0.00348082	-0.00308103
-0.00086813	-0.0179541	0.021307
-0.054691	-0.0507355	0.0541922
7.18921e-05	0.00369633	4.10451e-05
-0.00216974	0.00817181	-0.00761571
0.044872	-0.0451366	-0.0446399
0.00376901	-0.00121934	0.000798251
-0.00555967	0.0110003	0.00496644
-0.0150788	-0.0083348	0.019027
0.00137613	-0.0175915	0.017786
-0.00685819	0.00759886	0.00657982
-0.0034985	0.0287645	-0.0274675
-0.000264771	0.0003309	0.00026563
-0.00846682	0.00925805	0.00946402
0.00455528	4.76805e-05	0.00338732
0.0291908	-0.027625	-0.0291907
0.00702553	-0.0207354	0.0202462
0.000452119	-0.21182	0.209918
0.0161541	-0.0167849	-0.0161532
-0.0507866	-0.147747	0.194092
-0.0177863	0.0164303	0.0177819
-0.00121189	0.00748743	-0.00735905
0.001155	0.000937097	-0.00116858
-0.22081	0.224172	-0.0624319
0.001155	0.000937097	-0.00116858
0.00111537	0.0030187	0.000902806
0.00418789	-0.0588562	0.0576756
-0.00941808	-0.0261208	0.0310172
-0.00420175	-0.0160528	0.0155217
-0.00158674	0.0267283	-0.0180517
-0.00178804	0.00756309	0.000477369
0.00606209	-0.0480769	0.0478008
0.0210563	-0.0213558	-0.0211677
-0.000955828	0.0117202	-0.0115379
-0.000786421	0.134469	-0.138425
-0.00231649	0.0119706	0.00234167
6.31927e-05	-0.0151783	0.0162379
-0.00201791	0.00776566	0.00089525
0.00384047	-0.0482024	0.0487758
0.00846839	0.00830397	-0.0084774
0.0122677	-0.00860254	-0.0123628
0.000462233	0.0508465	-0.0428685
0.25001	-0.249993	-0.250011
0.00311428	-0.0459792	0.0458363
-0.00874142	0.0150948	-0.00525668
-0.00158915	-0.00201853	0.00143572
-0.0813751	-0.070142	0.081376
-0.01661	0.0133487	0.0129253
0.00120458	-0.0375263	0.0376973
-0.0724198	-0.0206835	0.0727955
0.0116597	-0.0276629	0.0231636
0.0084087	0.0635377	-0.0651363
0.0129396	-0.0137668	-0.0118957
0.00154482	-0.0137671	0.0128812
0.0248118	-0.0257567	-0.0247966
0.000340299	0.235162	-0.232885
0.00427904	0.000932675	-0.00389088
0.011293	-0.0107196	-0.0100616
0.00521549	0.0329032	-0.0366868
0.0620744	-0.0625114	-0.0619965
0.00758228	0.0226882	-0.0253289
-0.000438819	4.90408e-05	0.000469706
-0.00719146	0.00233421	0.00661013
0.00431813	0.00941334	-0.00814901
0.0112261	-0.0116659	-0.0111127
-0.0105234	-0.0247129	0.0264523
0.00735987	0.0122332	-0.0108144
0.341312	-0.341316	-0.341312
0.0404569	0.0304927	-0.060002
-0.0137898	-0.00267543	0.0169328
-0.00924109	0.0507875	-0.0523708
-0.0126443	0.0164114	-0.00274178
0.00855909	0.00506867	-0.0101314
0.00483996	0.00125753	-0.00444634
0.00335662	-0.0110561	-0.00436413
0.00189008	-0.0139488	0.0126096
0.0129382	0.00820757	-0.0165934
0.00233647	-0.0166715	0.0194907
0.00443087	-0.046582	0.0463674
2.43038e-05	0.00554782	-0.00230053
0.00137434	0.0145343	-0.014753
0.0142217	-0.0145587	-0.0143077
0.00185118	-0.0346444	0.0339272
0.00401806	0.00222629	-0.00408468
-0.00939748	0.00599693	0.00906779
0.0331909	0.414622	-0.4445
-0.0271834	-0.0101114	0.0283934
0.00120458	-0.0375263	0.0376973
-0.0186983	-0.0191565	0.0186839
0.031612	-0.0329906	-0.03204
0.0019211	-0.0167459	0.0168884
-0.00819047	-0.0205186	0.0128393
0.003827	-0.0449012	0.044858
-0.00590298	0.0107295	0.00570474
-0.000358943	-0.0102213	0.0133936
-0.0422221	-0.0416328	0.0422633
-0.00606097	0.00476785	0.00463643
-0.00312522	0.0103945	-0.0095723
-0.0126443	0.0164114	-0.00274178
-0.00086813	-0.0179541	0.021307
0.00658279	0.00695388	-0.00656934
-0.00874153	0.0101393	0.00861995
0.00800039	-0.0495952	0.0494849
-0.00738304	0.00802949	0.00641563
0.00392293	-0.0343985	0.0343678
-0.00239225	-0.00124351	0.00322894
-0.0242236	0.00916375	0.0241951
-0.00687	0.639344	-0.640025
-0.0101436	0.00996891	0.0100597
-0.0151961	0.0150013	-0.0160411
-0.000310076	0.00100987	0.00234726
-0.0150542	0.0170259	0.0154122
0.00334667	0.0196808	-0.0163574
0.0152227	-0.0158939	-0.0152231
0.00330888	-0.0446383	0.0445491
0.00218395	0.00388324	-0.00189596
-0.00708507	0.00864292	0.00754069
0.0130709	0.0113327	-0.0176958
0.000134579	0.00127782	3.81236e-05
0.000416568	-0.00291044	0.00140277
-0.0014017	-0.00133344	0.0013938
0.0140894	-0.0173654	0.0129395
0.000336142	0.00229309	-0.000513103
-0.0107527	0.0106672	0.0106667
0.00384047	-0.0482024	0.0487758
-0.0441604	0.0195478	0.0159443
0.00151114	-0.0445799	0.044377
0.00059867	0.0269143	-0.0237668
-0.0143842	0.00782232	0.0145735
0.00739797	-0.00371492	0.00386697
-0.0148412	0.0145798	0.0139581
0.00687992	-0.0120271	0.0117742
0.0062527	-0.0821697	0.0810391
-0.0236089	0.0231782	0.0238097
-0.000780643	0.00378052	0.000886147
0.0692942	-0.0697141	-0.0694666
0.00232269	-0.0294806	0.0284141
0.00501365	0.00534748	-0.00502684
0.0336179	-0.0337923	-0.0339708
0.00924521	-0.00959531	0.00568583
-0.0162349	-0.00233843	0.0184693
-0.00253748	0.0354955	-0.0350897
-0.0366998	-0.089598	0.0904062
-0.0324347	0.0324848	-0.0277532
0.00132618	0.00141045	-0.00133559
0.00181406	-0.000449945	0.000886442
0.0012753	0.00530074	-0.00543531
0.00603323	0.00741529	-0.00736828
-0.0207998	0.0128257	-0.0120618
-0.0152657	-0.00330909	0.0153095
0.0180996	-0.0138632	-0.0182526
0.00739288	-0.0259311	0.0258911
0.0251391	-0.0241242	-0.0250195
0.00222731	0.0389714	-0.0386815
0.00508289	0.00586156	-0.00506174
-0.0195309	0.00934189	0.0197317
0.0114611	-0.0123113	0.0123475
-0.038425	0.0195634	0.0384047
0.00133205	-0.020693	0.0207063
0.00243395	0.00444829	-0.00240383
-0.0221158	0.0221711	0.0221218
0.00237544	-0.0247318	0.00177876
0.00208414	-0.00171027	-0.00212521
4.76469e-05	-0.0110183	0.0111078
0.00435877	0.00465529	-0.00435447
-0.0252348	0.0141793	0.0250806
0.0351427	-1.30779	1.25984
-0.00892844	0.00779405	0.0096657
-0.0126322	0.0212045	-0.0190693
-0.00275359	-0.00249202	0.00419309
0.0146234	0.151455	-0.165611
-0.057932	-0.00997646	0.0104228
0.0525527	-0.0518129	-0.0525614
0.0024676	0.244195	-0.245876
-0.00148595	-0.000926792	0.00299379
0.00427569	1.28092	-1.28454
0.0162684	0.00779694	-0.0109608
-0.00423682	0.00427666	0.00281429
0.00711809	-0.00563693	0.00357928
-0.00473514	0.00354175	0.00467508
0.00504686	-0.00874259	0.0110377
-0.0014017	-0.00133344	0.0013938
-0.01661	0.0133487	0.0129253
0.00256685	-0.0139057	0.0142493
0.114848	-0.11484	-0.114848
-0.0167137	0.00536081	-0.00520893
0.00616337	0.00351721	-0.00618031
-0.00886146	0.00702195	0.0114672
0.0316121	0.04746	-0.0728536
1.42349e-05	0.00134521	-0.000575355
0.00420746	-0.0128607	0.0125852
0.000985472	0.000680581	-0.000990824
0.0116597	-0.0276629	0.0231636
-0.00194588	-0.00161407	0.00333269
-0.00130031	0.00274503	0.00392088
-0.00181127	0.00911605	-0.0092065
6.8237e-05	0.0132281	-0.0147109
0.00613183	-0.00606235	0.0035492
-0.0265851	-0.00761812	0.0267856
0.00947147	-0.00741233	-0.00898373
-0.00363498	0.0220338	-0.0219886
0.165933	-0.164352	-0.166334
0.00293863	-0.00936054	0.00965169
-0.00252349	-0.64518	0.644034
-0.00698735	-0.00144639	0.00695737
0.0122965	0.0775402	-0.0891033
0.00610802	-0.00389112	-0.0124425
0.0012245	-0.0400809	0.0400716
-0.0168359	0.0250099	-0.00482832
-0.0124436	0.0106085	0.0127189
0.0571155	-0.414028	0.363021
0.0105409	-0.0189259	-0.0105412
4.6552e-05	-0.00688222	0.0074768
0.00363642	0.00484575	-0.00359186
-0.005619	0.00759438	0.00540486
-0.072329	-0.0731595	0.0723265
-0.00191785	0.00743839	0.002972
-0.0296849	0.0324383	-0.0289574
0.00605448	0.00652304	-0.00603482
0.0038657	-0.0259691	0.0270289
-0.0109115	-0.0453093	0.0390348
0.00777605	-0.00676319	-0.00792979
-0.000408591	0.104943	-0.105941
-0.0109338	0.0155743	0.0107549
0.00296462	-0.00592029	0.00554234
0.00284968	0.00138252	-0.00269087
-0.00564982	0.00911155	0.00090844
-0.00342397	-0.0301968	0.0303242
0.0321429	-0.0320405	-0.0321541
-0.00114757	0.00490774	-0.00516622
0.00846839	0.00830397	-0.0084774
-0.0143202	0.0111144	0.0148284
0.00880099	-0.0132352	0.00995697
0.0127791	0.00666629	-0.0194986
0.00325417	-0.0480926	0.0472035
0.00540703	0.0047985	-0.00533062
-0.00997107	0.00653644	0.00708924
-0.0125935	-0.0766913	0.0705813
0.0148257	0.0127624	-0.0148152
-0.00200154	0.00286481	-0.00278842
0.00490848	0.00511125	-0.00489489
-0.0754468	0.0752908	-0.0757289
0.00846839	0.00830397	-0.0084774
-0.00474978	0.00268116	0.00690953
0.00120458	-0.0375263	0.0376973
-0.0155433	0.052119	-0.0607321
-0.0216766	0.00899854	-0.0133163
0.00134177	0.00235127	-0.00137931
0.00204383	0.00349253	0.000141811
0.0012352	0.0213562	-0.0214609
-0.00210237	0.00299563	0.00107163
0.000639609	0.0667606	-0.0662257
0.00483996	0.00125753	-0.00444634
-0.00400733	0.0082944	0.00379374
-0.000358943	-0.0102213	0.0133936
-0.00243825	0.00349291	0.00194958
-0.00184518	0.018536	-0.0190897
-0.0102859	-0.0434018	0.037672
-0.00218594	0.00405691	0.00436043
0.0130709	0.0113327	-0.0176958
0.0342011	-0.0304893	-0.034655
0.000819805	-0.0418823	0.0417022
0.00401806	0.00222629	-0.00408468
0.00107174	-0.0494711	0.0529111
-0.0608932	-0.0403714	0.0608442
-0.00640145	0.00739674	0.00335168
0.00338085	-0.0205198	0.0207173
0.00509016	0.00516569	-0.00510829
-0.00883869	0.0257261	-0.0225698
0.00455961	0.00899478	-0.0079753
0.079164	-0.0794519	-0.079088
-0.0207291	0.545893	-0.547638
0.0238845	-0.0237401	-0.0237212
-0.0140022	0.0208267	-0.0215242
0.000353335	0.0587288	-0.051932
-0.00593784	0.00558796	0.00726985
-0.00691361	-0.00364222	0.00532515
0.0286145	-0.0353444	-0.0287093
-0.0392171	0.040132	-0.0312702
0.000899351	0.00068912	-0.000909602
-0.00687215	0.00493729	0.0091499
0.00824978	-0.0016629	0.00181254
0.0198929	-0.0231049	-0.0198929
0.000819805	-0.0418823	0.0417022
-0.019379	0.0277434	-0.031684
-0.0122821	0.00898034	0.0129221
0.00201039	-0.284037	0.292223
0.00111537	0.0030187	0.000902806
0.00032108	0.0161454	-0.0150324
0.00508289	0.00586156	-0.00506174
-0.0177517	0.00329878	-0.0077269
-0.00524292	0.0109147	-0.00517945
0.0108575	-0.0113923	-0.00939353
-0.00189283	0.0543122	-0.0537036
-0.0021738	-0.0428775	0.0419331
0.00627732	-0.0241898	0.024438
0.00366026	0.0258121	-0.0223785
0.014221	-0.0259756	-0.0145785
0.00654371	-0.0304188	0.030391
-0.00376234	0.0044462	0.00244819
0.00189008	-0.0139488	0.0126096
-0.000993828	-0.00111198	0.000990859
0.0175862	-0.0121108	-0.0168642
-0.00115491	-0.0110428	0.0128494
0.0172444	-0.00634143	-0.0166215
0.0017064	-0.0396792	0.0403337
0.00812	0.069917	-0.0712917
-0.0122821	0.00898034	0.0129221
0.00237367	0.0252706	-0.0207505
-0.00850691	0.000793735	0.0119357
0.00713819	-0.0173207	0.0172479
-0.0115538	-0.0120569	0.0121027
-0.00333245	0.010735	-0.0159047
-0.0120713	0.0172164	-0.00746348
-0.0160729	0.00237256	0.0142003
0.00387632	-0.0412305	0.0413974
0.00728906	0.00593058	-0.00772365
-0.00794636	-0.00987417	0.0130176
0.00363642	0.00484575	-0.00359186
-0.0023751	0.00248718	0.00258909
0.00754345	-0.0241125	0.0242393
0.00181406	-0.000449945	0.000886442
0.00255107	-0.0130513	0.0133137
-0.00150767	-0.0748104	0.0684919
-0.0279433	-0.000561488	0.0278979
0.00160013	-0.00825093	0.00879691
-0.0113029	0.0124111	0.0074236
-0.0545382	0.0545978	-0.0449964
-0.021524	-0.0187127	0.0193103
0.045692	-0.0458684	-0.0457693
0.0138119	-0.03271	0.0215566
-0.0194737	0.0201289	0.0194749
-0.00308658	0.0572146	-0.0572415
0.00363642	0.00484575	-0.00359186
-0.00218191	0.00168911	0.00285662
-0.0514696	-0.0375328	0.0512739
0.00415953	-0.0129171	-0.00289881
-0.00445384	-0.00425896	0.0045684
0.000985472	0.000680581	-0.000990824
0.00411735	-0.0089587	0.00671463
-0.000333604	-0.00206048	0.00379002
-0.00337688	0.00258952	0.00509748
0.000225273	0.412372	-0.414384
-0.0119168	-0.0374237	0.042818
-0.00173267	0.00708226	-0.00790785
0.0028505	-0.01189	0.0125632
-0.00998873	0.0101574	0.00771267
-0.000316201	0.0259328	-0.0257755
-0.0114641	0.0106695	0.0106349
0.00473633	-0.00659508	0.00640329
-0.0167265	-0.0142357	0.0206843
-0.0108723	0.0073839	0.0113016
-0.0204932	-0.0611037	0.0648699
-0.00137647	0.00143233	0.00130142
0.00154482	-0.0137671	0.0128812
0.00685098	0.0109501	-0.0132634
-0.00401073	0.00778089	0.00489502
0.00114805	0.0333409	-0.0280448
0.00360954	-0.0124475	0.000292163
-0.00489709	-0.0210115	0.0221118
-0.0146282	0.0159147	-0.003286
0.00507965	-0.00456885	0.00141749
0.00914595	0.0494285	-0.0498248
0.0796209	-0.0804624	-0.0795896
0.00189008	-0.0139488	0.0126096
-3.13543e-05	0.00407975	7.28949e-05
0.00477141	-0.000625243	-0.0040689
-0.00164767	0.00618399	0.00190956
-0.000638988	0.00115142	0.00188579
-0.000207425	-0.000334735	-0.000130032
0.0187923	-0.0216564	-0.0188296
-0.0535059	0.121652	-0.122956
0.00605448	0.00652304	-0.00603482
0.0149893	-0.0156778	-0.0142949
-0.00897466	-0.0109042	0.0113535
0.00926709	-0.00885087	-0.00905537
0.00327518	-0.0495054	0.0500848
-0.0357019	-0.147876	0.144323
0.0302026	-0.035171	-0.0351218
-0.00136474	0.0440545	-0.0404966
0.018912	-0.0189311	-0.0218549
0.00640425	-0.0486543	0.0485753
0.00674364	0.00425581	-0.00674003
-0.0114798	0.00839089	0.0125763
0.00501365	0.00534748	-0.00502684
0.0735472	-0.0384399	-0.0748346
0.00403165	-0.00594249	0.00562848
-0.0118977	-0.0139656	0.0133613
-0.0149181	0.0232696	-0.0275929
-0.000264771	0.0003309	0.00026563
-0.010637	0.010288	0.0102917
0.00276366	-0.0249107	0.0235786
0.00577983	-0.00667874	-0.00561023
0.00207322	-0.030669	0.0314836
0.00440519	0.00236528	-0.00447047
0.0537819	0.00605624	-0.0491887
0.000674679	0.0306208	-0.0302298
0.0315038	-0.00700775	-0.0323415
0.00378509	-0.00115757	0.00107212
0.00161204	-0.00391296	-0.000984433
-0.0150034	0.0112816	0.0155313
-0.0221225	-0.0532755	0.0545448
0.0168396	-0.0172356	-0.0169014
0.00283223	-0.0193921	0.0193942
0.000686131	0.000355162	-0.000690173
0.0420574	-0.0439283	-0.040627
0.0032624	0.0193076	-0.0148404
-0.0214252	0.0214194	0.0214267
0.0021955	0.0169635	-0.0173971
0.000397169	0.00036794	-0.000383493
-0.00177681	-0.0243394	0.0282168
-0.000438819	4.90408e-05	0.000469706
-0.0236089	0.0231782	0.0238097
0.00133205	-0.020693	0.0207063
-0.0287423	-0.0236299	0.0185397
-0.00139079	-0.0190482	0.0228198
0.00613866	-0.111775	0.113484
-0.0220735	0.0150432	0.0222729
-0.000274656	-0.00360814	0.00411524
0.00554551	-0.0107629	-0.00173717
-0.00900758	0.0501438	-0.051806
0.00479473	0.00551182	-0.00478836
-0.0200253	0.00735746	0.0169873
-0.00086813	-0.0179541	0.021307
0.0331189	-0.03486	-0.031073
0.00314031	-0.0419671	0.0406003
-0.00836946	-0.00209071	0.00721869
-0.00397477	0.00545692	0.00590431
-0.00137466	0.0277635	-0.020032
0.011319	-0.0100703	-0.00804926
-0.000909705	-0.0038491	0.00296985
-0.00562105	-0.00230807	0.0044041
0.0212245	-0.0210289	0.0187629
-0.0192729	-0.0717966	0.0736268
0.0063888	-0.00508724	-0.00472067
-0.00232978	-0.002574	0.00297855
0.00241931	-0.0093588	0.00911773
0.0117316	0.0644799	-0.0727788
-0.00274515	0.0138228	-0.0130442
-0.00860425	0.0112842	0.00879105
-0.0760673	0.0679611	-0.0681354
-0.00518192	0.00283796	0.00529858
0.0021955	0.0169635	-0.0173971
-0.017339	-0.0243318	0.02302
-0.0143472	0.0139258	0.014208
0.00518876	-0.00222284	0.0037071
0.0480771	-0.0390331	-0.0480827
0.00973066	-0.0126394	0.0130601
0.00835227	0.00806893	-0.00837097
0.00137576	-0.00109983	0.00044661
0.00824978	-0.0016629	0.00181254
-0.00926846	0.011381	0.00894527
-0.00232978	-0.002574	0.00297855
0.00241663	0.00326093	-0.00301827
-0.000725455	-0.000914724	0.000940172
0.00483996	0.00125753	-0.00444634
0.0665061	-0.0680055	-0.0665009
-0.00312522	0.0103945	-0.0095723
0.00479473	0.00551182	-0.00478836
0.00111579	-0.0156758	0.0157921
-0.017125	-0.0560724	0.0512523
0.0028994	0.00025504	-0.0029681
0.00389068	-0.0336258	0.032715
-0.0100087	0.00213928	0.0066606
0.00508997	0.00443682	-0.00417529
-0.00745231	0.0276827	-0.02475
0.00911397	-0.0390402	-0.00379151
-0.00199351	0.00827255	-0.00764806
0.00364107	-0.00483096	-0.00160925
0.00186276	0.0176889	-0.0180972
0.00607222	0.00334141	-0.00612219
-0.00652263	0.00687186	0.00720675
0.0117677	0.0160171	-0.024029
0.188795	-0.189056	-0.188794
-0.00332491	0.0661878	-0.066087
0.00341789	0.0595259	-0.0603945
-0.00865109	0.0112439	0.0051641
0.00421665	0.00498742	-0.00501523
-0.00170726	0.00264304	-0.00707629
-0.00127252	0.0470718	-0.0466506
-0.0232106	-0.00495609	0.0231954
0.0202096	-0.0202473	0.0156332
0.00457034	0.00728866	-0.00515194
-0.00397477	0.00545692	0.00590431
0.00207322	-0.030669	0.0314836
-0.0216758	-0.0206645	0.019804
0.00855909	0.00506867	-0.0101314
-0.000446798	-0.00766606	0.00403538
0.00491471	-0.00573268	-0.00516429
0.00669411	-0.0206454	0.0209085
0.0214192	-0.0217698	-0.014986
0.000631749	-0.012628	0.0127972
-0.0130869	-0.0479769	0.0455968
-0.0149197	0.0137585	0.00724586
0.00145059	-0.0387199	0.0383845
-0.00764147	0.00631311	0.00971006
-0.00245158	0.00284187	-0.00120501
-0.0409027	-0.0314111	0.0409788
0.0110382	-0.0113089	-0.0104125
0.00953271	-0.00500411	-0.00155278
-0.00902085	0.00776346	0.00901505
0.00669411	-0.0206454	0.0209085
-0.00690664	-0.00485033	0.00691921
-0.0160139	0.011341	0.0165713
0.00459822	-0.00952192	0.00615669
0.00616733	-0.00784529	-0.00544122
-0.0140895	0.0120161	-0.0105837
-0.00531409	-0.00490333	0.00531506
-0.000639828	-0.000458686	0.00337075
0.00483485	0.000392946	-0.00268755
-0.0208203	0.0122573	0.0188344
0.00454807	-0.047834	0.0467746
0.011636	0.000575238	-0.00840468
0.00254411	-0.0492205	0.0493496
-0.00184564	0.00206198	0.0026978
0.0114894	-0.0209145	-0.00739562
0.00757445	-0.0300009	0.0299486
-0.00766494	0.00719055	0.00769328
0.00414672	-0.0088481	0.00820888
-0.0485752	-0.230657	0.226091
-0.00151202	0.0030598	0.00165159
-0.0366608	0.00470222	0.0169276
-0.00740608	0.0133665	0.00642116
-0.018749	-0.00996655	0.0157778
-0.0223199	-0.902283	0.902279
-0.00354452	0.0104218	0.00329581
-0.0376999	-0.211885	0.249533
0.0289788	0.0034083	-0.0339673
-0.00312287	0.0171317	-0.0171041
0.00245448	-0.00265502	-0.00224674
0.0076663	0.0433089	-0.0515611
-0.00715474	-0.00752849	0.00714519
-0.00218594	0.00405691	0.00436043
0.00478459	-0.0327352	0.0322229
-0.0299956	-0.0214037	0.030725
-0.00254363	-0.0191158	0.019212
-0.0115538	-0.0120569	0.0121027
0.00313511	-0.00203332	0.000259489
0.000816174	0.021983	-0.0218061
0.133868	-0.13328	-0.13385
0.00409914	-0.00509493	0.00449344
0.00401806	0.00222629	-0.00408468
-0.0120315	0.00789762	0.0120082
-0.00316471	-0.00800736	0.00279972
-0.00119945	-0.00212123	0.000962236
-0.00264416	0.0664047	-0.0663088
-0.00807133	0.0253419	-0.0189803
-0.0359535	0.00912801	0.0353653
-0.00247982	0.00224405	0.00374015
-0.0323589	0.00382177	0.0321061
0.00298411	-0.0477036	0.0475678
0.00652294	0.00359773	-0.00650164
-0.00374792	0.00439621	0.00302828
0.00713397	0.00480273	-0.00682863
-0.0217817	0.00933226	0.0260673
0.00210599	-0.0282102	0.0272502
-0.0682962	-0.0183026	0.0679747
0.00233647	-0.0166715	0.0194907
-0.00965874	-0.00578715	0.00510231
0.00859955	-0.00417369	-0.0140664
0.00693563	0.000354923	-0.000175951
0.015181	-0.0157424	-0.0148984
0.000631749	-0.012628	0.0127972
0.00807708	0.00522562	-0.00801679
1.85096	-0.0658457	-1.83911
-0.0129948	0.156139	-0.155799
-0.0180104	-0.000616643	0.0179865
0.00296462	-0.00592029	0.00554234
-0.00087701	-3.01391e-05	0.000906197
-0.00808889	0.00619747	0.00803327
-0.00245208	-0.000816279	-0.000301413
0.0329748	-0.0255122	-0.0327009
-0.00190821	0.0401892	-0.0402374
-0.00869255	-0.0431737	0.0513178
-0.00429004	0.00744954	0.00469678
-0.00502308	0.0219461	-0.00980133
0.0860101	-0.020956	-0.0874162
-0.00369779	0.013423	-0.0137365
0.00526763	0.00510623	-0.00527394
0.000540692	-0.0119065	0.0147041
0.001155	0.000937097	-0.00116858
-0.00200484	0.00705144	0.00285708
0.00585871	-0.042006	0.0404996
-0.0115036	-0.00917224	0.0123299
0.000259259	0.00395666	-0.00448911
-0.0021738	-0.0428775	0.0419331
-0.00728761	0.00445576	0.00989578
-0.00480956	0.0226074	-0.022519
0.0128118	-0.0112625	-0.0128642
0.00454807	-0.047834	0.0467746
0.00540703	0.0047985	-0.00533062
-0.00158915	-0.00201853	0.00143572
-0.000639828	-0.000458686	0.00337075
-0.0444685	0.00954041	0.0437169
0.00693563	0.000354923	-0.000175951
0.00771371	0.0063185	-0.00756391
0.000981903	-0.00439206	-0.00241455
-0.000333604	-0.00206048	0.00379002
0.0499232	-0.0115634	-0.0501272
-0.00128514	0.0164168	-0.0161731
-0.011588	-0.0493159	0.0495383
0.00109673	-0.00237845	-0.00255449
0.001155	0.000937097	-0.00116858
-0.00756181	-0.00357884	0.0100479
-0.00334313	0.0268824	-0.025892
-0.00087701	-3.01391e-05	0.000906197
0.0132088	-0.0185789	0.014347
0.00652294	0.00359773	-0.00650164
0.00298416	-0.00259798	-0.0029991
0.00546281	-0.0134817	0.0130732
-0.00755	0.00740859	0.0083058
-0.00173078	-0.00333924	0.00329903
-0.0427548	-0.0438996	0.042528
-0.00234302	0.00615325	0.0010382
0.00560591	-0.0426251	0.0419522
0.0249368	-0.024666	-0.0237479
-0.00139079	-0.0190482	0.0228198
0.00367198	-0.0417027	0.0458785
-0.0150808	0.00166533	0.00949116
-0.00960006	0.0350539	-0.0288022
0.0595836	-0.059329	-0.0595911
0.00485975	-0.0631507	0.0617499
0.0028113	0.00549281	-0.00484032
-0.00674929	0.00558172	0.00523575
0.000478947	-0.00398224	0.007434
-0.0244367	0.00105104	0.0239718
0.00101609	-0.00266932	0.00121768
0.000985472	0.000680581	-0.000990824
0.000923721	-0.025621	0.0235612
0.00187576	-0.0561413	0.0507351
0.00602543	-0.00746353	-0.00594176
0.00257804	0.00184991	-0.00340386
-0.0847201	0.0460032	0.0374302
-0.00338413	-0.00368794	0.00434281
0.00114981	-0.0317343	0.0384062
-0.0150324	0.0148983	0.0150339
0.00640425	-0.0486543	0.0485753
-0.0159875	0.015164	0.0159011
-0.00479327	0.00775152	-0.00698589
0.000985472	0.000680581	-0.000990824
-0.00417471	0.00809782	0.00338879
-0.000809769	-0.027576	0.0301812
0.0525946	-0.046638	-0.0539505
0.00598149	-0.0438228	0.0427977
-0.0265851	-0.00761812	0.0267856
0.011293	-0.0107196	-0.0100616
0.000909242	-0.00471677	0.00579662
-0.0236295	0.0241494	0.0236258
0.00486801	-0.0466533	0.0466107
0.00761732	-0.00903082	0.00591065
-0.0114149	0.0153363	-0.0126849
0.00213468	-0.17118	0.168961
-0.0120414	-0.0123995	0.0157839
0.003827	-0.0449012	0.044858
0.00509016	0.00516569	-0.00510829
0.00397615	-0.0284551	0.0248864
0.0105842	0.00928872	-0.00965332
0.0715193	-0.0707209	-0.0717481
5.05708e-05	-0.0261806	0.0270598
-0.0145818	0.0118635	0.0115197
-0.00580585	0.103984	-0.103494
0.00377869	0.00985793	-0.00816654
-0.0098025	0.00965219	0.00633172
0.0061396	-0.0429555	0.0418561
-0.0034011	0.00272139	0.00349645
-0.00632596	0.0151702	-0.014985
0.00573271	0.00479499	-0.00568099
0.00680489	0.00590106	-0.0127471
-0.0191672	-0.0334552	0.00674093
-2.54215e-05	-0.000375367	0.000157373
0.0010247	-0.0424859	0.0422599
-0.0232106	-0.00495609	0.0231954
0.0259835	-0.0242105	-0.0251614
0.0019211	-0.0167459	0.0168884
-0.00633566	0.0060244	-0.000525185
-0.0491976	0.0525342	-0.0571085
0.00146143	0.00111628	-0.00146876
0.00111579	-0.0156758	0.0157921
0.00698477	0.0375054	-0.0393566
-0.0122821	0.00898034	0.0129221
-0.0028151	0.0414907	-0.0406121
-0.00136258	0.034922	-0.0307215
0.00746367	-0.0110988	0.00983123
0.00427904	0.000932675	-0.00389088
-0.00571146	0.0121447	0.00593698
0.00137613	-0.0175915	0.017786
-0.00401073	0.00778089	0.00489502
0.0176907	-0.0171896	0.0182682
-0.0890855	-0.0483574	0.0894515
-0.0239927	0.00544983	0.0218511
-0.00305003	-0.0050643	0.00885578
0.00393931	-0.0348788	-0.0039939
-0.000355461	0.0115961	-0.0127418
-0.000978261	-0.00158298	0.00287135
-0.0335148	0.0155334	0.0334973
-0.0101747	-0.0446448	0.0394415
0.169693	-0.0263793	-0.169651
-0.00312522	0.0103945	-0.0095723
0.00148212	0.00161782	-0.0014884
-0.0455832	0.0452867	-0.0306865
-0.0014017	-0.00133344	0.0013938
0.00386006	0.00256865	-0.00385265
0.00486047	-0.0659726	0.0646423
0.00344878	0.00620005	-0.00564875
-0.00519518	-0.0125397	0.0143894
-0.0566597	-0.0553589	0.0580538
-0.0157483	-0.00620845	0.0143193
0.00472743	-0.029864	0.0302527
-0.00398553	0.00390522	0.00611909
0.00357115	-0.0486847	0.0493447
-0.00342844	-0.00220748	-0.0022593
0.00126027	-0.00157637	0.000909176
0.0021689	-0.0433253	0.0447833
0.0145347	-0.0376508	-0.0145532
0.00157853	-0.0379186	0.0378432
-0.00228904	0.00555982	-0.00567689
0.0386746	-0.0389129	-0.0388195
0.00228744	0.00289965	-0.00272973
0.00810475	-0.00763764	-0.0151096
0.003827	-0.0449012	0.044858
-0.00690664	-0.00485033	0.00691921
-0.00636774	0.00329548	0.00752257
0.000985472	0.000680581	-0.000990824
-0.0268704	0.0136037	0.0229709
-0.0189393	0.0397889	-0.0396833
0.00473663	0.0162277	-0.014015
-0.0115096	0.020991	-0.0251449
-0.00107593	-0.00964354	0.00689247
-0.0204925	0.019018	0.0202909
0.00130378	-0.0307481	0.0309136
0.0286145	-0.0353444	-0.0287093
0.00392293	-0.0343985	0.0343678
0.000909242	-0.00471677	0.00579662
0.0401591	-0.0127884	-0.0387986
0.00334239	-0.030597	0.030955
-0.00505249	0.00535626	0.00683431
0.00702553	-0.0207354	0.0202462
-0.000264771	0.0003309	0.00026563
1.98257	-0.00219913	-1.98278
0.00880099	-0.0132352	0.00995697
0.0763776	-0.0742624	-0.0763775
-0.00605062	0.00703154	-0.00388304
0.00674364	0.00425581	-0.00674003
-0.00429004	0.00744954	0.00469678
-0.0108906	0.0216152	-0.00451946
0.101745	-0.0966604	-0.101742
0.00254411	-0.0492205	0.0493496
0.000397169	0.00036794	-0.000383493
-0.00584359	0.234652	-0.226435
-0.00607738	-0.0059471	0.00610466
0.0112793	-0.0130492	-0.012008
0.000255034	0.251103	-0.249783
-0.171526	0.134401	0.00539341
0.0103792	-0.0325932	0.0293883
-0.0213335	-0.0198919	0.0211795
0.00656543	-0.00922913	-0.00747253
-0.020508	0.0323078	-0.0308946
0.00127384	0.00140571	-0.00142375
0.00551505	0.00520001	-0.00793443
-0.0206369	-0.0144049	0.02065
-0.0206981	0.014422	0.0162879
-0.00126823	-0.015676	0.0177667
0.0264491	-0.0277451	-0.0247457
0.00585871	-0.042006	0.0404996
-0.0118794	-0.0443239	0.0383988
-0.00666957	-0.003312	0.005327
0.0028113	0.00549281	-0.00484032
-0.00588415	0.00786894	0.00592766
-0.00363498	0.0220338	-0.0219886
-0.0165928	-0.00771291	0.0166439
-0.0181674	0.0110942	0.0189368
-0.00087701	-3.01391e-05	0.000906197
0.00687305	-0.00705564	-0.00592168
0.00239567	-0.011685	0.0129347
-0.00757892	-0.00769815	0.00757956
0.0130199	0.0538271	-0.0612906
-0.017339	-0.0243318	0.02302
0.0405544	-0.0392291	-0.0404403
-0.00287362	0.0206698	-0.0203066
-0.0130492	0.0142157	0.0130894
0.00233115	-0.0310992	0.0316543
0.00440519	0.00236528	-0.00447047
-0.0176139	0.00354653	0.015837
-0.0257556	0.0789705	-0.0788055
-0.00410091	0.00569472	0.00700935
0.00687992	-0.0120271	0.0117742
0.000985472	0.000680581	-0.000990824
0.0101416	-0.0128008	-0.00471711
0.00179748	0.054379	-0.0468167
0.0305393	-0.0210425	-0.0306071
0.00189008	-0.0139488	0.0126096
0.00177589	0.00108393	-0.00174751
-0.0021584	0.000755901	0.00225232
-0.0458912	-0.0345353	0.0384505
0.0483787	-0.0468186	-0.0227511
0.00214401	-0.0441992	0.0441684
-0.00715474	-0.00752849	0.00714519
-0.0273928	0.0271598	-0.0226381
0.00543074	0.00585417	-0.00544914
-0.00387681	0.00437801	0.003932
0.00349981	-0.0550711	0.0541274
0.00377869	0.00985793	-0.00816654
-0.0543995	0.0579542	-0.0582339
-0.00338666	-0.00389363	0.000462098
-0.0189973	0.0139242	0.0177086
-0.0126834	0.055787	-0.0561794
0.0129414	-0.0177669	-0.0127009
0.00777964	-0.0136396	0.0154639
-0.00347738	-0.00685169	0.00333395
0.0193748	-0.0223897	-0.0263817
0.00404951	-0.0080597	0.00912557
0.0568524	-0.0512896	-0.0568552
0.00189008	-0.0139488	0.0126096
0.00605448	0.00652304	-0.00603482
-0.0127871	0.0157501	0.00963782
-0.00276703	-0.00347375	0.00231782
0.0214162	-0.0183872	-0.0185964
0.002472	-0.0255208	0.0256415
-0.000614903	-0.00210795	0.000530412
-0.00139079	-0.0190482	0.0228198
0.0403571	0.0354957	-0.0403615
-0.00242805	0.0077212	0.00141273
0.00639357	-0.0203494	0.0202223
-0.0179217	0.0136983	-0.00610864
-0.00681951	-0.00903082	0.0118434
-0.0259937	0.0587387	-0.0552529
-0.00928824	0.00736548	0.00923822
0.00414672	-0.0088481	0.00820888
0.00802057	-0.00869678	-0.0114738
0.00258584	0.0131112	-0.0132535
0.00207776	0.00168044	-0.00165869
0.0060703	0.00769285	-0.00649372
0.00112264	-0.0493397	0.0512851
-0.00398553	0.00390522	0.00611909
-0.00215737	0.0162989	-0.0163237
-0.0253757	-0.00617148	0.0261083
-0.0136144	0.00567714	0.0124798
-0.00588169	-0.025747	0.0286116
-0.0167612	0.0172241	0.0117815
-0.00312287	0.0171317	-0.0171041
0.00348693	0.00395795	-0.00447755
0.0361445	-0.0353029	-0.0360732
-0.00115491	-0.0110428	0.0128494
0.0792248	-0.0791416	-0.0450997
0.00207322	-0.030669	0.0314836
0.00405329	0.00442748	-0.00404563
-0.00519518	-0.0125397	0.0143894
-0.0054978	-0.00477698	0.0055139
-0.02162	0.0216112	0.021508
0.00485975	-0.0631507	0.0617499
-0.0316162	-0.068885	0.0801286
-0.0197871	-0.00656455	0.00657922
0.0035622	0.00135135	-0.00316765
-0.00837926	0.00817712	0.00527994
0.00228093	0.0461248	-0.0468164
-0.00779198	0.00786066	0.00771296
-0.0089027	0.0657826	-0.0696316
0.00630719	-0.0961832	0.0917883
0.000477865	0.000430861	0.00151251
-0.00293104	-1.5071	1.5076
-0.00961553	0.00906023	0.00982004
-0.00980747	0.604315	-0.603484
0.0118564	0.0601933	-0.0638705
0.00500497	0.00116965	-0.00428296
-0.00584661	0.0376194	-0.0308554
0.204271	-0.172156	-0.0914756
0.003827	-0.0449012	0.044858
0.00130122	-0.00101954	-0.00266848
-0.0229855	-0.00881822	0.0120749
0.000985472	0.000680581	-0.000990824
0.00870571	-0.00904773	-0.011343
0.00154482	-0.0137671	0.0128812
-0.000993828	-0.00111198	0.000990859
-0.00240676	-0.0423128	0.0439648
0.0136858	0.0142971	-0.0136747
-0.0173044	0.0106647	0.0181565
-0.0261116	0.0312446	-0.0306329
0.0247528	-0.0255199	-0.0234919
0.0102328	-0.0107629	0.0101551
0.00605448	0.00652304	-0.00603482
0.0182758	-0.018458	-0.00837915
0.00112264	-0.0493397	0.0512851
-0.00666035	0.00737721	0.00583714
0.0028285	-0.0296245	0.0280412
0.00148913	0.000283361	0.00166995
0.0118715	-0.0111325	-0.0110833
-0.122744	-0.300661	0.412256
-0.00643836	0.00655632	0.00741633
0.00337953	0.00974983	-0.00977692
0.00427904	0.000932675	-0.00389088
0.0118621	0.00973297	-0.0118956
-0.0258664	-0.0684437	0.0639124
-0.00361644	-0.00919278	0.00847222
0.00690525	-0.0163544	0.0164866
0.00363642	0.00484575	-0.00359186
-0.0215203	0.0225097	-0.0235673
-0.0185348	-0.0181324	0.018398
-0.00831512	0.00414741	0.00860713
0.00754477	-0.0116725	0.0107458
0.0341592	-0.0350617	-0.0341692
0.00137613	-0.0175915	0.017786
-0.0106856	-0.0208641	0.0198056
-0.0102119	0.0109448	0.00494404
-0.0028151	0.0414907	-0.0406121
-0.0275357	0.0274221	0.0274496
0.00449329	-0.0653876	0.0677881
-0.0272134	-0.0262965	0.0217093
0.00817711	-0.00227596	-0.00826487
-0.0478788	0.00465003	0.0261096
-0.0127816	0.0107912	0.012778
0.00555544	-0.0445978	0.0431562
-0.00786786	-0.00909432	0.00788888
0.0404164	-0.0397174	-0.0379259
0.00282318	0.00637193	-0.00541734
-0.0130287	0.0137409	0.0126042
-0.0117004	0.0606877	-0.0603925
-0.00630058	-0.00659417	0.00630672
0.0141382	-0.0140779	0.0102833
0.00146143	0.00111628	-0.00146876
-0.00830601	0.00589514	0.0104877
0.00154482	-0.0137671	0.0128812
-0.00541246	-0.00737752	0.00562739
0.0044894	0.580417	-0.594566
0.00405329	0.00442748	-0.00404563
-0.00927105	0.00891982	0.00949798
0.00713819	-0.0173207	0.0172479
-0.00392928	-0.000114651	0.00433774
0.00243344	0.0145429	-0.0148648
-0.00087701	-3.01391e-05	0.000906197
0.0310927	-0.0318963	-0.0313087
0.00391661	-0.0069003	0.00983349
-0.00686487	0.00703815	0.0068657
-0.00695719	0.017935	-0.0202738
-0.0109115	-0.0453093	0.0390348
0.0833963	-0.0753829	-0.0833984
-0.0312518	0.00762148	0.0217844
0.00143175	0.0069305	-0.00238357
-0.000316201	0.0259328	-0.0257755
0.00384907	0.00434744	-0.00382037
0.00382168	-0.00585533	-0.00472945
-0.00416039	-0.004012	0.00416712
-0.00666957	-0.003312	0.005327
0.0042012	-0.00993774	0.00975422
0.011045	0.0117779	-0.0110351
0.00829561	-0.018296	0.0153511
0.00435272	0.0159286	-0.0126302
0.00416709	-0.00475174	-0.00429092
-0.00900758	0.0501438	-0.051806
0.0499369	-0.0480069	-0.0495536
0.00121639	0.0234596	-0.0223474
0.00503938	0.0533033	-0.0532074
-0.00769723	0.00522762	0.00147162
-0.00285126	0.00451091	-0.00384163
-0.00615457	0.00702325	0.00869718
-0.00489731	-0.0270548	0.0270332
0.00419001	0.0337046	-0.0340579
-0.00705998	0.00669814	0.00437442
-0.0189404	-0.0578744	0.0638691
-0.00764147	0.00631311	0.00971006
-0.00417698	-0.0251879	0.0245387
-0.0296825	-0.00685234	0.029747
0.0155569	-0.0156924	-0.0154785
-0.00576015	-0.0740895	0.0714998
0.082487	-0.0391079	-0.0875947
0.00222731	0.0389714	-0.0386815
0.00352961	0.00398005	-0.00352222
-0.0176596	0.561766	-0.561384
0.00958942	-0.0910729	0.0878034
-0.00259954	0.00107161	0.00241472
0.038422	-0.0386473	0.0308842
-0.0347101	0.00957981	0.022532
0.00719325	-0.0122232	0.0138651
-0.0229112	-0.102867	0.10375
1.96529	0.00957981	-1.97747
-0.00277721	0.0547621	-0.0546914
-0.00857348	0.00671123	0.00907775
-0.0460514	0.0550248	-0.0564649
0.000314803	0.00128399	-0.000283109
0.0060703	0.00769285	-0.00649372
0.00345217	-0.0200107	0.0231901
0.0118247	-0.0117507	-0.0175709
0.00343268	-0.0230213	0.0215098
0.00641883	-0.138577	0.138401
-0.0112434	0.00962476	0.0120629
-0.00127548	3.33971e-05	0.00510204
0.0484228	-0.0482387	-0.0484236
0.00123438	-0.00320014	0.00303793
-0.00346448	-0.00293228	0.00346453
0.00714368	-0.0110021	0.00849031
0.0089066	0.00774703	-0.00893294
0.00200654	-0.00273127	-0.00227391
-0.0302964	0.0301181	-0.027607
0.00348693	0.00395795	-0.00447755
0.0130199	0.0538271	-0.0612906
7.56537e-05	-0.202365	0.198228
0.00818648	-0.00856413	-0.0084131
0.00296166	0.0409446	-0.0412501
-0.00656545	0.00685301	0.00662121
-0.0015924	0.187481	-0.18802
0.00284968	0.00138252	-0.00269087
-0.015528	0.0155319	0.0119754
0.00585871	-0.042006	0.0404996
0.00703028	0.00403527	-0.00713732
-0.0535059	0.121652	-0.122956
0.00352023	0.012952	-0.00459554
0.00493948	-0.00680817	-0.00237431
0.0101789	0.0101112	-0.0311477
0.00227006	-0.00166496	0.000315102
-0.00661803	0.371318	-0.37022
-0.000289501	0.00049288	0.00295805
-0.00823008	0.00816658	0.00342224
-0.0101747	-0.0446448	0.0394415
-0.00980639	0.0100823	0.00468777
-0.00489731	-0.0270548	0.0270332
-0.00252162	-0.00243369	0.00252655
0.00319408	0.000917165	0.00237715
0.00807332	0.00414918	-0.00689389
0.0024812	-0.00278558	-0.00212658
0.00687992	-0.0120271	0.0117742
0.00104222	0.00357466	-0.00323349
0.00137613	-0.0175915	0.017786
0.00483996	0.00125753	-0.00444634
0.0549047	-0.053918	-0.0544896
0.00387632	-0.0412305	0.0413974
-0.0120989	0.0119104	0.0121431
-0.00232788	-0.00532714	0.00630904
0.00736375	0.00741534	-0.00735829
-0.0211934	0.0214067	0.0211926
0.0229342	0.0287405	-0.0424817
-0.00853362	0.00779025	0.00851363
0.00248118	-0.00339615	0.00170511
-0.00166491	-0.0333278	0.0316712
0.0145492	-0.0146091	-0.0134631
-0.00152036	-0.0217616	0.0229238
-0.00288872	0.00288792	0.00155112
0.00440748	-0.0116387	0.0115696
-0.0456517	-0.0461106	0.0456545
-0.0241764	0.0727518	-0.0737984
0.00911752	0.00905674	-0.00913116
-0.0270058	0.00658147	0.0319766
0.00232269	-0.0294806	0.0284141
-0.000614903	-0.00210795	0.000530412
0.0146234	0.151455	-0.165611
-0.0486543	-0.0329218	0.0487524
0.0226716	-0.0234836	-0.0217205
-0.00948419	0.0429883	-0.0429935
-4.12858e-05	0.000871651	3.12651e-05
0.00202926	0.0206361	-0.0205252
-0.0206369	-0.0144049	0.02065
0.153315	-0.155843	-0.153265
0.00659112	0.24016	-0.240147
-0.00153663	0.00270977	0.00184817
0.00314031	-0.0419671	0.0406003
0.00736375	0.00741534	-0.00735829
0.00145197	0.00197607	-0.0015089
-0.00656768	0.0238189	-0.0113196
-0.0177054	0.00386526	0.0158225
0.003827	-0.0449012	0.044858
0.00377869	0.00985793	-0.00816654
-0.0150034	0.0112816	0.0155313
-0.0140022	-0.0607481	0.0590018
0.00184065	0.00709976	-0.00287653
-0.0151961	0.0150013	-0.0160411
-0.0481704	-0.0484964	0.0481662
0.0133227	0.0560173	-0.0626847
-0.0137835	-0.0156483	0.0137671
-0.00624005	0.00619715	0.00629307
0.00210599	-0.0282102	0.0272502
-0.000856001	-0.014142	0.0157911
0.00170372	-0.00198013	0.00198051
0.000832996	0.0241536	-0.0170212
0.000591	0.000359471	-0.00346021
-0.00128314	0.0476036	-0.04743
-0.0109471	0.0117371	0.00713458
0.00233115	-0.0310992	0.0316543
-0.00540359	0.140115	-0.141681
-0.0227565	0.0138088	0.0225024
-0.0883163	-1.15264	1.20653
0.00836131	-0.00835177	-0.00991872
-0.0274264	0.0197205	-0.0170922
0.00543074	0.00585417	-0.00544914
0.0105081	-0.00840776	-0.0104943
-0.00168659	-0.00884533	0.00725783
0.0233126	0.000619776	-0.0237008
0.00757445	-0.0300009	0.0299486
-0.0680782	-0.0688439	0.0680779
0.000923721	-0.025621	0.0235612
0.0021907	0.0435007	-0.0417156
-0.00310103	0.00463293	0.00157834
0.00257804	0.00184991	-0.00340386
0.0028113	0.00549281	-0.00484032
-0.00359872	-0.00968857	0.0124521
0.001155	0.000937097	-0.00116858
-0.00846704	0.00845333	0.00167282
-0.0428345	0.0726637	-0.0723404
0.0805578	-0.0827213	-0.0807496
0.00392293	-0.0343985	0.0343678
-0.00531409	-0.00490333	0.00531506
-0.00374768	0.00871559	0.00225987
0.00231693	0.296446	-0.292822
-0.00370391	0.00430185	0.00268476
-0.00184518	0.018536	-0.0190897
-0.0247124	0.000224641	0.025046
-0.00276152	0.0113143	0.00293628
-0.0136902	-0.0139232	0.0107676
-0.0180104	-0.000616643	0.0179865
-0.0346744	0.107683	-0.108339
0.00501365	0.00534748	-0.00502684
-0.00662801	0.00504602	0.00671888
-0.0386901	-0.0435363	0.0386899
-0.0428692	0.00673953	0.043634
0.00648247	-0.0308847	0.0306202
-0.0536805	-0.0548418	0.0535752
0.0116597	-0.0276629	0.0231636
0.00134177	0.00235127	-0.00137931
0.0352139	-0.035156	-0.0353589
0.00130378	-0.0307481	0.0309136
0.0114547	-0.0123633	-0.0117176
0.00736665	0.00889579	-0.0115733
-0.0109115	-0.0453093	0.0390348
-0.00405671	0.00361354	0.00252009
0.00294242	-0.04993	0.0503068
-0.003646	0.00364181	0.0022333
-0.00987387	0.0183953	-0.0155937
-0.00150786	0.0137711	-0.0072131
-0.00014703	0.00585617	-0.000337914
0.0404569	0.0304927	-0.060002
0.120486	-0.12004	-0.120613
0.00357115	-0.0486847	0.0493447
0.00226944	0.00348082	-0.00308103
0.0446356	-0.0449002	-0.0449196
0.00226944	0.00348082	-0.00308103
-0.015091	0.00536145	0.0184965
-0.00780887	0.0134775	-0.0102798
-0.000890321	-0.00152606	0.00083751
0.00910805	-0.0270937	0.0239222
0.00455138	0.0046545	-0.00454841
0.00808412	-0.00715108	-0.00795302
0.00486047	-0.0659726	0.0646423
-0.0296825	-0.00685234	0.029747
0.00233647	-0.0166715	0.0194907
-0.00188642	0.0405999	-0.0384136
-0.0194691	0.00481571	0.0165326
-0.0114627	0.135536	-0.136741
-0.0109582	0.00939649	0.0108039
0.00492144	-0.0122276	0.0105362
-0.000438819	4.90408e-05	0.000469706
0.004727	0.0111981	-0.00546863
0.00184321	0.122411	-0.12727
0.000103094	-0.00199222	-0.000103328
-0.000851955	0.209996	-0.210669
-0.0161958	0.0215459	-0.0207597
0.0237702	-0.0190911	-0.0234724
0.00422589	0.00143432	-0.00144354
0.0699825	-0.00934379	-0.0704316
0.00606209	-0.0480769	0.0478008
0.00774496	0.0141986	-0.012502
-0.0263759	0.885278	-0.888454
-0.0434348	-0.0435676	0.0434369
-0.0444685	0.00954041	0.0437169
0.00293863	-0.00936054	0.00965169
-0.0252685	-0.0679385	0.0669824
0.00111579	-0.0156758	0.0157921
0.00440257	0.111843	-0.11757
-0.00713289	0.0115656	0.00655893
-0.0227732	0.0732802	-0.0728939
0.0185367	-0.0183621	-0.0179352
-0.0284777	0.0108822	-0.0129114
0.00782715	0.00162739	-0.00292211
0.00843354	-0.0126595	-0.00833663
0.0019461	-0.00918637	0.0109978
-0.0119308	0.0116218	0.0100434
0.038422	-0.0386473	0.0308842
0.0084605	0.0364596	-0.0380801
0.0228253	-0.021461	-0.0216736
0.0019211	-0.0167459	0.0168884
-0.0022311	0.00817639	0.000914052
-0.0031779	0.186605	-0.187459
0.00162502	0.00437423	-0.00164854
-0.00553022	0.00400166	0.00808858
0.00226944	0.00348082	-0.00308103
0.682517	-0.0310382	-0.68027
0.00561552	-0.0260869	0.0257756
0.00607222	0.00334141	-0.00612219
-0.00176607	0.0359728	-0.0352812
-0.00607738	-0.0059471	0.00610466
-0.00256041	0.00256115	0.00241624
0.00224181	-0.00961671	0.00798526
0.00201039	-0.284037	0.292223
0.00255107	-0.0130513	0.0133137
0.00316853	0.00045137	-0.00283152
0.0156452	-0.0153384	-0.0156019
0.00800039	-0.0495952	0.0494849
0.0162541	-0.0131728	-0.0168642
0.000671423	0.00693081	-0.00682065
-0.00293645	0.0103474	0.00217156
0.0116827	-0.0108501	-0.0111767
-0.0725479	-0.151089	0.167908
0.0334436	-0.0265139	-0.0339474
-0.00169817	0.0949113	-0.0954862
0.00736375	0.00741534	-0.00735829
-0.00956175	0.0104582	0.0101011
0.00824978	-0.0016629	0.00181254
-0.0444685	0.00954041	0.0437169
0.00115063	-0.0427959	0.0426902
-0.0498412	-0.0503173	0.0498384
0.0038657	-0.0259691	0.0270289
-0.0186983	-0.0191565	0.0186839
-0.00339841	0.0103619	0.00402214
-0.00284317	0.0713915	-0.0709122
0.00290214	-0.000178136	-0.00300295
-0.00519518	-0.0125397	0.0143894
0.000751765	0.0212613	-0.0140089
0.0514388	-0.0511745	-0.0523926
-0.00239357	0.030339	-0.0316417
-0.00313551	0.0045564	0.00340486
0.00410183	0.0035469	-0.00339263
0.00148913	0.000283361	0.00166995
-0.0143888	0.0143202	0.011479
0.00357115	-0.0486847	0.0493447
-0.00471386	0.00490144	0.00359096
0.00561575	-0.0225101	0.0215283
0.00352961	0.00398005	-0.00352222
-0.0103551	0.00559082	0.0102508
0.00455528	4.76805e-05	0.00338732
0.00796705	-0.0075949	-0.00805434
0.0012352	0.0213562	-0.0214609
0.000752325	0.0034655	-0.000837539
0.00724393	0.00228837	-0.00633395
0.00344878	0.00620005	-0.00564875
-0.0249683	0.0119944	0.0235013
-0.0494565	0.0241502	-0.0265285
-0.0293558	-0.0296134	0.029302
-0.0186827	0.0034144	-0.00863378
0.00736375	0.00741534	-0.00735829
-0.00308341	0.00595731	0.00401481
0.00485975	-0.0631507	0.0617499
-0.00588169	-0.025747	0.0286116
-0.0229529	0.0230024	-0.0254025
0.0126408	0.00607174	-0.00757772
-0.0327037	0.00983329	0.0340923
0.00739288	-0.0259311	0.0258911
-0.00450111	0.00560654	0.00680242
0.00473633	-0.00659508	0.00640329
0.000899351	0.00068912	-0.000909602
-0.0156192	0.0157748	0.0157872
0.00824978	-0.0016629	0.00181254
-0.00876085	0.00986138	0.00517992
-0.00740086	0.140202	-0.130774
0.00982183	0.000956197	-0.00301308
0.131336	-0.131782	-0.131268
0.00376206	0.0514187	-0.0449436
-0.0110574	0.00850775	0.0113166
-0.00301297	0.0749352	-0.0750998
-0.00947947	-0.00934074	0.00947447
0.00796045	-0.0101892	0.00736493
-0.00607771	-0.00544539	0.00611386
-0.0163793	0.0184295	0.010269
0.00100382	0.0412455	-0.0414319
-0.0330308	-0.0463586	0.0487868
-0.00086813	-0.0179541	0.021307
0.00736375	0.00741534	-0.00735829
0.0253781	-0.028145	-0.0273892
0.00571374	-0.0160711	0.0156103
0.0297006	-0.0303441	-0.0302132
0.00137613	-0.0175915	0.017786
0.00782801	0.00192505	-0.00414303
-0.0107019	0.00866883	0.00631278
0.00958205	-0.029139	0.0254072
-0.00571897	0.00302968	0.00614286
0.00124826	0.0225999	-0.0226689
-0.00177248	-0.000231787	0.00176794
-0.00893401	0.00680236	0.008932
0.00256685	-0.0139057	0.0142493
0.00635438	0.00563601	-0.00762843
0.00460827	-0.0030909	0.00288007
0.00435272	0.0159286	-0.0126302
-0.0342814	0.0335299	0.0342828
-0.0843413	-0.0643453	0.084338
0.000425923	0.0055426	-0.000561629
-0.0193339	0.0809498	-0.0849708
0.00659344	0.00717325	-0.00658867
0.00385785	-0.0285187	0.0280197
0.00658804	0.00577728	-0.00656321
0.00606223	-0.00714552	-0.00514557
0.00621005	-0.00610449	0.00583689
0.00950046	-0.0105675	-0.00933697
-0.0662287	0.0661743	-0.0668452
-0.000993828	-0.00111198	0.000990859
1.9841	0.0149908	-1.99879
0.00307294	-0.0114108	0.0130351
0.0156452	-0.0153384	-0.0156019
0.00628989	-0.0383818	0.0381249
0.000686131	0.000355162	-0.000690173
-0.0192464	0.0162297	0.0177039
-0.0101747	-0.0446448	0.0394415
-0.0123848	0.00992266	0.0122427
-0.000901082	0.0104057	-0.00948615
-0.00222586	-0.000846408	0.00296202
0.0751107	-0.043168	-0.0780882
0.00431813	0.00941334	-0.00814901
-0.00521594	0.00525174	0.000492604
-0.0271846	0.0577704	-0.0575245
0.00098509	0.000681021	-0.000982433
-0.00519518	-0.0125397	0.0143894
0.00713397	0.00480273	-0.00682863
0.00406582	-0.00474049	-0.00421871
-0.00334125	0.0467887	-0.046414
-0.154717	-0.0025701	0.148379
0.00275749	-0.0607703	0.0631365
-0.076132	0.06005	-0.0815125
-0.00440488	0.00162555	0.00696314
0.00392293	-0.0343985	0.0343678
-0.0225434	0.0223961	0.0224758
0.00598149	-0.0438228	0.0427977
-0.00190001	-0.225773	0.232543
-0.00502774	0.00505475	0.00418897
-0.00169461	0.0127596	-0.00937236
0.0682849	-0.0674373	-0.0682858
0.00515455	-0.0661202	0.0646355
0.00333854	0.0149611	-0.0177321
0.00754641	-0.00276024	-0.00722859
-0.063813	-0.0160304	0.03342
-0.015021	0.0151289	0.0117608
-0.00650122	0.0126207	-0.0127416
0.00363642	0.00484575	-0.00359186
0.0390765	-0.0383944	0.00628596
0.00155414	0.00114027	-0.00159527
0.0342185	-0.0373745	-0.0346676
-0.0014825	0.00319242	-0.0058318
-0.000993828	-0.00111198	0.000990859
-0.0164193	0.0223421	-0.0269367
-0.010952	-0.0100352	0.0109967
0.0268938	-0.0251792	-0.0272906
0.00459058	-0.0536366	0.0533902
-0.00604482	0.00669072	0.00599184
-0.000955828	0.0117202	-0.0115379
0.00218395	0.00388324	-0.00189596
-0.00327868	0.00333402	0.00352321
0.00453748	-0.0072614	0.0117298
0.00227006	-0.00166496	0.000315102
0.00227097	-0.0453161	0.0455883
0.00367198	-0.0417027	0.0458785
-0.00335524	0.00461726	0.00381728
-0.0199822	0.00128037	0.0097809
0.0184882	-0.0127569	-0.0185104
0.00746367	-0.0110988	0.00983123
0.00440519	0.00236528	-0.00447047
0.00780656	-0.00709058	-0.00756175
-0.0185828	0.00446978	0.000348163
-0.000378822	-0.00109827	0.000378765
0.00115063	-0.0427959	0.0426902
0.00687792	0.0068863	-0.00686249
-0.00385312	0.0114569	-0.0118131
0.00607222	0.00334141	-0.00612219
0.0268938	-0.0251792	-0.0272906
0.00130378	-0.0307481	0.0309136
0.011636	0.000575238	-0.00840468
0.00357458	-0.0446629	0.0447005
-0.0228675	-0.0101507	0.023034
0.0975967	-0.0522816	-0.0677296
0.00222731	0.0389714	-0.0386815
-0.00685369	0.00638919	0.00673466
0.00697366	0.00484235	-0.00479508
-0.0412107	-0.653969	0.651535
-0.00192173	0.00286857	0.00189589
-0.00126823	-0.015676	0.0177667
0.00610802	-0.00389112	-0.0124425
0.00314031	-0.0419671	0.0406003
0.00819564	0.00426522	-0.00556045
-0.0160541	0.0166626	0.0160538
-0.0111435	-0.0247471	0.0196849
0.189487	-0.0968059	-0.189882
-0.00173267	0.00708226	-0.00790785
-0.00312422	-1.32215	1.31984
-0.0133965	0.0498674	-0.0500216
0.00911752	0.00905674	-0.00913116
0.0122081	-0.00141707	-0.0119199
-0.00272141	0.0151025	-0.015109
-0.00630058	-0.00659417	0.00630672
-0.0203055	-0.00335607	-0.000837275
0.00587583	-0.091193	0.0879376
-0.0111813	0.0083947	0.0118353
-0.0036401	-0.00976926	0.00936234
0.00671775	-0.00607579	-0.00325906
0.00115063	-0.0427959	0.0426902
-0.00199018	0.00384827	0.0020169
-0.00273618	0.0109399	0.00294444
0.00076306	-0.0428117	0.0444927
-0.000903121	0.00195368	0.000502241
0.00272612	-0.00892589	0.0120414
-0.000410975	0.00422639	-1.56537e-05
0.065074	-0.0669292	-0.065066
-0.0589345	-0.0781996	0.0844394
0.0028994	0.00025504	-0.0029681
-0.0014453	-0.0140602	0.0149365
-0.027756	-0.0328769	0.0314729
-0.00960799	0.0140101	0.00969784
-0.0170083	-0.0635747	0.0704446
-0.0150608	0.0115969	0.00855535
-0.0013397	0.00787957	-0.00798679
0.000343649	0.000586919	-0.000343429
-0.00367832	-0.00231557	0.00472645
0.00703261	0.00220644	-0.00723257
0.0507313	-0.0487889	-0.0507184
0.0114611	-0.0123113	0.0123475
0.0129382	0.00820757	-0.0165934
-0.0411033	0.0417852	-0.0379996
0.000752325	0.0034655	-0.000837539
-0.0147288	0.0158411	0.0120948
0.00547191	-0.0046378	0.00460631
-0.00925653	0.0071509	0.00544124
-0.00189283	0.0543122	-0.0537036
0.00980132	0.0092497	-0.00981353
0.0270314	-0.0286826	-0.0284714
-0.0223761	0.0126227	0.00651305
0.00197246	0.00999913	-0.00275047
0.00120458	-0.0375263	0.0376973
0.0099314	-0.816621	0.815886
-0.00115705	0.0115653	0.00138807
-0.00707279	0.00180084	-0.000330152
-0.0150788	-0.0083348	0.019027
-0.00828946	0.0984523	-0.0977821
0.00607222	0.00334141	-0.00612219
-0.00589848	0.00600475	-0.00732697
-0.0331944	-0.0321947	0.0332461
-0.0206983	0.0207158	0.0206828
0.0012245	-0.0400809	0.0400716
0.00122386	0.0111212	-0.0111788
0.00152615	-0.00960393	0.0129747
-0.0115538	-0.0120569	0.0121027
-0.00812457	0.00710947	0.00807621
-0.043947	0.227397	-0.228692
0.0263986	-0.0269159	-0.0268131
0.00420746	-0.0128607	0.0125852
7.56537e-05	-0.202365	0.198228
0.0122424	-0.00842787	-0.0123965
0.0012215	0.00666751	-0.00561406
0.0283916	-0.033725	-0.0255281
0.00395474	-0.0365934	0.0344276
0.00483996	0.00125753	-0.00444634
0.0283747	-0.0278924	-0.0287158
-0.00511594	-0.0347528	0.0269426
-0.0305737	0.0175394	0.030575
0.00739288	-0.0259311	0.0258911
0.00734119	0.00590513	-0.00733382
-0.0211104	0.0148408	0.0207816
0.00282318	0.00637193	-0.00541734
0.151507	-0.0640669	-0.145512
-0.0154577	0.012229	-0.0139318
0.0172964	0.0177936	-0.0172856
-0.0240376	0.206226	-0.203148
-0.00110984	0.054685	-0.0576924
-0.0100993	0.00735277	0.00854096
0.00216454	-0.00367247	0.00265802
0.0274337	-0.0246469	-0.0271038
0.00378509	-0.00115757	0.00107212
-0.0304273	0.0489893	-0.0504816
-0.0155558	0.0120778	0.0152591
0.00692175	-0.0139893	0.012738
-0.00644466	0.0069424	0.00582067
0.00133205	-0.020693	0.0207063
0.00306735	0.00836095	-0.00370218
-0.00308479	0.00114308	0.00262529
-0.0685581	0.0163159	0.0547321
-0.00659666	0.012351	0.00494263
0.00477288	-0.0466254	0.0451832
0.00674364	0.00425581	-0.00674003
0.11364	-0.110005	-0.112419
0.00200226	-0.00910626	0.0107005
-0.0023741	0.0119262	0.00245859
0.00667704	-0.0105615	0.00938036
0.000708207	-0.00511562	-0.000711858
3.09209e-05	-0.00956614	0.0132192
0.00284968	0.00138252	-0.00269087
-0.0122172	0.0124646	0.0125013
0.00406349	0.0281983	-0.0323944
-0.00127548	3.33971e-05	0.00510204
-0.00268258	0.00259325	-0.00650409
0.00431234	0.00485284	-0.00431138
-0.00593784	0.00558796	0.00726985
0.0117871	-0.0332465	0.0334368
-0.0345077	0.0124916	0.034465
0.00778841	0.00404358	-0.00696668
0.00146143	0.00111628	-0.00146876
0.0292402	-0.0191408	-0.0291736
0.00111579	-0.0156758	0.0157921
-0.0173032	0.00854137	0.0172767
-0.0028151	0.0414907	-0.0406121
0.00344878	0.00620005	-0.00564875
-0.00400922	0.0106143	0.00434334
0.00491588	0.0279485	-0.0256431
-0.00816574	0.00882036	0.00422296
-0.0083014	0.113673	-0.113033
-0.00493712	0.0213499	-0.0093008
-0.0105704	0.0101961	-0.0199809
0.00483996	0.00125753	-0.00444634
0.0467334	-0.0534657	-0.0434061
-0.00232978	-0.002574	0.00297855
-3.13543e-05	0.00407975	7.28949e-05
0.0103792	-0.0325932	0.0293883
-0.010952	-0.0100352	0.0109967
-0.00276901	0.00705946	0.00145682
-0.00260095	0.0181243	-0.0192612
-0.00338597	0.00189785	0.00243388
0.00660737	-0.0185219	0.0182691
-0.0115538	-0.0120569	0.0121027
-0.00571897	0.00302968	0.00614286
0.00828531	0.0883737	-0.0961998
0.0334214	-0.0319836	-0.0335509
0.00227097	-0.0453161	0.0455883
0.00428358	0.00149782	-0.00221511
-0.00108441	0.00127874	0.000979629
0.00173248	-0.0140489	0.0139528
0.0719325	-0.0847662	-0.0720905
0.00343268	-0.0230213	0.0215098
0.00795036	-0.446843	0.44578
-0.0179604	0.0142076	0.0099297
-0.00341518	0.00304037	-0.00214989
0.0537819	0.00605624	-0.0491887
0.000671423	0.00693081	-0.00682065
-0.0247124	0.000224641	0.025046
-0.0867548	0.0865458	-0.0969109
-0.0296825	-0.00685234	0.029747
0.0217957	-0.01948	-0.0222605
-0.000355461	0.0115961	-0.0127418
0.00226944	0.00348082	-0.00308103
-0.004139	-0.0376696	0.0416374
0.00427904	0.000932675	-0.00389088
-0.0109642	0.0119773	0.0103832
-0.0479224	0.154341	-0.153856
-0.00222565	0.00982435	-0.00581993
0.0086213	0.00816622	-0.00984978
0.00653558	-0.043687	0.0445907
-0.011351	0.00964577	0.0115146
-0.0249551	0.0411035	-0.0431434
0.0238126	-0.0194979	-0.0251885
-0.00189283	0.0543122	-0.0537036
0.00348693	0.00395795	-0.00447755
0.0244379	-0.0269711	-0.02444
-0.00150786	0.0137711	-0.0072131
-0.0068939	-0.00963032	0.00925675
0.00376901	-0.00121934	0.000798251
-0.0376999	-0.211885	0.249533
-0.0810909	0.0834617	-0.08658
0.00607222	0.00334141	-0.00612219
-0.00550112	0.000809226	0.0072469
0.0017064	-0.0396792	0.0403337
0.00736375	0.00741534	-0.00735829
-0.00632891	0.0276003	-0.0314006
0.00431234	0.00485284	-0.00431138
0.00425554	-0.00622614	-0.00282263
0.00739797	-0.00371492	0.00386697
0.00859285	-0.0181181	-0.00957289
0.00392293	-0.0343985	0.0343678
0.00427904	0.000932675	-0.00389088
-0.00246597	0.00423479	-0.00165308
-0.0122425	0.0070898	-0.00827395
0.014331	-0.0159716	-0.0143733
0.000455236	0.0499475	-0.050548
0.0035622	0.00135135	-0.00316765
-0.0121281	0.0126336	0.0116437
0.00344878	0.00620005	-0.00564875
-0.00652263	0.00687186	0.00720675
0.00486801	-0.0466533	0.0466107
0.00134177	0.00235127	-0.00137931
0.00434393	-0.00433039	-0.000370431
-0.105805	-0.258635	0.330884
0.00783019	-0.00439066	-0.00495167
0.00754477	-0.0116725	0.0107458
-0.0296427	-0.0310818	0.0295366
-0.00359872	-0.00968857	0.0124521
-0.00388822	-0.406801	0.404443
0.0473185	-0.0476089	-0.0474818
-0.0197164	0.054428	-0.054557
-0.00224082	0.0220163	-0.0120376
0.00746367	-0.0110988	0.00983123
0.00509016	0.00516569	-0.00510829
0.00810078	-0.00327082	-0.00497884
-0.0610894	0.174233	-0.173797
-0.00374768	0.00871559	0.00225987
-0.00780887	0.0134775	-0.0102798
-0.00367916	-0.00368596	0.00364659
0.0135085	-0.02751	-0.0152035
-0.00534471	0.0435521	-0.0310053
0.00325194	-0.00349422	-0.00541717
0.00276366	-0.0249107	0.0235786
-0.023891	-0.00691531	0.0238945
-0.00505249	0.00535626	0.00683431
0.0032624	0.0193076	-0.0148404
0.0534637	-0.00736432	-0.0522116
-0.00489709	-0.0210115	0.0221118
0.00736375	0.00741534	-0.00735829
0.000923721	-0.025621	0.0235612
-0.0375175	-0.0188491	0.0374389
-0.0117661	0.0131339	0.011493
-0.00284317	0.0713915	-0.0709122
0.00455138	0.0046545	-0.00454841
-0.316084	0.318477	-0.330869
-0.0223761	0.0126227	0.00651305
-0.00969987	0.0101984	0.00902864
0.0012352	0.0213562	-0.0214609
-0.00688789	0.000332832	0.0102244
0.002292	0.0321104	-0.0315976
0.00845688	0.00736769	-0.00845373
-0.0329055	0.00904434	0.0328421
0.0130199	0.0538271	-0.0612906
0.0204725	-0.0201075	-0.0206
0.00625784	-0.042155	0.0416184
0.0034804	0.00482857	-0.00421487
0.012502	-0.0133564	-0.0125003
0.00728906	0.00593058	-0.00772365
0.0534724	-0.0472983	-0.0515461
0.00104802	-0.0198329	0.0200966
0.00728906	0.00593058	-0.00772365
-0.0226988	0.0137035	0.0227401
0.00736375	0.00741534	-0.00735829
-0.0176139	0.00354653	0.015837
0.000314367	-0.0276562	0.0288669
0.00967257	0.00991799	-0.00967979
-0.000809769	-0.027576	0.0301812
-0.0342512	0.0109565	-0.0130832
-0.0216517	0.0219986	0.0217417
0.00722705	-0.00464756	0.0025781
-0.00536768	0.00485965	0.0055382
0.00137613	-0.0175915	0.017786
0.00243395	0.00444829	-0.00240383
1.5085	0.234062	-1.82551
0.00229356	-0.0442409	0.044157
-0.00615457	0.00702325	0.00869718
0.00174221	-0.0038443	0.00337547
0.00483996	0.00125753	-0.00444634
0.00490746	-0.00352262	-0.00548554
0.00345528	-0.00744847	0.00349949
-0.00101806	0.0047564	-0.00059924
0.00257804	0.00184991	-0.00340386
-0.0686862	-0.0579501	0.0683398
0.00546676	-0.00651807	-0.00551276
-0.0105608	-0.0221396	0.0250959
0.0532365	-0.00825709	-0.0545608
0.00327518	-0.0495054	0.0500848
-0.0426468	-0.0425274	0.0426585
-0.00260928	-0.0316249	0.0355614
-0.00707279	0.00180084	-0.000330152
0.00859955	-0.00417369	-0.0140664
0.00492144	-0.0122276	0.0105362
-0.000190669	-0.00886118	0.000628209
0.00233647	-0.0166715	0.0194907
0.00455961	0.00899478	-0.0079753
-0.00619394	0.00770968	0.00578249
0.00739288	-0.0259311	0.0258911
-0.0157739	0.014955	0.0159136
-0.00305654	0.751054	-0.753272
-0.000960712	-0.00105277	-0.000302136
-0.0057152	0.0074898	0.00580433
0.0117677	0.0160171	-0.024029
-0.0232247	0.0125934	0.0183118
0.0012753	0.00530074	-0.00543531
0.00422589	0.00143432	-0.00144354
0.0742949	-0.0741996	-0.0742168
0.0316121	0.04746	-0.0728536
-0.0077791	0.00735062	0.00557509
0.00380857	-0.0193099	0.0203273
0.00479473	0.00551182	-0.00478836
-0.0186695	0.0117238	0.0184343
0.00508289	0.00586156	-0.00506174
-0.00218856	0.00917952	0.00153157
-0.00894602	0.151652	-0.150295
0.00693453	0.00195251	-0.00294071
0.00910805	-0.0270937	0.0239222
0.00344878	0.00620005	-0.00564875
0.0137503	-0.0108794	-0.0128353
0.00454807	-0.047834	0.0467746
0.0818715	-0.0661865	-0.0817708
4.6552e-05	-0.00688222	0.0074768
-0.0212667	-0.00788757	0.0213074
0.0022974	0.00785714	-0.00314086
0.0040729	-0.048292	0.0486077
-0.00854631	0.0138531	0.00785224
0.00029389	-0.0367011	0.0369251
-0.00236927	0.00376443	0.00239424
0.0153211	-0.0210822	-0.0155295
0.011636	0.000575238	-0.00840468
0.00616643	0.00843021	-0.00643881
-0.000666907	0.0826312	-0.0834732
0.00888539	0.0046121	-0.00548348
-0.00516141	0.00575608	0.00577088
-0.0144775	-0.0507861	0.0568633
0.0177618	-0.015351	-0.0176857
0.00029389	-0.0367011	0.0369251
-0.00650715	-0.0238181	0.0252902
0.00663892	-0.00686529	0.00482574
-0.000993828	-0.00111198	0.000990859
-0.00730886	0.00603038	0.00716457
-0.0352026	0.103889	-0.107314
-0.0199822	0.00128037	0.0097809
-0.00465608	-0.0318697	0.0329798
0.00479473	0.00551182	-0.00478836
0.134936	-0.131949	-0.134742
-0.000869412	-0.0396387	0.0398533
0.000587298	-0.000273683	0.00182918
-0.00484916	-0.00847796	0.00768141
0.00698477	0.0375054	-0.0393566
0.00523786	-0.00522843	-0.00605986
-0.00260928	-0.0316249	0.0355614
-0.00406426	-0.00874501	0.00388921
0.00387757	-0.0243931	0.0241767
0.00241931	-0.0093588	0.00911773
0.0356579	-0.0361662	-0.0359144
0.00296329	0.0245598	-0.0197089
-0.0150324	0.0148983	0.0150339
-0.00157421	0.0278054	-0.0274054
0.00134177	0.00235127	-0.00137931
-0.00532277	0.00516036	-0.0206873
-0.0265851	-0.00761812	0.0267856
0.0233058	-0.0367033	-0.0207649
-0.0052795	0.0250525	-0.0250882
-0.00715474	-0.00752849	0.00714519
0.0306791	-0.0309164	0.0242531
-0.0265851	-0.00761812	0.0267856
0.0345335	-0.0343852	-0.0348296
-0.0152767	0.0386584	-0.0389262
-0.010637	0.010288	0.0102917
-0.00253748	0.0354955	-0.0350897
0.00422589	0.00143432	-0.00144354
0.00881638	-0.00862577	-0.00893408
0.00412213	-0.00764008	0.00864466
-0.00146357	0.00805416	0.000566951
0.00115063	-0.0427959	0.0426902
0.0028113	0.00549281	-0.00484032
0.0635625	-0.0599955	-0.0630081
-0.00136474	0.0440545	-0.0404966
0.0215917	-0.0222798	-0.0212607
-0.0034985	0.0287645	-0.0274675
0.00290214	-0.000178136	-0.00300295
0.0284612	-0.0281561	-0.0264403
-0.011105	-0.00741711	0.00850964
0.00362314	0.0123714	0.000748922
0.00654371	-0.0304188	0.030391
0.000832996	0.0241536	-0.0170212
-0.0187278	-0.00207721	0.000155322
-0.00524292	0.0109147	-0.00517945
-0.00985311	0.00812973	0.00984224
0.00145059	-0.0387199	0.0383845
-0.0188504	0.0152263	0.00133468
0.00207322	-0.030669	0.0314836
-0.0158618	-0.0178989	0.0158507
0.0662634	-0.0693685	-0.0529061
0.00214401	-0.0441992	0.0441684
0.0270184	-0.0272609	-0.0271425
0.00430208	-0.026836	0.0275658
-0.0150464	-0.020594	0.0193426
-0.0114702	0.00863653	0.0122171
-0.00502308	0.0219461	-0.00980133
0.0271623	-0.0251495	-0.026756
0.00389068	-0.0336258	0.032715
0.00479473	0.00551182	-0.00478836
-0.00474978	0.00268116	0.00690953
-0.00245208	-0.000816279	-0.000301413
0.00781181	-0.00497696	-0.00915973
-0.0488783	0.0671388	-0.0668899
0.001155	0.000937097	-0.00116858
-0.0891058	0.299937	-0.221898
-0.0114249	-0.00657318	0.0114596
-0.0162243	0.0152724	0.0117614
0.00314853	-0.00346987	0.00632919
-3.13543e-05	0.00407975	7.28949e-05
0.0202096	-0.0202473	0.0156332
-0.0101117	-0.00980847	0.0101152
-0.00318802	0.00728915	0.00336038
-0.00868871	0.0554066	-0.0555824
-0.0122894	0.00778318	0.0121157
0.00440748	-0.0116387	0.0115696
0.0118564	0.0601933	-0.0638705
-0.00107393	0.000858906	-0.00220914
-0.00916273	-0.0370017	0.0406093
-0.00912331	0.0068478	0.00898706
0.00185118	-0.0346444	0.0339272
0.00573271	0.00479499	-0.00568099
-0.0117474	0.00554804	0.0118001
0.00300571	-0.00792342	0.0110299
-0.015554	-0.0481437	0.0245134
0.00561552	-0.0260869	0.0257756
-0.00960898	0.114682	-0.114527
0.0153211	-0.0210822	-0.0155295
0.00348693	0.00395795	-0.00447755
-0.033264	-0.00705752	0.0361419
0.00669411	-0.0206454	0.0209085
-0.000583247	-0.000234438	0.000562455
-0.0325058	0.0586581	-0.0524474
-0.000614903	-0.00210795	0.000530412
0.0331934	-0.0336329	-0.0335844
0.00486047	-0.0659726	0.0646423
-0.00400733	0.0082944	0.00379374
-0.0509802	0.0297515	-0.0296857
-0.00236927	0.00376443	0.00239424
0.0285693	-0.0275768	-0.0296071
0.00515455	-0.0661202	0.0646355
0.0468005	-0.000288153	-0.0487042
0.000454043	-0.000114424	-0.000214021
-0.00270906	0.0224881	-0.0138704
-0.0134056	0.0086163	0.014681
-0.000922956	0.0271611	-0.0205796
-0.0228772	0.0191677	0.022877
0.00229356	-0.0442409	0.044157
-0.0590598	-0.0673137	0.0902794
7.18921e-05	0.00369633	4.10451e-05
0.00312036	0.000377987	0.000402741
0.0323742	-0.0319016	-0.0171435
0.00137613	-0.0175915	0.017786
0.0028113	0.00549281	-0.00484032
0.00109673	-0.00237845	-0.00255449
0.00634889	0.00524022	-0.0050867
-0.0098287	0.00898262	0.0106911
0.00613259	-0.0149594	0.0153181
-0.0190096	-0.00248773	0.0190654
-0.00844007	0.0464564	-0.0452233
-0.0133815	-0.0146712	0.0133648
-0.00764918	0.0111475	0.00749361
0.000211444	-0.0513353	0.0514726
-0.0123848	0.00992266	0.0122427
-0.0270105	0.0375916	-0.0376172
-0.00199018	0.00384827	0.0020169
-0.0288224	0.0272943	0.0288698
0.00124955	-0.0290951	0.0310412
-0.0228277	0.0236069	0.022824
-0.000316201	0.0259328	-0.0257755
-0.00224082	0.0220163	-0.0120376
-0.014271	0.0090846	0.0151456
-0.00195563	-0.00164877	0.0098526
0.0240197	-0.0234951	-0.031356
-0.0013397	0.00787957	-0.00798679
-0.0026742	0.00272734	0.00305391
-0.0111574	0.0140872	0.0114167
0.00284968	0.00138252	-0.00269087
0.00360954	-0.0124475	0.000292163
0.00639357	-0.0203494	0.0202223
0.00316853	0.00045137	-0.00283152
0.00844579	-0.00937269	0.00398833
-0.000786421	0.134469	-0.138425
-0.0101207	0.00880401	0.0110238
-0.00539912	-0.0252071	0.0242115
-0.00523243	0.00292014	0.00605269
-0.0223173	0.0376013	-0.0381212
0.00431234	0.00485284	-0.00431138
0.00962689	-0.00963251	-0.0094803
0.00469839	-0.0119186	0.0131037
0.00264466	-0.00167764	-0.0033456
0.00151114	-0.0445799	0.044377
-0.00733852	-0.00983925	0.0100386
0.00545263	-0.005485	-0.0050732
0.0130709	0.0113327	-0.0176958
-0.0192283	0.0148694	0.0194816
0.00215128	-0.0162005	0.0173243
0.00344878	0.00620005	-0.00564875
0.00172875	0.00675908	-0.00250478
-0.00128066	0.00354275	-0.0028762
-0.0240718	0.0186086	0.0244497
0.0010247	-0.0424859	0.0422599
-0.0870268	-0.0566391	0.0842213
-0.000358943	-0.0102213	0.0133936
-0.0364343	-0.0410276	0.0386345
-6.45896e-05	-0.000649638	7.67664e-05
0.00449329	-0.0653876	0.0677881
0.00242184	0.0233564	-0.0309734
-0.0339501	0.111008	-0.113041
0.00363642	0.00484575	-0.00359186
-0.00647216	0.00281476	0.00938194
-0.0320834	0.0983071	-0.0976317
0.00870571	-0.00904773	-0.011343
0.0012245	-0.0400809	0.0400716
0.00458485	0.00317315	-0.00346143
-0.0150742	0.00873128	0.015337
3.09209e-05	-0.00956614	0.0132192
0.0356171	-0.0326212	-0.0362164
0.00387757	-0.0243931	0.0241767
0.00713397	0.00480273	-0.00682863
0.0139747	-0.0143701	-0.013941
0.00148913	0.000283361	0.00166995
0.0186604	-0.0118913	-0.0186645
-0.00140509	0.01201	-0.0121259
0.0114013	0.0480796	-0.0510158
-0.0148597	0.0624346	-0.0794421
-0.0379992	-0.00589153	0.0385334
0.0214162	-0.0183872	-0.0185964
0.00141425	0.0339885	-0.0335796
0.00713397	0.00480273	-0.00682863
0.0183701	-0.0189797	0.0148702
0.0035622	0.00135135	-0.00316765
-0.0107343	0.00837759	0.0108689
0.00478099	0.0150338	-0.0147861
0.0254117	-0.0247809	-0.0254926
0.000961504	-0.0249958	0.0263591
-0.00193883	-0.11112	0.111496
-0.0168992	0.0170409	0.0171413
0.00231693	0.296446	-0.292822
-0.00642761	0.00352418	0.00577327
0.00137434	0.0145343	-0.014753
0.00177589	0.00108393	-0.00174751
0.0165311	-0.0168042	-0.0165388
0.0129382	0.00820757	-0.0165934
0.00172875	0.00675908	-0.00250478
0.002472	-0.0255208	0.0256415
-0.0120842	-0.0348326	0.0276953
-0.00912331	0.0068478	0.00898706
-0.0347101	0.00957981	0.022532
0.00742971	-0.00774149	-0.00801396
0.00315864	-0.004703	0.00373264
0.00134177	0.00235127	-0.00137931
0.00546802	-0.015585	0.0166361
-0.00135404	0.0319704	-0.0274032
-0.00833773	0.00898322	0.00824187
0.00312922	-0.022415	0.0209239
0.0019211	-0.0167459	0.0168884
0.00439086	0.00096729	-0.000954793
-3.13543e-05	0.00407975	7.28949e-05
-0.00614607	0.00495204	0.0040761
-0.0244378	0.0159764	-0.0157686
-0.034729	0.0194168	0.0347136
0.00282198	-0.0518231	0.0513537
0.00284968	0.00138252	-0.00269087
-0.00417471	0.00809782	0.00338879
0.0155217	0.0202793	-0.0334476
0.00197246	0.00999913	-0.00275047
-0.0112046	0.0458317	-0.0471786
-0.0114249	-0.00657318	0.0114596
-0.00110627	-0.0056867	-0.00023559
0.00455528	4.76805e-05	0.00338732
0.412915	-0.415028	-0.412927
-0.00114669	8.72975e-05	-0.00018678
0.000985472	0.000680581	-0.000990824
0.00411735	-0.0089587	0.00671463
0.000336142	0.00229309	-0.000513103
-0.00310103	0.00463293	0.00157834
0.00183911	0.0356455	-0.0386835
-0.00087701	-3.01391e-05	0.000906197
-0.00844007	0.0464564	-0.0452233
-0.0114249	-0.00657318	0.0114596
0.11196	-0.114139	-0.113516
-0.0263066	0.0850712	-0.0848347
-0.00326304	0.0018821	0.00780209
-0.00157421	0.0278054	-0.0274054
0.00914595	0.0494285	-0.0498248
0.0681969	-0.0680817	-0.0680629
0.00252099	-0.0404023	0.0425437
0.00259349	-0.00546205	-0.0032501
0.00238536	-0.039292	0.0393437
0.00713397	0.00480273	-0.00682863
-0.00550924	0.00586354	0.0056107
-0.00128066	0.00354275	-0.0028762
0.00538703	-0.0210869	-0.00615524
0.000782627	0.0894927	-0.088089
0.00579598	0.00430597	-0.00578402
-0.00928824	0.00736548	0.00923822
0.00846839	0.00830397	-0.0084774
-0.0124953	0.011098	0.0168954
0.000671423	0.00693081	-0.00682065
0.00483996	0.00125753	-0.00444634
0.016734	-0.0181659	0.0122489
0.00584778	0.0121732	-0.0107301
0.00167576	-0.000282499	-0.00180358
0.0042012	-0.00993774	0.00975422
-0.00547405	-0.00464922	0.00941473
0.00475693	-0.00489602	0.00487918
0.00213468	-0.17118	0.168961
-0.0192226	0.0104378	0.0190892
0.0105245	-0.034521	0.0347465
-0.0130473	0.00658189	0.0131008
0.00312922	-0.022415	0.0209239
-0.00400599	0.021459	-0.0111727
-0.00945751	0.00798637	0.0109373
-0.0079517	-0.108051	0.0966629
-6.76179e-05	-0.00469922	0.00082797
0.00309283	0.245658	-0.248202
-0.00222586	-0.000846408	0.00296202
0.00792021	-0.0086236	-0.00701473
-0.0198938	-0.0460561	0.0410468
-0.0167813	0.00798772	0.0164882
0.00133205	-0.020693	0.0207063
0.005781	0.0152762	-0.0188541
-0.0216766	0.00899854	-0.0133163
0.00134177	0.00235127	-0.00137931
0.0427372	-0.0470511	-0.0428435
-0.0320294	0.19399	-0.195601
-0.0288202	-0.0209336	0.0297691
-0.00320693	0.00184647	-0.0030755
0.00445163	-0.000113071	-0.00157947
0.0187253	-0.0176019	-0.0196519
-0.0274865	0.068227	-0.0681781
0.00957756	-0.00998676	-0.00926372
-0.0228139	0.0487789	-0.048594
0.00348693	0.00395795	-0.00447755
-0.020244	0.0186704	0.0137952
0.00124572	-0.01749	0.0203392
-0.0106305	0.0111079	0.00488134
0.00120728	-0.0322673	0.0333207
-0.0215129	-0.0105951	0.0213882
-0.028319	0.026141	0.0283181
-0.00217207	-0.0235846	0.0162621
0.0161541	-0.0167849	-0.0161532
0.00254411	-0.0492205	0.0493496
-0.0103363	-0.00164801	0.0105106
-0.0128034	0.0122455	0.013186
-0.185254	-0.459348	0.462343
-0.0115384	0.00838662	0.0117958
0.00973066	-0.0126394	0.0130601
-0.00192499	-0.0105554	0.00898046
0.00191923	-0.0128607	0.0141372
-0.000438819	4.90408e-05	0.000469706
-0.00928708	0.00783059	0.00932307
0.00606565	-0.0317353	0.0313289
-0.00430154	-0.00412704	0.00524085
0.00639357	-0.0203494	0.0202223
0.00426548	0.0196339	-0.0151646
1.85572	-0.0502562	-1.85503
0.00283223	-0.0193921	0.0193942
0.00822066	-0.00722734	-0.00856538
0.00130378	-0.0307481	0.0309136
0.00521509	0.00562125	-0.00600963
0.0100776	0.00502308	-0.0111925
0.00187996	0.027925	-0.0242372
-0.0196628	0.0184786	0.0196629
-0.00216974	0.00817181	-0.00761571
0.00146143	0.00111628	-0.00146876
-0.0194861	0.0191934	0.0196025
0.00603323	0.00741529	-0.00736828
0.0467808	-0.0101489	-0.0383792
0.00214401	-0.0441992	0.0441684
-0.0240043	-0.00978869	0.0234056
-2.43428e-05	-0.00558629	0.00892322
-0.011105	-0.00741711	0.00850964
-0.0132089	0.0151452	0.013588
0.00229356	-0.0442409	0.044157
-0.624837	-0.028507	0.60673
-2.43428e-05	-0.00558629	0.00892322
0.000336142	0.00229309	-0.000513103
0.0248192	-0.0251302	-0.012393
0.00392293	-0.0343985	0.0343678
-0.0137522	0.00868107	0.0139486
0.00032108	0.0161454	-0.0150324
-0.00395658	0.021504	-0.0116404
-0.00229092	0.00208455	0.00122069
-0.03588	0.0307315	-0.0319406
0.00461298	0.00861345	-0.00538077
-0.0111854	0.196649	-0.196405
0.0100169	-0.00131166	-0.000371085
-0.00904749	0.0076114	0.00873503
-0.00893866	0.00759862	0.00756632
0.079194	-0.0541688	-0.0718909
0.00617606	-0.0259655	0.0262355
-0.00341518	0.00304037	-0.00214989
-0.00316471	-0.00800736	0.00279972
-0.0750676	-0.0761372	0.0750491
0.0224157	-0.00944531	-0.0217195
-0.0263619	0.0266597	-0.0262623
-0.0014017	-0.00133344	0.0013938
-0.000637913	-0.00847607	0.010402
-0.000780643	0.00378052	0.000886147
0.00568734	-0.00920455	-0.00143028
-0.00249396	0.0444517	-0.0435841
-0.0148052	0.0130822	0.015069
0.00639357	-0.0203494	0.0202223
0.000909242	-0.00471677	0.00579662
0.0214162	-0.0183872	-0.0185964
-0.00216974	0.00817181	-0.00761571
-0.00123243	0.00498629	0.00178723
0.00403165	-0.00594249	0.00562848
0.00282318	0.00637193	-0.00541734
0.0022923	0.00570384	-0.00238462
-0.00245208	-0.000816279	-0.000301413
-0.0105179	0.00951185	0.0113423
-0.0121331	-0.0395096	0.0397409
0.00843349	0.0027536	-0.00586012
0.0190883	0.00175617	-0.0190606
0.00104222	0.00357466	-0.00323349
0.00744171	-0.00858579	-0.00841694
0.00669299	0.0312366	-0.0309505
0.00344878	0.00620005	-0.00564875
0.00667406	-0.0299628	0.027919
-0.00862828	-0.00574338	0.00888959
-0.00661522	0.00664847	0.00668283
0.00478459	-0.0327352	0.0322229
-0.00807133	0.0253419	-0.0189803
-0.00308308	0.061077	-0.0608265
0.00344878	0.00620005	-0.00564875
0.00947147	-0.00741233	-0.00898373
0.002472	-0.0255208	0.0256415
0.0264472	-0.00139709	-0.0264455
0.00224181	-0.00961671	0.00798526
-0.0106542	0.145436	-0.141907
0.00336285	-0.00339104	-0.00337621
-0.0182076	0.0914358	-0.0895427
0.0583923	-0.0558501	-0.0583924
0.0012245	-0.0400809	0.0400716
0.00710709	0.000656493	-0.00222989
0.00698566	-0.00907301	-0.00677386
-0.0648347	-0.0181454	0.0569501
-0.0186001	0.0174569	0.0185985
-0.00215737	0.0162989	-0.0163237
-0.00224082	0.0220163	-0.0120376
-6.50498e-05	-0.0373373	0.0404159
0.00148913	0.000283361	0.00166995
0.00484883	-0.0155194	-0.00324081
0.00206	-0.00905248	0.0108173
0.00155414	0.00114027	-0.00159527
0.00233647	-0.0166715	0.0194907
0.000397169	0.00036794	-0.000383493
-0.00300376	0.000946313	0.00213452
0.00547191	-0.0046378	0.00460631
0.0123646	-0.0130921	-0.0120004
0.00330888	-0.0446383	0.0445491
0.00617769	0.00751789	-0.00603561
-0.0103457	0.010106	0.00999332
-0.000853522	0.193612	-0.190775
0.0108977	-0.00847728	-0.0106284
-0.00342397	-0.0301968	0.0303242
0.0037832	0.0041202	-0.00375616
0.0459904	-0.0461772	-0.0460733
0.00256685	-0.0139057	0.0142493
0.0346214	-0.033077	-0.0346216
-0.00133057	0.0203901	-0.0203715
0.00613866	-0.111775	0.113484
-0.0237836	0.0120566	0.0237794
-0.00178094	-0.0787316	0.0726563
-0.0428692	0.00673953	0.043634
0.00427326	-0.0413094	0.0410422
0.00427904	0.000932675	-0.00389088
0.00559077	-0.0229984	0.0216478
-0.0083997	-0.00690965	0.0158473
-0.00662957	0.00746062	0.00687534
-0.0182203	0.0685958	-0.0708911
-0.00293645	0.0103474	0.00217156
0.00327195	0.000168487	0.00012713
-0.000191276	-0.00503538	0.000139542
-0.0180387	0.0126236	0.0177317
-0.0112046	0.0458317	-0.0471786
-0.00766494	0.00719055	0.00769328
-0.00216661	0.00114943	-0.000803283
-0.0150086	-0.0108039	0.0146366
-0.0142873	0.00908509	0.0152293
-0.0475576	0.0203913	0.031141
0.00260133	0.00806528	-0.0040933
0.00358362	-0.0481744	0.0468051
-0.0114412	-1.47226	1.47357
0.109191	-0.108881	-0.10919
0.00344878	0.00620005	-0.00564875
0.0253447	-0.00229359	-0.031711
0.000125435	-0.00719201	0.00725781
-0.0440234	-0.0485362	0.0489477
0.00107174	-0.0494711	0.0529111
0.00155414	0.00114027	-0.00159527
0.0377886	-0.0347043	-0.0374218
0.00478459	-0.0327352	0.0322229
-0.000993828	-0.00111198	0.000990859
0.000259259	0.00395666	-0.00448911
0.00736375	0.00741534	-0.00735829
-0.00766775	0.0087879	0.00839561
0.0012352	0.0213562	-0.0214609
-0.00598925	0.00480745	0.00503606
0.00330888	-0.0446383	0.0445491
-0.0365461	-0.103297	0.0961392
0.00855651	-0.0122062	-0.0090338
-0.000572183	-0.0208873	0.0226157
0.0190883	0.00175617	-0.0190606
0.00357115	-0.0486847	0.0493447
-0.00169059	-0.00600753	0.00177656
-0.0191145	0.0195588	0.019123
-0.00195563	-0.00164877	0.0098526
-0.00144095	0.00653363	0.000887736
-0.00272141	0.0151025	-0.015109
0.00243395	0.00444829	-0.00240383
0.0222596	-0.0191025	-0.0220675
-0.0124543	-0.0115866	0.0124421
0.0827305	-0.0793661	-0.0827315
0.0017064	-0.0396792	0.0403337
0.00479473	0.00551182	-0.00478836
0.00051963	-0.0210864	0.0233286
0.0113888	0.0537775	-0.0580099
-0.00427595	0.00462342	0.00319683
0.00143562	0.249679	-0.249918
0.00409174	-0.00441013	-0.00310676
-0.00192112	-0.00701723	0.00872922
-0.00519789	0.00634904	0.00557312
0.018912	-0.0189311	-0.0218549
0.00577187	-0.0120629	0.0125933
0.0157326	-0.0200324	-0.0159857
-0.00618908	-0.024934	0.0247953
-0.017339	-0.0243318	0.02302
0.0300449	-0.0272885	-0.0290895
-0.00115491	-0.0110428	0.0128494
0.0636486	-0.0633378	-0.063647
-0.00129765	0.249943	-0.250351
0.00401806	0.00222629	-0.00408468
-0.00665914	0.00778863	-0.00033881
0.00207776	0.00168044	-0.00165869
0.117294	-0.111766	-0.117294
0.003827	-0.0449012	0.044858
0.000752325	0.0034655	-0.000837539
-0.0101872	0.0445438	-0.0427177
0.00658242	0.0408562	-0.0429722
0.0842939	-0.0842335	-0.083844
-0.00722549	-0.016234	0.0170063
-0.0645976	-0.0588226	0.0660309
-0.0144773	-0.0199694	0.0231454
-0.0321549	0.00849988	0.0210976
-0.00430084	0.0133623	0.00459708
0.00327293	-0.00997886	0.00973268
-0.00601553	0.00781301	0.00597484
-0.000383524	0.0178221	-0.017789
0.00316853	0.00045137	-0.00283152
-0.020244	0.0186704	0.0137952
-0.00794636	-0.00987417	0.0130176
-0.0162601	-0.00250951	0.0192913
0.00314031	-0.0419671	0.0406003
-0.000264771	0.0003309	0.00026563
0.000513022	0.00921001	0.00031429
-0.000359437	0.00314279	0.00455307
0.0992415	-0.0100673	-0.0992918
0.00307906	-0.00339137	0.00430817
0.00658804	0.00577728	-0.00656321
-0.0215203	0.0225097	-0.0235673
0.00421665	0.00498742	-0.00501523
-0.00865109	0.0112439	0.0051641
0.00511873	-0.0154255	0.0144887
0.00384907	0.00434744	-0.00382037
0.00256947	0.00627179	-0.0118594
0.00605448	0.00652304	-0.00603482
0.00778609	-0.00362706	-0.0078415
-0.0302233	-0.0838298	0.0838894
0.00393389	-0.00347526	-0.00251291
-0.00161906	0.0542711	-0.0536944
0.00284502	-0.0330746	0.0273318
0.011319	-0.0100703	-0.00804926
0.00145059	-0.0387199	0.0383845
0.0124371	-0.00828875	-0.012582
0.00296166	0.0409446	-0.0412501
0.00605448	0.00652304	-0.00603482
-0.00947745	0.0118743	0.00965997
0.00685652	-0.0500754	0.0355648
-0.00808889	0.00619747	0.00803327
0.00272368	-0.0479499	0.0479455
-0.0435309	-0.0755295	0.0697317
-0.0081896	0.00756331	0.00895133
-0.00184564	0.00206198	0.0026978
0.0468005	-0.000288153	-0.0487042
0.002472	-0.0255208	0.0256415
-0.017339	-0.0243318	0.02302
-0.00633171	-0.000312446	0.00834279
0.00148913	0.000283361	0.00166995
-0.00559101	0.00638515	0.00597492
0.00264694	0.000593223	-0.00158321
-0.0577935	-0.0192961	0.0526306
0.00392293	-0.0343985	0.0343678
0.0126408	0.00607174	-0.00757772
-0.00459508	-0.00435386	0.00481892
-0.0058666	0.0159512	-0.0162593
0.0336252	-0.0330061	-0.0326672
-0.000874094	0.062721	-0.0624749
0.00458485	0.00317315	-0.00346143
0.00278476	-0.00588661	-0.00274
0.00385785	-0.0285187	0.0280197
0.00234352	-0.00794937	0.00365302
0.00400728	-0.0613734	0.0604257
0.00292299	0.00241013	-0.00299168
0.00242727	-0.00075601	-0.00223382
0.00296329	0.0245598	-0.0197089
0.0755332	-0.0429357	-0.0732359
0.00330888	-0.0446383	0.0445491
0.00630719	-0.0961832	0.0917883
-6.50498e-05	-0.0373373	0.0404159
0.00573271	0.00479499	-0.00568099
-0.00770617	0.00865673	0.0063314
-0.00675122	0.108766	-0.108515
-0.0228675	-0.0101507	0.023034
0.00107174	-0.0494711	0.0529111
0.00207776	0.00168044	-0.00165869
0.00514987	-0.0153561	-0.00607103
0.00739797	-0.00371492	0.00386697
-0.00394091	0.0020146	0.00408149
0.00448405	-0.0105413	0.0105283
-0.00395658	0.021504	-0.0116404
0.222258	-0.221589	-0.221193
0.00454807	-0.047834	0.0467746
0.00872149	0.00547156	-0.00988709
-0.00140509	0.01201	-0.0121259
0.00226944	0.00348082	-0.00308103
0.00627191	-0.00649382	-0.00629776
0.0100132	0.0346907	-0.0369672
0.000882252	-0.000672216	-0.000780249
0.00214401	-0.0441992	0.0441684
-0.00215222	-0.00656813	0.00621268
-0.00195002	0.00415004	0.00204781
-0.122744	-0.300661	0.412256
-0.0171124	0.00573255	0.0160485
0.00254411	-0.0492205	0.0493496
-0.0240043	-0.00978869	0.0234056
-0.0407844	0.066182	-0.0697279
-0.0409783	-0.0546937	0.0524345
-0.00275451	-2.96908e-05	0.00115084
-0.00129765	0.249943	-0.250351
-0.00396211	0.00166755	-0.00135411
0.00319048	-0.0103423	0.00974489
-0.0361006	-0.0389719	0.0444953
-0.00518756	0.00499517	0.000988061
0.00258532	0.341859	-0.341808
-0.00161922	0.00152784	0.000937855
0.00395474	-0.0365934	0.0344276
-0.100534	-0.159443	0.165864
-0.00318802	0.00728915	0.00336038
0.00241931	-0.0093588	0.00911773
-0.00510455	0.00873761	0.00581356
0.00264694	0.000593223	-0.00158321
-0.000264771	0.0003309	0.00026563
0.124489	-0.123594	-0.124889
-0.00396211	0.00166755	-0.00135411
0.0167214	-0.0083438	-0.0167154
0.00243344	0.0145429	-0.0148648
0.00479473	0.00551182	-0.00478836
0.00124955	-0.0290951	0.0310412
0.001155	0.000937097	-0.00116858
-0.0194496	0.01136	0.0132682
-0.00334125	0.0467887	-0.046414
0.00458485	0.00317315	-0.00346143
-0.00260928	-0.0316249	0.0355614
-0.0232106	-0.00495609	0.0231954
0.0313315	-0.0328468	-0.0313274
0.00679085	-0.0492514	0.0492484
-0.0145818	0.0118635	0.0115197
0.00222731	0.0389714	-0.0386815
0.0035622	0.00135135	-0.00316765
0.138267	-0.134166	-0.0456615
0.00385785	-0.0285187	0.0280197
0.00329653	-0.00356694	-0.00335987
0.00425555	-0.0486036	0.0485202
0.0114013	0.0480796	-0.0510158
-0.0144587	0.00895504	0.0154272
-0.0347101	0.00957981	0.022532
-0.00251567	0.0087222	0.00391753
0.00547191	-0.0046378	0.00460631
-0.00194588	-0.00161407	0.00333269
-0.0100113	0.00903829	0.0104862
-0.0252087	-0.0226242	0.0179946
-0.00496	-8.66742e-05	0.00907371
0.00254411	-0.0492205	0.0493496
-0.0535116	-0.0536545	0.0535424
-0.00086813	-0.0179541	0.021307
0.00134177	0.00235127	-0.00137931
0.0117893	-0.0134063	-0.0108775
0.000312802	-0.036845	0.0381562
-0.000918051	0.00233652	0.00104669
0.00289727	-0.00794107	0.00783969
0.000255193	-0.000949991	0.00167956
-0.01661	0.0133487	0.0129253
-0.009769	0.123028	-0.122904
-0.00719146	0.00233421	0.00661013
0.0028285	-0.0296245	0.0280412
0.00728906	0.00593058	-0.00772365
0.0058019	-0.00326912	-0.00604314
0.00488919	0.0523329	-0.0476467
-0.0112434	0.00962476	0.0120629
-0.00216974	0.00817181	-0.00761571
-0.0119009	-0.0198882	0.0216657
-0.00945751	0.00798637	0.0109373
-0.0555226	-0.153333	0.154317
0.0080075	-0.00749444	-0.00267641
-0.00272141	0.0151025	-0.015109
-0.0150086	-0.0108039	0.0146366
-0.000809769	-0.027576	0.0301812
0.00102607	0.0529324	-0.0485299
-0.00385863	0.00585997	0.0040462
0.00154482	-0.0137671	0.0128812
0.00220402	0.000494308	-0.00211944
0.00119762	-0.0149748	0.0156409
0.000832996	0.0241536	-0.0170212
-0.00643836	0.00655632	0.00741633
-0.00741486	0.0037968	-0.00432529
-0.0226484	0.0238642	0.0227879
0.00154482	-0.0137671	0.0128812
-0.0618531	-0.0424812	0.0619921
-0.00343261	0.000168777	0.00327622
-0.00794636	-0.00987417	0.0130176
-0.0142301	0.0148067	0.0142292
0.00358362	-0.0481744	0.0468051
-0.0296825	-0.00685234	0.029747
-0.00706946	0.00528421	0.00706161
-0.000333604	-0.00206048	0.00379002
-0.0223037	0.00682357	0.0258848
-0.0147244	0.418824	-0.419947
-0.0103129	-0.0143547	0.0103403
0.00233647	-0.0166715	0.0194907
0.0109757	0.0115011	-0.010972
0.0103552	-0.0347508	-0.0114753
-0.0324786	0.0326176	-0.0332948
0.00911752	0.00905674	-0.00913116
-0.0396664	0.0441591	-0.0539653
0.00617769	0.00751789	-0.00603561
0.0658014	-0.0670188	-0.0653622
0.00606209	-0.0480769	0.0478008
-0.00647216	0.00281476	0.00938194
0.00137613	-0.0175915	0.017786
-0.0409027	-0.0314111	0.0409788
-0.00545805	0.00934872	0.00700224
0.00606565	-0.0317353	0.0313289
-0.00897087	0.00478519	0.00878607
-0.00772752	0.257738	-0.257008
0.00384907	0.00434744	-0.00382037
0.124877	-0.124031	-0.124674
0.0169943	-0.0329285	0.016621
0.150973	-0.151108	-0.151014
0.000312802	-0.036845	0.0381562
0.00501365	0.00534748	-0.00502684
-0.0039134	0.00288274	0.00465357
0.0160648	-0.0267131	0.0087881
0.0673714	-0.0652575	-0.0673713
0.00640425	-0.0486543	0.0485753
0.00104669	0.00918656	-0.00148606
-0.106364	0.110936	-0.103058
0.00652294	0.00359773	-0.00650164
0.011813	-0.0112888	-0.0127059
0.0024676	0.244195	-0.245876
0.00241931	-0.0093588	0.00911773
-0.037551	0.0553281	-0.047559
-0.024094	0.0316389	-0.0205486
-0.00823008	0.00816658	0.00342224
0.00547191	-0.0046378	0.00460631
-0.00761244	0.00797746	0.00652925
0.00145059	-0.0387199	0.0383845
-0.00547737	0.00170714	0.00587377
0.00911548	0.00427873	-0.00799685
0.0007981	-0.0310652	0.0302429
6.36462e-06	-0.00140684	-6.31696e-06
0.00314031	-0.0419671	0.0406003
-0.0133815	-0.0146712	0.0133648
-0.00769478	0.0075319	0.00753161
0.00207776	0.00168044	-0.00165869
0.0184671	-0.020853	-0.0174776
0.00486801	-0.0466533	0.0466107
-0.0359946	-0.0215528	0.0366573
0.0055284	0.155694	-0.162071
-0.0120029	0.0639037	-0.0668652
-0.0127603	0.0155456	0.00859441
-0.0837566	0.0797721	-0.0819637
-0.045971	-0.0451401	0.0459998
-0.000572183	-0.0208873	0.0226157
0.00284968	0.00138252	-0.00269087
0.00554551	-0.0107629	-0.00173717
-0.022302	-0.027364	0.0265969
-0.01138	0.0105167	0.0114445
0.00739288	-0.0259311	0.0258911
-0.000922956	0.0271611	-0.0205796
0.0125798	-0.00146732	-0.0135886
-0.00459224	-0.00805667	0.00831885
0.0354196	-0.0352519	-0.0353044
0.000671423	0.00693081	-0.00682065
0.00401806	0.00222629	-0.00408468
0.0479541	-0.0483072	-0.0481386
0.0161446	-0.0353064	0.0213162
-0.00688114	0.0049209	0.00690807
0.00357115	-0.0486847	0.0493447
-0.0113175	-0.0358915	0.0476071
-0.0130473	0.00658189	0.0131008
0.00824978	-0.0016629	0.00181254
-0.00983799	-0.0291773	0.0122421
-0.00489731	-0.0270548	0.0270332
0.00316853	0.00045137	-0.00283152
0.0055203	-0.0221716	0.0211501
0.00479473	0.00551182	-0.00478836
0.000295804	-0.00430285	0.000620603
0.00319408	0.000917165	0.00237715
-0.0534022	-0.043751	0.0527962
0.00667704	-0.0105615	0.00938036
0.00243395	0.00444829	-0.00240383
0.000591	0.000359471	-0.00346021
0.00486801	-0.0466533	0.0466107
-0.0142172	0.00784775	0.0139732
-0.01054	0.0037353	-0.00303973
-0.0140914	0.14859	-0.143922
-0.022785	0.015045	0.0227954
0.00982183	0.000956197	-0.00301308
-0.00687591	0.00509911	0.00523708
0.00224181	-0.00961671	0.00798526
0.00845688	0.00736769	-0.00845373
0.0304522	-0.031803	-0.0298812
0.000504961	-0.00414533	0.00129497
-0.0152334	0.0181121	0.00948931
0.0010247	-0.0424859	0.0422599
0.00282318	0.00637193	-0.00541734
0.00472733	-0.017958	0.0169595
-0.0241909	0.194032	-0.197567
-0.0016286	0.000576835	0.00325876
0.00133106	-0.00739153	0.00696059
0.00656969	0.00640843	-0.00657634
0.00328886	0.0268802	-0.0291573
-0.0190096	-0.00248773	0.0190654
0.0218365	-0.0220765	-0.0216665
0.00713819	-0.0173207	0.0172479
-0.00766012	0.00785489	0.00907008
0.000435099	-0.0213834	0.021493
0.00083616	0.0047789	-0.000908941
-0.0160711	0.0152014	0.0147935
-0.0087987	-0.00228681	0.00238017
-0.0143202	0.0111144	0.0148284
0.00357115	-0.0486847	0.0493447
0.0161787	0.0155542	-0.0161956
-0.00916265	0.00993113	0.00888599
0.0103743	0.0053174	-0.00980136
0.0206451	-0.0199256	-0.0210401
0.00287803	-0.014506	0.0146999
0.00133286	0.0209647	-0.0254887
-0.00484972	0.00515476	0.00471207
-0.00164767	0.00618399	0.00190956
-0.0179986	0.00636272	0.021081
0.00548548	-0.010219	0.00946964
-0.0239711	-0.0187751	0.0196106
-0.00458497	-0.00216689	0.003149
0.00134177	0.00235127	-0.00137931
0.00545263	-0.005485	-0.0050732
0.000811325	0.404836	-0.407516
-0.0219803	0.0178726	0.0219939
0.00357115	-0.0486847	0.0493447
0.000752325	0.0034655	-0.000837539
0.00802796	-0.00764022	-0.00999353
0.00185118	-0.0346444	0.0339272
-0.00118346	0.00128476	0.00136823
0.00145059	-0.0387199	0.0383845
-0.00941808	-0.0261208	0.0310172
-0.00601628	0.00859643	0.00589419
-0.0829959	-0.0674649	0.0946392
-0.000847835	0.00141952	0.00261671
0.00477288	-0.0466254	0.0451832
0.00501365	0.00534748	-0.00502684
-0.00643254	0.00340815	0.00653465
0.00880099	-0.0132352	0.00995697
0.241678	-0.22468	-0.239991
0.00287803	-0.014506	0.0146999
0.00433119	0.00843698	-0.00788175
0.00697366	0.00484235	-0.00479508
-0.00119471	-0.315593	0.317114
0.0572882	-0.052086	-0.0641183
0.00358362	-0.0481744	0.0468051
-0.0375175	-0.0188491	0.0374389
0.00349554	-0.0519993	0.0544896
0.00479473	0.00551182	-0.00478836
0.0199947	-0.0204318	-0.0190448
-0.00187062	0.00285817	-0.00291088
-0.00374792	0.00439621	0.00302828
0.00229356	-0.0442409	0.044157
-0.0275644	-0.086509	0.0896991
-0.00705998	0.00669814	0.00437442
-0.0129174	0.0090703	0.00382165
-0.00642761	0.00352418	0.00577327
-0.00591497	0.0899438	-0.0902634
0.00453056	0.0772698	-0.0800293
-0.0315752	0.0311107	0.0315763
-0.000359437	0.00314279	0.00455307
0.00555997	0.00326946	-0.00744214
0.00202926	0.0206361	-0.0205252
-0.0337684	-0.18519	0.191436
0.0010241	-0.00991949	0.0128284
0.00422589	0.00143432	-0.00144354
0.0224157	-0.00944531	-0.0217195
0.00711849	0.00531543	-0.00765399
-0.00185856	-0.00183917	0.00251526
0.0080066	-0.0126512	0.0085914
0.000899351	0.00068912	-0.000909602
0.0233743	-0.0246846	-0.0226754
-0.00519803	0.0651787	-0.0658464
0.00671775	-0.00607579	-0.00325906
-0.0157024	0.693824	-0.690817
-0.000993828	-0.00111198	0.000990859
0.00144755	0.00736822	-0.00116835
-0.000874094	0.062721	-0.0624749
0.00637808	-0.00660983	-0.00640094
-0.00683501	0.00792443	-0.00757336
0.00526763	0.00510623	-0.00527394
0.01436	-0.0148576	-0.0142444
-0.00195563	-0.00164877	0.0098526
-0.00759568	0.00915746	0.00812592
-0.000432909	-0.0488731	0.0508792
0.000336142	0.00229309	-0.000513103
-0.0142301	0.0148067	0.0142292
0.00404337	0.00156283	-0.00299709
0.00211595	-0.00192374	-0.0021154
0.00133205	-0.020693	0.0207063
0.00155414	0.00114027	-0.00159527
-0.00086813	-0.0179541	0.021307
0.00440519	0.00236528	-0.00447047
-0.000813936	4.40043e-07	0.000685238
0.000205945	0.0491362	-0.0489243
-0.00239225	-0.00124351	0.00322894
-0.00268768	-0.0186437	0.0182338
-0.0496692	0.0456901	-0.0360915
0.00586052	-0.0239462	-0.00515345
0.00640425	-0.0486543	0.0485753
-0.00505459	0.00586867	0.00398577
-0.00277945	-0.00728334	0.00698402
-0.00166491	-0.0333278	0.0316712
-0.00484972	0.00515476	0.00471207
-0.0521894	0.052411	-0.043021
-0.000682372	0.00193339	0.00013858
0.00439835	-0.0485569	0.0479878
0.00701117	0.00636672	-0.00703126
-0.00707295	0.00166758	0.00628184
-0.00148595	-0.000926792	0.00299379
-0.0044386	0.000616981	0.00378428
0.00330888	-0.0446383	0.0445491
-0.00119471	-0.315593	0.317114
-0.00131793	0.032184	-0.0305399
0.00782715	0.00162739	-0.00292211
-0.0077791	0.00735062	0.00557509
-0.0278488	0.0262712	-0.024711
-0.0014017	-0.00133344	0.0013938
0.00339419	0.00122058	-0.00437935
0.00846839	0.00830397	-0.0084774
0.0181397	-0.0191653	-0.0155743
-0.0769952	0.0663604	-0.067146
-0.000671376	0.00114824	0.000285967
-0.00755478	0.0644956	-0.0645601
0.000223058	0.0144118	-0.0155955
0.0359819	-0.0319077	-0.0359446
-0.0105234	-0.0247129	0.0264523
-0.0192446	0.0183512	0.0193161
0.00486047	-0.0659726	0.0646423
-0.0171434	-0.0281238	0.0261166
-0.00810094	0.00836304	0.00793378
0.00924521	-0.00959531	0.00568583
-0.0153645	0.0160188	0.0151146
-0.00312522	0.0103945	-0.0095723
0.0118564	0.0601933	-0.0638705
0.0110925	-0.013352	-0.0105989
0.0130709	0.0113327	-0.0176958
-0.00906091	0.00794285	0.00898073
-0.00159121	0.00308484	-0.0030283
0.00540703	0.0047985	-0.00533062
-0.00220175	0.00175321	0.00322585
-0.00184564	0.00206198	0.0026978
-0.00204028	0.00209862	0.00201401
0.00551505	0.00520001	-0.00793443
-0.0226966	-0.0372077	0.0341479
-0.00232978	-0.002574	0.00297855
0.00483485	0.000392946	-0.00268755
-0.00575708	0.00331553	0.00685867
0.00194674	0.0539949	-0.0542128
0.0126362	-0.00970637	-0.0130487
0.000961504	-0.0249958	0.0263591
0.000353335	0.0587288	-0.051932
-0.0197011	0.0199821	0.0197411
0.00934144	-0.00258712	-0.00132525
-0.015091	0.00536145	0.0184965
-0.0261105	0.380361	-0.376235
-0.00416357	0.00916026	0.00430255
-0.00934396	0.00857978	0.00941547
0.00316853	0.00045137	-0.00283152
-0.025289	0.0139964	0.0252445
-0.00159121	0.00308484	-0.0030283
0.00573271	0.00479499	-0.00568099
-0.0396664	0.0441591	-0.0539653
0.00508737	0.0912488	-0.0908061
-0.00808537	0.00757417	0.00746781
-0.00169443	-0.0335954	0.0338306
-0.0474835	-0.0424888	0.0516515
-0.00193234	0.00168321	-0.000623203
0.001155	0.000937097	-0.00116858
0.00521679	-0.00421435	-0.00629648
0.00866575	-0.0493223	0.049231
-0.00839955	0.00722356	0.00846482
0.00486801	-0.0466533	0.0466107
-0.00651803	-0.00483762	0.00307546
-0.0191145	0.0195588	0.019123
0.00855909	0.00506867	-0.0101314
0.0398442	-0.0401827	-0.0399964
0.00406349	0.0281983	-0.0323944
-0.00489792	-0.00704574	0.00488338
-0.0181392	0.0182381	0.0181417
-0.0134856	0.00294129	0.00348523
-0.015528	0.0155319	0.0119754
-0.000421097	0.00508053	-0.00543183
-0.0535642	-0.0719616	0.0533549
0.0167642	-0.0170902	-0.0161067
-0.00222586	-0.000846408	0.00296202
-0.0155558	0.0120778	0.0152591
-0.00827227	-0.0251913	0.0250327
0.00573271	0.00479499	-0.00568099
-0.0748181	0.0735183	-0.0353701
0.00781027	0.00541518	-0.00976128
0.00393389	-0.00347526	-0.00251291
0.00257804	0.00184991	-0.00340386
0.0126656	-0.0123466	-0.0129326
0.00337953	0.00974983	-0.00977692
0.00243395	0.00444829	-0.00240383
-0.00990631	0.0100274	0.00503815
0.00384047	-0.0482024	0.0487758
-0.0178129	0.018133	0.0180365
-0.000880088	0.103667	-0.104512
0.0084087	0.0635377	-0.0651363
0.00763289	-0.00870888	-0.00898088
0.0110543	0.018423	-0.0284969
-0.0219803	0.0178726	0.0219939
0.00418789	-0.0588562	0.0576756
-0.000438819	4.90408e-05	0.000469706
-0.0042938	0.00859355	0.00295284
-0.0207797	0.0176425	0.0078726
0.045583	-0.0614347	-0.0470221
0.00440748	-0.0116387	0.0115696
0.00290214	-0.000178136	-0.00300295
-0.0114278	-0.0183792	0.0215672
0.00761732	-0.00903082	0.00591065
0.0127007	-0.0121086	-0.0144767
-0.00261852	0.0812281	-0.0814611
-0.0288202	-0.0209336	0.0297691
-0.0112504	0.00996518	0.00066418
-0.00837768	-0.0130445	0.0114355
-4.40202e-05	0.00564081	0.000104897
-0.0121331	-0.0395096	0.0397409
-0.00498827	0.00371324	0.00672346
0.00174221	-0.0038443	0.00337547
0.000353335	0.0587288	-0.051932
0.0145566	0.00795474	-0.0182531
0.0124089	-0.0190164	0.0175568
0.0445898	-0.0438514	-0.0445924
-0.00342397	-0.0301968	0.0303242
0.00284968	0.00138252	-0.00269087
-0.00902949	0.00772402	0.00992326
0.0219949	0.0120982	-0.0252578
0.00911169	-0.015087	-0.00937846
0.00330888	-0.0446383	0.0445491
0.00292298	0.00876485	-0.00328265
-0.0114367	0.0129928	0.0118171
-0.0020038	-1.28668	1.28397
-0.0197011	0.0199821	0.0197411
-0.00570608	0.00966595	-0.00984112
-0.00128066	0.00354275	-0.0028762
-0.0148597	0.0624346	-0.0794421
-0.0304291	-0.00743	0.0302339
-0.0184013	0.0160792	0.0178201
-0.0102902	-0.0240256	0.0243261
-0.00320581	0.00375539	0.00213727
-0.0034985	0.0287645	-0.0274675
0.00153192	0.0478525	-0.0446696
-0.0276383	0.00827667	0.0287962
-0.0345081	0.0413411	-0.0413168
-0.0175807	0.0168807	0.0174484
-0.0112046	0.0458317	-0.0471786
0.00680066	0.0845359	-0.085342
0.0235903	-0.0234352	-0.0234274
0.00457539	-0.0861185	0.0683132
-0.00227094	0.00560948	0.00223583
0.00257804	0.00184991	-0.00340386
-0.0467761	-0.0482829	0.0467549
-0.00386058	0.00556101	0.00339764
-0.0556459	-0.0229359	0.070361
0.124646	-0.130811	-0.0312989
-0.00133057	0.0203901	-0.0203715
0.00573271	0.00479499	-0.00568099
0.0101045	-0.0137509	0.0144538
-0.0564306	-0.0564668	0.0564494
-0.00488163	0.00529992	0.00725974
0.00598149	-0.0438228	0.0427977
0.00173248	-0.0140489	0.0139528
0.00275291	-0.00753949	0.00696444
0.00345528	-0.00744847	0.00349949
-0.00229092	0.00208455	0.00122069
-0.00962863	0.156269	-0.155205
0.0145566	0.00795474	-0.0182531
0.00347895	-0.0164586	0.0165094
0.00134177	0.00235127	-0.00137931
0.0499142	-0.0500602	-0.0500392
-0.0129174	0.0090703	0.00382165
0.037839	-0.0171044	-0.0383213
-0.0270105	0.0375916	-0.0376172
-0.0611586	-0.132168	0.129698
-0.00612137	0.00536118	0.00564954
0.000504961	-0.00414533	0.00129497
0.00325194	-0.00349422	-0.00541717
-0.00682437	0.445637	-0.445674
0.00652294	0.00359773	-0.00650164
-0.0089027	0.0657826	-0.0696316
-0.0343573	-0.0332089	0.0343568
0.0328926	-0.0325598	-0.0329175
0.000416568	-0.00291044	0.00140277
0.00458796	0.0037793	-0.00454789
0.00957167	-0.0100379	0.00601495
-0.000993828	-0.00111198	0.000990859
0.0158048	-0.0144458	-0.016092
0.0129185	0.00300695	-0.0025089
0.00380261	-0.00353268	-0.00445152
0.00392293	-0.0343985	0.0343678
0.00360485	0.0203337	-0.019406
0.00725889	-0.00286128	-0.00683391
0.00145059	-0.0387199	0.0383845
-0.00662801	0.00504602	0.00671888
0.00183911	0.0356455	-0.0386835
-0.00690664	-0.00485033	0.00691921
0.0133442	-0.0152322	-0.0135505
0.0149846	0.0156631	-0.0253801
0.0173085	-0.0194674	-0.0173084
0.00164713	-0.0200026	0.0214355
0.00162502	0.00437423	-0.00164854
0.0276213	-0.0294251	-0.0263595
0.00176271	-0.00893549	0.00926774
0.0220334	-0.0214191	-0.0220333
0.003827	-0.0449012	0.044858
0.000336142	0.00229309	-0.000513103
0.0111434	-0.0111225	0.00826649
-0.00158278	0.0348253	-0.0303308
0.00519641	-0.00356896	-0.00368938
0.00606565	-0.0317353	0.0313289
0.0019211	-0.0167459	0.0168884
0.00739797	-0.00371492	0.00386697
0.00427904	0.000932675	-0.00389088
0.039431	-0.040644	-0.0397166
0.00392293	-0.0343985	0.0343678
-0.00370529	0.00414501	0.0049148
0.000782627	0.0894927	-0.088089
0.00736375	0.00741534	-0.00735829
-0.00271948	0.00150814	0.00273532
0.00256685	-0.0139057	0.0142493
0.00451008	0.00439286	-0.00503644
0.00711809	-0.00563693	0.00357928
-0.0304291	-0.00743	0.0302339
0.0319743	-0.0320847	-0.0318623
-0.00683899	-0.211173	0.220552
0.007972	-0.00597062	-0.00752039
0.00222731	0.0389714	-0.0386815
-0.00178094	-0.0787316	0.0726563
-0.0112504	0.00996518	0.00066418
-0.0147388	-0.0326682	0.0257929
-0.00640145	0.00739674	0.00335168
-0.00189283	0.0543122	-0.0537036
-0.0265523	-0.18905	0.213251
0.0117677	0.0160171	-0.024029
0.00967257	0.00991799	-0.00967979
-0.00811084	0.010563	0.00450024
-0.00187062	0.00285817	-0.00291088
0.0221763	-0.0236648	-0.0218319
0.003827	-0.0449012	0.044858
0.00292299	0.00241013	-0.00299168
-0.00641472	0.00667457	-0.000606346
0.0224163	-0.0225861	0.0188952
-0.0101239	0.0102191	0.00998056
-0.00285126	0.00451091	-0.00384163
-0.00912451	-0.245338	0.249124
-0.00830038	0.00967201	0.00812823
-0.00694631	0.0217893	-0.00837831
0.0205687	-0.0215272	-0.0205687
0.00222731	0.0389714	-0.0386815
0.00777235	-0.025512	0.0234779
-0.00987356	0.0105543	0.0106078
0.0160852	0.010054	-0.0131577
-0.0171461	0.0129113	0.0139118
0.00357115	-0.0486847	0.0493447
0.0035622	0.00135135	-0.00316765
-0.00842175	0.036492	-0.0404299
-0.00555967	0.0110003	0.00496644
-0.0110109	0.010794	0.00530886
0.00185118	-0.0346444	0.0339272
-0.00860117	0.00982382	0.00923163
-0.00618908	-0.024934	0.0247953
0.000752325	0.0034655	-0.000837539
-0.00850691	0.000793735	0.0119357
-0.00845016	0.134648	-0.133681
-0.00764466	0.00845405	0.00716095
0.00414028	-1.59242e-05	0.0009104
0.0037832	0.0041202	-0.00375616
0.016403	-0.0194303	-0.0166967
0.00200226	-0.00910626	0.0107005
0.00641934	-0.00546674	-0.00641595
0.00400728	-0.0613734	0.0604257
0.000452119	-0.21182	0.209918
-0.00483327	0.0074223	0.00433602
-0.00298482	-0.0295767	0.00131978
0.0062785	0.00361613	-0.00721973
0.00067186	0.046187	-0.0472328
0.000985472	0.000680581	-0.000990824
0.00667406	-0.0299628	0.027919
0.001155	0.000937097	-0.00116858
-0.00218191	0.00168911	0.00285662
-0.00332991	0.01361	-0.0126978
0.00422589	0.00143432	-0.00144354
-0.0014436	-0.0166127	0.0198704
-0.000922956	0.0271611	-0.0205796
-0.0328455	0.00278463	0.0314005
-0.0789858	0.104574	-0.103929
-0.00652094	0.00662116	0.00520483
0.00397044	-0.00520666	0.00553913
0.00470387	-0.164054	0.161695
-0.000262301	0.00457806	0.00047759
0.00613259	-0.0149594	0.0153181
0.0412706	-0.0308634	-0.0413025
0.00384047	-0.0482024	0.0487758
-0.0019956	-0.00552667	0.00192522
0.00825259	-0.00769229	-0.00810477
-0.00579176	0.0403796	-0.0356367
-0.0264224	0.0181458	0.0264322
0.00640425	-0.0486543	0.0485753
0.00187996	0.027925	-0.0242372
-0.00770507	0.00729807	0.00668033
-0.0426247	-0.0430877	0.0426179
-0.000858798	0.0009933	0.0021691
0.00427326	-0.0413094	0.0410422
0.00083616	0.0047789	-0.000908941
0.0080066	-0.0126512	0.0085914
0.0111416	0.0636979	-0.0662294
-0.00553022	0.00400166	0.00808858
0.00185118	-0.0346444	0.0339272
-0.00853362	0.00779025	0.00851363
0.00508985	-0.0348223	0.0343562
0.00083616	0.0047789	-0.000908941
-0.0167612	0.0172241	0.0117815
0.00477288	-0.0466254	0.0451832
0.00189726	-0.00283711	-0.00173648
0.0076353	0.0308079	-0.034576
0.0109757	0.0115011	-0.010972
0.0912802	-0.0908739	-0.0912474
0.00455528	4.76805e-05	0.00338732
-0.0250045	0.023857	0.0250045
0.00260028	0.00367518	-0.00498029
0.00148913	0.000283361	0.00166995
0.0709021	-0.0705286	-0.0709114
-0.0284954	-0.0793872	0.0798936
-0.00441821	-0.0114529	0.00315658
0.00238378	0.0322722	-0.0322634
0.0028113	0.00549281	-0.00484032
0.00233647	-0.0166715	0.0194907
0.00427904	0.000932675	-0.00389088
-0.00943986	0.0125428	0.00950267
0.0028355	0.262258	-0.264202
-0.0170687	-0.0263907	0.00187372
-0.0109072	0.184347	-0.182844
0.00401806	0.00222629	-0.00408468
-0.000847261	0.00576343	-0.00161982
0.00486801	-0.0466533	0.0466107
-0.0113029	0.0124111	0.0074236
-0.00332491	0.0661878	-0.066087
-0.0265851	-0.00761812	0.0267856
-0.0038773	0.00616965	0.00228664
-0.00086813	-0.0179541	0.021307
-0.0297037	0.00875417	0.0276876
-0.00216974	0.00817181	-0.00761571
-0.00747907	-0.00727481	0.00749526
-0.00995984	0.00937271	0.00971074
0.000480338	-0.0166728	0.0174867
0.0899788	-0.0912445	-0.0404041
-0.00151891	0.0123452	-0.0123557
0.00846839	0.00830397	-0.0084774
-0.000809769	-0.027576	0.0301812
-0.0441761	-0.044454	0.0442245
0.00715393	-0.000654659	-0.00810742
-0.00285126	0.00451091	-0.00384163
0.00155414	0.00114027	-0.00159527
-0.000809769	-0.027576	0.0301812
-0.0101851	-0.00980659	0.0102117
-0.0122894	0.010374	0.0124037
-0.000274656	-0.00360814	0.00411524
-0.00361101	0.00466428	0.00297446
0.0012352	0.0213562	-0.0214609
-0.00224082	0.0220163	-0.0120376
-0.00695004	0.00361568	0.00849799
0.0038644	-0.0286106	0.0287124
-0.0208511	0.0200684	0.0210278
-0.00338816	-0.00717004	0.00773049
0.00673125	0.012261	-0.0149322
-0.0216517	0.0219986	0.0217417
-0.00270906	0.0224881	-0.0138704
0.0638187	-0.0626866	-0.063815
-0.00216974	0.00817181	-0.00761571
0.00421665	0.00498742	-0.00501523
-1.87749e-05	-0.000734373	0.00106468
0.0188306	-0.111818	0.0819114
-0.00892844	0.00779405	0.0096657
-0.0314651	0.036161	-0.0371354
0.00508289	0.00586156	-0.00506174
-0.0256495	0.0251968	-0.0325833
0.00658804	0.00577728	-0.00656321
-0.00621138	0.00649586	0.00584904
-0.000666907	0.0826312	-0.0834732
0.0172666	0.0136295	-0.0231335
0.002472	-0.0255208	0.0256415
0.0126408	0.00607174	-0.00757772
-0.0102341	0.0111857	0.00479467
0.00606209	-0.0480769	0.0478008
-0.00404873	0.00281475	0.00471821
0.00371322	-0.00472626	0.0101545
-0.00552831	-0.537834	0.54307
0.0145566	0.00795474	-0.0182531
0.00433119	0.00843698	-0.00788175
-0.0222422	0.0223104	0.0223421
0.00314031	-0.0419671	0.0406003
-0.00555967	0.0110003	0.00496644
-0.00570061	0.00192655	0.00528973
0.00880099	-0.0132352	0.00995697
0.107116	-0.0940423	-0.10712
0.00519962	0.0645397	-0.0639784
-0.000438819	4.90408e-05	0.000469706
0.00680809	-0.021516	0.0205005
0.00148212	0.00161782	-0.0014884
-0.00764147	0.00631311	0.00971006
0.00369639	-0.0270038	0.0256692
0.0052435	0.00416495	-0.00479531
0.00124572	-0.01749	0.0203392
0.00340554	0.0033818	-0.00341206
-0.0113029	0.0124111	0.0074236
-0.00161906	0.0542711	-0.0536944
-0.0113415	0.0104537	0.0113206
0.00486801	-0.0466533	0.0466107
0.00605448	0.00652304	-0.00603482
-0.0180387	0.0126236	0.0177317
0.0160972	-0.0161664	0.014869
0.0498291	-0.0484711	-0.0498863
-0.0222679	-0.0330262	0.0322359
-0.00247535	0.000124882	0.00107942
0.0468726	-0.0461479	-0.0468719
0.0456183	0.0219442	-0.0740767
0.0124873	-0.0116321	-0.012958
-0.00470853	0.0133286	-0.0134625
0.000686349	-0.000487628	-0.000669498
0.0284457	-0.0161882	-0.028411
0.0130709	0.0113327	-0.0176958
0.00143524	0.000821104	-0.00132069
-0.0126322	0.0212045	-0.0190693
0.00177589	0.00108393	-0.00174751
0.00843739	-0.00898405	0.00556299
0.0084087	0.0635377	-0.0651363
-0.00281316	-0.00120125	0.00280797
-0.0125757	-0.0121882	0.0116752
-0.0128947	-0.00198672	0.0158781
-0.00363498	0.0220338	-0.0219886
0.00843349	0.0027536	-0.00586012
-0.0230173	0.0106749	0.0242111
-0.00161906	0.0542711	-0.0536944
-0.00783668	0.00802797	0.0077274
-0.00644554	0.00625921	-0.00389041
0.000899351	0.00068912	-0.000909602
0.00255265	0.00917685	-0.00275198
-0.0108906	0.0216152	-0.00451946
0.0178157	-0.0167841	-0.0170287
0.00276366	-0.0249107	0.0235786
0.00479473	0.00551182	-0.00478836
0.00715393	-0.000654659	-0.00810742
0.0121222	0.00664496	-0.00916794
-0.00980558	-0.00072987	0.00832552
-0.00128314	0.0476036	-0.04743
-0.00087701	-3.01391e-05	0.000906197
0.0133227	0.0560173	-0.0626847
0.00292299	0.00241013	-0.00299168
0.0224046	-0.0218318	-0.0210411
0.000416568	-0.00291044	0.00140277
0.00284968	0.00138252	-0.00269087
0.00770071	0.0235309	-0.0244844
0.00344878	0.00620005	-0.00564875
-0.00218856	0.00917952	0.00153157
-0.00285163	-0.0494186	0.0492945
-0.00680662	0.00614851	0.00756078
-0.0127717	0.0541048	-0.0538583
-0.00294922	-0.370851	0.367641
0.0532365	-0.00825709	-0.0545608
-0.00012866	-0.00513072	0.00877569
0.037304	-0.0368291	-0.0361276
0.000908391	-0.0257511	0.0271686
-0.0271451	-0.539306	0.546322
-0.00971708	0.00720166	0.00988757
0.0392876	0.0372026	-0.0700176
0.00546947	-0.0110048	-0.00586514
0.00648247	-0.0308847	0.0306202
0.00348693	0.00395795	-0.00447755
-0.0128569	0.00951514	0.0133157
-0.0205985	-0.0194129	0.0205895
-0.00291623	0.00740711	0.00163467
-0.0296849	0.0324383	-0.0289574
0.001792	0.00335778	-0.00238642
0.0012215	0.00666751	-0.00561406
0.00284968	0.00138252	-0.00269087
-0.0103646	0.0104403	0.0105358
0.00076306	-0.0428117	0.0444927
-0.00104823	0.00160261	0.00180308
0.00414672	-0.0088481	0.00820888
-0.00555967	0.0110003	0.00496644
-0.0167975	0.0161316	0.0126039
0.000312802	-0.036845	0.0381562
-0.00108441	0.00127874	0.000979629
-0.00712203	0.420363	-0.420295
0.00479473	0.00551182	-0.00478836
0.0050404	-0.00724164	-0.0059679
0.00880099	-0.0132352	0.00995697
-0.0155558	0.0120778	0.0152591
0.00224181	-0.00961671	0.00798526
0.00427904	0.000932675	-0.00389088
-0.00664133	0.00603418	0.00714979
-0.00544064	-0.0667041	0.0596483
-0.0171461	0.0129113	0.0139118
-0.00827227	-0.0251913	0.0250327
0.00911752	0.00905674	-0.00913116
-0.00793563	0.00822451	-0.0100255
0.00605448	0.00652304	-0.00603482
-0.00387681	0.00437801	0.003932
0.00254411	-0.0492205	0.0493496
0.0220821	0.0234577	-0.0393392
-0.00260928	-0.0316249	0.0355614
0.00981833	0.00892272	-0.011402
-0.0114818	0.0141099	0.011946
-0.0184718	0.0550456	-0.0555228
0.0393714	-0.0388853	-0.0394572
0.00113725	-0.0396014	0.0403402
0.00458485	0.00317315	-0.00346143
-0.01017	0.0115347	0.00987247
0.00107174	-0.0494711	0.0529111
0.0210483	-0.0194255	-0.0222882
0.00628989	-0.0383818	0.0381249
-0.0198938	-0.0460561	0.0410468
0.0106385	-0.00240605	-0.00942203
0.00173248	-0.0140489	0.0139528
-0.0264224	0.0181458	0.0264322
0.00255107	-0.0130513	0.0133137
-0.00192499	-0.0105554	0.00898046
-0.007501	0.0177275	-0.0171671
-0.0249538	0.00492781	0.0241058
0.0286142	-0.0603172	-0.0277052
0.00559226	-0.00477799	0.00664347
-0.000993828	-0.00111198	0.000990859
0.0060904	-0.0325868	0.0294932
0.00282318	0.00637193	-0.00541734
-0.0148412	0.0145798	0.0139581
-0.0127522	-0.0703349	0.0704127
-0.0140055	0.0136094	0.0141693
0.00232182	0.00648564	-0.00664644
-0.00280574	0.0215574	-0.0118663
0.00811497	-0.00786948	-0.00871234
-0.0101832	0.0185879	-0.0182983
0.0264472	-0.00139709	-0.0264455
-0.00312522	0.0103945	-0.0095723
0.000899351	0.00068912	-0.000909602
-0.0152334	0.0181121	0.00948931
0.00440119	0.036539	-0.0342859
0.159877	-0.159919	-0.159877
-0.00672488	0.0503368	-0.0501923
-0.0275644	-0.086509	0.0896991
0.0171608	-0.0158448	-0.0171604
-0.0431592	-0.0401424	0.0464654
-0.0023776	0.0123928	0.00242364
0.000816174	0.021983	-0.0218061
0.00401806	0.00222629	-0.00408468
0.0160972	-0.0161664	0.014869
-0.00274515	0.0138228	-0.0130442
-0.00302721	0.0034428	0.00477958
0.0024676	0.244195	-0.245876
0.0019211	-0.0167459	0.0168884
0.00392293	-0.0343985	0.0343678
-0.0816932	0.169314	-0.170011
0.00432117	-0.00893509	-0.00409284
0.00392293	-0.0343985	0.0343678
-0.00210237	0.00299563	0.00107163
0.00314031	-0.0419671	0.0406003
-0.0133815	-0.0146712	0.0133648
0.00666942	-0.00626474	-0.0072187
-0.0182688	-0.0664017	0.0626984
-0.001286	0.00226696	-0.000320262
0.00145059	-0.0387199	0.0383845
0.000223058	0.0144118	-0.0155955
-0.0122614	0.0144299	0.0111411
-0.00487735	-0.0714332	0.0625675
0.0169938	-0.0213013	-0.0111617
0.00214401	-0.0441992	0.0441684
-0.0453149	-0.022167	0.0448176
0.0031084	-0.0207524	0.0172309
0.00504472	0.0950084	-0.0996139
0.0592563	-0.0592964	-0.0592366
0.00800039	-0.0495952	0.0494849
-0.00547737	0.00170714	0.00587377
0.00593158	-0.0229384	0.0181776
0.00509016	0.00516569	-0.00510829
-0.00520084	0.00944334	0.00525402
-0.0747956	0.0119534	-0.0125337
0.00380261	-0.00353268	-0.00445152
-0.00890912	0.127799	-0.126782
-0.017339	-0.0243318	0.02302
-0.023125	0.00656246	0.0230716
0.00693563	0.000354923	-0.000175951
-0.00647216	0.00281476	0.00938194
0.000645518	-0.000753207	0.00530418
0.00681434	-0.524902	0.527346
-0.00418325	0.00479959	0.00418837
0.00925879	-0.0152544	-0.00344081
-0.0074753	0.00917745	0.00746468
-0.00266498	0.430625	-0.431454
-0.000993828	-0.00111198	0.000990859
-0.00644466	0.0069424	0.00582067
0.00483996	0.00125753	-0.00444634
0.00764685	0.00290738	-0.00790133
-0.0519667	0.120262	-0.120616
0.00479473	0.00551182	-0.00478836
-0.00633171	-0.000312446	0.00834279
0.00292299	0.00241013	-0.00299168
0.0049435	-0.0116125	-0.00190675
0.00314031	-0.0419671	0.0406003
0.00179748	0.054379	-0.0468167
0.00233115	-0.0310992	0.0316543
0.0104114	0.0268626	-0.0309012
-0.00909739	-0.0030503	0.0100874
-0.00459224	-0.00805667	0.00831885
-0.0122846	0.00648958	0.0122531
0.00205784	-0.047216	0.0471342
-0.000957809	-0.366116	0.362035
0.0200272	-0.0217765	-0.0203437
-0.000939418	0.0438787	-0.0416398
0.0358866	-0.0293725	-0.0362325
-0.0105234	-0.0247129	0.0264523
-0.00345986	0.0208918	-0.0257087
-0.00123243	0.00498629	0.00178723
-0.00219199	-0.076949	0.0654194
0.0484953	-0.0468004	-0.0487783
-0.00538419	0.0435985	-0.0435597
-0.0126443	0.0164114	-0.00274178
-0.000572183	-0.0208873	0.0226157
0.000208059	0.0423649	-0.036759
-0.00900705	0.0124026	0.00918983
0.00124826	0.0225999	-0.0226689
0.000752325	0.0034655	-0.000837539
-0.00126823	-0.015676	0.0177667
-0.0304291	-0.00743	0.0302339
-0.0168657	-0.00153509	0.0160891
0.00289727	-0.00794107	0.00783969
0.00759234	-0.00556999	-0.00744274
0.00439086	0.00096729	-0.000954793
0.00363642	0.00484575	-0.00359186
-0.0137856	0.0130148	0.0133792
0.00385785	-0.0285187	0.0280197
-0.00410091	0.00569472	0.00700935
0.00130378	-0.0307481	0.0309136
-0.0264882	-0.0412821	0.0423919
-0.0297037	0.00875417	0.0276876
0.00225669	-0.0286838	0.0207736
0.0264233	-0.00920209	-0.0298576
0.00400203	-0.00300607	0.00345118
-0.0581084	-0.0287498	0.0579725
0.0105566	-0.00978571	-0.0105003
0.00306669	0.00520958	-0.00302157
-0.00766012	0.00785489	0.00907008
0.00778841	0.00404358	-0.00696668
-0.0191058	-0.0104926	0.0185395
0.00829561	-0.018296	0.0153511
0.00155414	0.00114027	-0.00159527
-0.00610846	0.00645687	0.00603996
0.00104802	-0.0198329	0.0200966
-0.0236295	0.0241494	0.0236258
-0.00235859	0.0688455	-0.0668936
-0.0159976	-0.0290624	0.0373858
0.00965749	-0.0225472	-0.00206127
0.00164713	-0.0200026	0.0214355
0.0372264	-0.0155438	-0.0372409
-0.000841285	0.00146925	-0.000105057
0.00367198	-0.0417027	0.0458785
0.0083874	-0.0130467	-0.00874536
-0.0126443	0.0164114	-0.00274178
0.267129	-0.265573	-0.267129
0.00210599	-0.0282102	0.0272502
-0.0114249	-0.00657318	0.0114596
-0.000387141	0.00380777	0.000837768
0.00514627	0.0189777	-0.0238585
0.0749763	-0.0497662	-0.0744523
-0.0200767	0.0395116	-0.0393637
-0.000438819	4.90408e-05	0.000469706
-0.0721276	0.0720201	-0.0787484
0.00384907	0.00434744	-0.00382037
-0.0126197	0.0129873	0.0121646
0.00154482	-0.0137671	0.0128812
0.00300571	-0.00792342	0.0110299
-0.00786479	-0.0218422	0.0246039
0.00443087	-0.046582	0.0463674
0.0770301	-0.0794718	-0.0806748
0.00289727	-0.00794107	0.00783969
-0.00405671	0.00361354	0.00252009
-0.00570782	0.621735	-0.62282
-0.0136541	-0.0129637	0.0136734
-0.00647216	0.00281476	0.00938194
-0.00930988	-0.0139536	0.017145
-0.0217817	0.00933226	0.0260673
0.00369639	-0.0270038	0.0256692
-0.00416357	0.00916026	0.00430255
0.010022	-0.00985625	-0.0115157
0.00334667	0.0196808	-0.0163574
-0.0163793	0.0184295	0.010269
-0.00477011	0.0402009	-0.0428192
0.00483996	0.00125753	-0.00444634
-0.0757232	0.0756872	-0.078301
0.00457946	-0.054659	0.0461443
-0.0489964	0.0102131	0.0481141
0.00254411	-0.0492205	0.0493496
-0.017125	-0.0560724	0.0512523
0.00958205	-0.029139	0.0254072
0.000334698	-0.0469181	0.0424137
-0.00685369	0.00638919	0.00673466
0.00459058	-0.0536366	0.0533902
-0.0117472	0.0108778	0.00843316
0.003827	-0.0449012	0.044858
-0.0102681	-0.029943	0.0271359
0.0152263	-0.014789	-0.0150041
-0.0150234	0.0132252	-0.0126652
0.0204725	-0.0201075	-0.0206
2.97674e-05	-0.00187056	0.00196064
0.00146143	0.00111628	-0.00146876
0.00702448	-0.00713918	-0.00598229
0.00371871	0.0659889	-0.0704622
-0.0147496	0.010151	0.0148572
0.00151114	-0.0445799	0.044377
-0.0105957	-0.00521148	0.00593528
0.0049435	-0.0116125	-0.00190675
-0.0174296	-0.00219913	0.0172152
-0.0411182	0.00814451	0.0407744
-0.00747753	0.108607	-0.108251
-0.0201704	-0.0195051	0.0202141
-0.0296094	0.0116953	0.00290213
0.00379261	0.000576491	-0.00326501
-0.00689522	0.00937237	0.00541731
0.00369639	-0.0270038	0.0256692
0.0114388	0.0104693	-0.0141435
0.00124955	-0.0290951	0.0310412
-0.00370667	0.100803	-0.0916471
-0.00296765	-0.00293357	0.00323798
-0.00512413	-0.00144295	0.00178659
0.0219541	-0.0189463	-0.0220059
0.00185118	-0.0346444	0.0339272
-0.00630058	-0.00659417	0.00630672
-0.00886143	0.00804303	0.00638426
-6.50498e-05	-0.0373373	0.0404159
-0.023893	0.0240784	0.0238924
0.00400728	-0.0613734	0.0604257
-0.0265851	-0.00761812	0.0267856
0.0283446	-0.0283502	-0.0261978
0.00774496	0.0141986	-0.012502
0.0095164	-0.00962964	-0.0103956
0.00272368	-0.0479499	0.0479455
-0.017339	-0.0243318	0.02302
-0.0521629	0.0514416	-0.0128835
-0.0304291	-0.00743	0.0302339
-0.0171271	0.0166463	0.0125475
0.00617606	-0.0259655	0.0262355
0.00422589	0.00143432	-0.00144354
-0.00636081	-0.0397872	0.0436508
-0.000410975	0.00422639	-1.56537e-05
0.00145197	0.00197607	-0.0015089
-0.0160894	0.0263812	-0.0267695
-0.00498827	0.00371324	0.00672346
0.000631749	-0.012628	0.0127972
0.000223058	0.0144118	-0.0155955
0.0134288	-0.0124034	-0.0117729
0.00325417	-0.0480926	0.0472035
0.00617731	0.00818133	-0.00640601
-0.109764	0.108516	-0.101904
0.000686131	0.000355162	-0.000690173
0.0928823	-0.0837711	-0.0923296
0.0130709	0.0113327	-0.0176958
0.0170338	-0.0166832	-0.0170295
-0.00301297	0.0749352	-0.0750998
0.00845688	0.00736769	-0.00845373
-0.0108723	0.0073839	0.0113016
0.00431813	0.00941334	-0.00814901
0.0159591	-0.0156235	-0.0142025
-0.00170046	-0.00614428	0.00669902
-0.0054978	-0.00477698	0.0055139
0.0132088	-0.0185789	0.014347
0.00458831	0.000921871	-0.00449933
-0.00465658	0.00504421	0.00401174
0.00309283	0.245658	-0.248202
-0.00115491	-0.0110428	0.0128494
0.00238536	-0.039292	0.0393437
0.00243858	0.00208389	-0.00168819
0.0274632	-0.0247148	-0.0232778
0.00561552	-0.0260869	0.0257756
-0.00685369	0.00638919	0.00673466
-0.00323947	0.049541	-0.0478327
0.00520041	-0.445249	0.444796
0.00186692	-0.00519403	-0.00154802
-0.0287608	0.0131147	0.00591873
-0.0168657	-0.00153509	0.0160891
0.00154482	-0.0137671	0.0128812
-0.011588	-0.0493159	0.0495383
-0.00366937	0.00201912	0.00381592
-0.00312456	0.0186341	-0.00740411
0.168803	-0.0969695	-0.167918
0.00660737	-0.0185219	0.0182691
-0.0247124	0.000224641	0.025046
0.00472733	-0.017958	0.0169595
-0.00607771	-0.00544539	0.00611386
0.0260893	-0.0615477	-0.0139032
0.00130378	-0.0307481	0.0309136
-0.0350579	-0.0128112	0.0355029
-0.00519518	-0.0125397	0.0143894
0.00479473	0.00551182	-0.00478836
-0.00811286	0.00701666	0.0081365
-0.0111509	0.0340414	-0.0345153
0.0129396	-0.0137668	-0.0118957
-0.0248582	-0.000995835	0.00122414
0.000402527	0.00144092	-0.000409592
-0.00390887	0.0029023	0.0039776
-0.00240676	-0.0423128	0.0439648
-0.00960799	0.0140101	0.00969784
-0.00216974	0.00817181	-0.00761571
0.00588274	-0.113312	0.108726
-0.00847846	0.000200079	0.0110215
0.00173248	-0.0140489	0.0139528
0.000429026	-0.00546551	0.00157032
0.0015904	0.0295722	-0.0286269
0.00220465	0.0127415	-0.00305788
-0.0108915	0.00957949	0.0100459
-0.00789083	-0.326036	0.319508
-0.0171461	0.0129113	0.0139118
0.00210599	-0.0282102	0.0272502
0.00316853	0.00045137	-0.00283152
0.0010241	-0.00991949	0.0128284
-0.000264771	0.0003309	0.00026563
-0.0200005	0.017588	0.018878
0.00439835	-0.0485569	0.0479878
0.00191422	-0.00404979	-0.00171034
0.00357458	-0.0446629	0.0447005
0.00427904	0.000932675	-0.00389088
0.013382	-0.00538365	-0.0147692
0.00400728	-0.0613734	0.0604257
-0.0156392	0.0138687	0.0155767
-0.033799	0.0343069	-0.0274684
0.00736375	0.00741534	-0.00735829
0.0412987	-0.040506	-0.0418571
0.0028113	0.00549281	-0.00484032
0.0312984	-0.0314582	-0.0309865
0.00478459	-0.0327352	0.0322229
0.00241663	0.00326093	-0.00301827
-0.00158915	-0.00201853	0.00143572
-0.0255481	0.0541433	-0.0447434
-0.00948854	0.00615612	0.00948847
0.00472743	-0.029864	0.0302527
0.00479473	0.00551182	-0.00478836
-0.00919933	0.0374755	-0.0354086
0.00659344	0.00717325	-0.00658867
0.0172444	-0.00634143	-0.0166215
0.00189008	-0.0139488	0.0126096
-0.0588478	-0.178217	0.187749
0.0112737	-0.0278858	0.0242043
0.00914595	0.0494285	-0.0498248
-0.00561466	0.00433299	0.00782975
0.00160013	-0.00825093	0.00879691
-0.0222422	0.0223104	0.0223421
0.00100382	0.0412455	-0.0414319
0.00608767	0.00746445	-0.00790313
0.0735472	-0.0384399	-0.0748346
-0.0758985	0.0763973	-0.0289791
-0.00159961	-0.000338111	0.00159938
-0.00284317	0.0713915	-0.0709122
0.00658804	0.00577728	-0.00656321
0.0030618	0.00931995	-0.00453436
0.00200226	-0.00910626	0.0107005
0.0310193	-0.0186818	-0.0309823
-0.0274865	0.068227	-0.0681781
0.00812	0.069917	-0.0712917
0.00449471	0.0145316	-0.021681
-0.000264771	0.0003309	0.00026563
-0.00234302	0.00615325	0.0010382
0.00133205	-0.020693	0.0207063
0.00846839	0.00830397	-0.0084774
0.0139982	-0.0147597	0.00922181
-0.00562105	-0.00230807	0.0044041
0.00126027	-0.00157637	0.000909176
0.00232892	0.0104634	-0.00973611
0.0348934	-0.0320122	-0.032424
0.00480632	-0.0290048	0.0292779
-0.0124119	-0.0091096	0.0120245
0.0321746	-0.0302128	-0.0180011
0.00215128	-0.0162005	0.0173243
-0.00728761	0.00445576	0.00989578
0.00294242	-0.04993	0.0503068
-0.00158674	0.0267283	-0.0180517
-0.00863395	0.00676626	0.00984365
0.0387944	0.0365701	-0.0684279
-0.0265278	0.0251799	0.0265285
0.00358362	-0.0481744	0.0468051
0.0104114	0.0268626	-0.0309012
0.0228615	-0.0230325	-0.0240621
-0.00127548	3.33971e-05	0.00510204
-0.00662043	0.00407968	0.00662164
-0.00240857	0.0716082	-0.0718596
-0.0054978	-0.00477698	0.0055139
0.0265438	0.728623	-0.746907
-0.012706	0.0469626	-0.0428136
-0.00652263	0.00687186	0.00720675
-0.000874094	0.062721	-0.0624749
-0.0168625	0.0417064	-0.0354686
-0.00118968	-0.0166557	0.0189256
-0.0348454	-0.0369205	0.0306574
-0.00339841	0.0103619	0.00402214
-0.0200767	0.0395116	-0.0393637
-0.0182153	0.0165564	0.0180792
0.00389068	-0.0336258	0.032715
0.00605448	0.00652304	-0.00603482
-0.0104874	0.0120635	0.0102997
0.00906241	-0.018878	0.0167164
0.0598559	-0.0599102	-0.0592424
0.00145059	-0.0387199	0.0383845
0.00306735	0.00836095	-0.00370218
0.117091	-0.117375	-0.117425
-0.00584661	0.0376194	-0.0308554
-0.00937012	0.00147023	0.00866682
-0.00363498	0.0220338	-0.0219886
-3.13543e-05	0.00407975	7.28949e-05
-0.00118968	-0.0166557	0.0189256
-0.0299459	-0.127347	0.126278
0.00725889	-0.00286128	-0.00683391
0.00475693	-0.00489602	0.00487918
-0.0234908	-0.020315	0.0222727
-0.0341987	0.133571	-0.141092
0.00807332	0.00414918	-0.00689389
-0.0197011	0.0199821	0.0197411
0.00866575	-0.0493223	0.049231
0.0188925	-0.0202893	-0.0217444
-0.0140022	0.0208267	-0.0215242
-0.0131452	-0.0169276	0.0159124
-0.0264229	0.0263959	0.026534
0.00185118	-0.0346444	0.0339272
-0.0103175	0.0103928	0.00906486
-0.00444084	-0.00562112	0.00850875
0.00531402	0.0310037	-0.030303
-0.00980639	0.0100823	0.00468777
-0.16871	-0.321668	0.463744
0.0103964	-0.00989724	-0.0104016
-0.00667475	0.165557	-0.164721
0.0113813	0.0104038	-0.0113669
-0.00999342	0.0114536	0.0095881
0.00256685	-0.0139057	0.0142493
-0.0115676	0.0106938	0.00540269
-0.0491976	0.0525342	-0.0571085
0.00146143	0.00111628	-0.00146876
-0.0124511	0.0257328	-0.0270769
-0.000335004	0.00281551	0.000568637
-0.0188688	0.017237	0.018768
-0.0278108	0.0141431	-0.00811439
0.00227451	-0.0587521	0.0526852
-0.00946906	0.069397	-0.07113
0.0100169	-0.00131166	-0.000371085
-0.00430173	0.00190342	0.00299728
0.00441068	0.00112724	-0.00122832
0.00451008	0.00439286	-0.00503644
-0.0149128	0.0206521	-0.0148812
0.00243658	0.00489786	-0.00201079
-0.0098212	0.0102224	0.00321788
-0.00134378	-0.0309847	0.0214216
0.0102967	-0.00107775	-0.0146239
0.00508985	-0.0348223	0.0343562
0.00138046	0.000240859	-1.31965e-05
-0.00715084	0.00783313	0.00974294
0.00200226	-0.00910626	0.0107005
0.0705399	-0.0101165	-0.0692308
-0.00381419	0.0747174	-0.0740477
-0.00194588	-0.00161407	0.00333269
-0.0334614	0.0336799	-0.0701629
-0.0977472	-0.0964807	0.0978139
-0.0214661	0.0220171	0.0214587
0.00232269	-0.0294806	0.0284141
0.0052435	0.00416495	-0.00479531
0.00411735	-0.0089587	0.00671463
0.00782801	0.00192505	-0.00414303
0.0694106	-0.0690353	-0.0696091
-0.0222679	-0.0330262	0.0322359
-0.00953529	0.00958082	0.0081726
-0.00698641	0.0683546	-0.0678533
0.0106127	0.0428736	-0.0457336
0.000680396	0.00948871	-0.000460365
0.0021689	-0.0433253	0.0447833
-0.00502774	0.00505475	0.00418897
-0.0322679	0.188206	-0.189241
-0.0147391	-0.0107722	0.0162376
-0.00499817	0.00588317	0.00251614
0.00333854	0.0149611	-0.0177321
0.0205687	-0.0215272	-0.0205687
0.00410183	0.0035469	-0.00339263
-0.00087701	-3.01391e-05	0.000906197
-0.00808451	0.0102943	0.00784104
-0.000438819	4.90408e-05	0.000469706
0.00111537	0.0030187	0.000902806
0.00380857	-0.0193099	0.0203273
0.00603323	0.00741529	-0.00736828
0.00714368	-0.0110021	0.00849031
0.00363642	0.00484575	-0.00359186
0.103618	-0.103095	-0.103476
-0.0105234	-0.0247129	0.0264523
0.0391963	-0.0221119	-0.0390173
-0.00469752	0.02945	-0.0294068
-0.000310076	0.00100987	0.00234726
0.355765	-0.0812836	-0.352886
0.00227097	-0.0453161	0.0455883
0.000477865	0.000430861	0.00151251
0.00469839	-0.0119186	0.0131037
0.00605448	0.00652304	-0.00603482
-0.0142873	0.00908509	0.0152293
0.00440519	0.00236528	-0.00447047
0.195879	-0.166494	-0.195879
0.00350405	0.00599947	-0.00544342
-0.000993828	-0.00111198	0.000990859
0.0060703	0.00769285	-0.00649372
-0.00524292	0.0109147	-0.00517945
0.243537	-0.213481	-0.242314
-0.00173267	0.00708226	-0.00790785
0.000985472	0.000680581	-0.000990824
-0.00254363	-0.0191158	0.019212
0.00736375	0.00741534	-0.00735829
0.0313054	-0.0312517	-0.0314969
0.00264694	0.000593223	-0.00158321
-0.248242	-0.0319035	0.264867
-0.0154312	0.0786088	-0.0755346
-0.0435671	-0.0247832	0.0436447
0.00578384	-0.00672126	-0.00579361
0.0062027	-0.0118269	0.0117028
0.0292737	-0.0293983	-0.0297981
-0.00607194	0.019876	-0.0201971
-0.0727015	-0.0186496	0.0727978
0.000651008	0.00488321	-0.000933008
-0.000572183	-0.0208873	0.0226157
-0.011309	0.0112263	0.00748766
0.00758228	0.0226882	-0.0253289
0.00344878	0.00620005	-0.00564875
0.00656543	-0.00922913	-0.00747253
0.00348693	0.00395795	-0.00447755
-0.0109471	0.0117371	0.00713458
-0.00114669	8.72975e-05	-0.00018678
0.000832996	0.0241536	-0.0170212
-0.0101834	0.00778198	0.00919834
0.00562374	0.00183335	-0.00568236
0.00143175	0.0069305	-0.00238357
0.00357115	-0.0486847	0.0493447
0.0136858	0.0142971	-0.0136747
-0.004139	-0.0376696	0.0416374
0.00131065	0.071903	-0.0732697
-0.0119307	0.01189	0.0115827
0.00485975	-0.0631507	0.0617499
-0.0085962	0.00875138	0.00730311
0.0069095	-0.0125621	0.0125706
-0.0131452	-0.0169276	0.0159124
-0.00354452	0.0104218	0.00329581
0.00348709	-0.0199488	0.0185261
-0.00998873	0.0101574	0.00771267
-0.00899434	0.000991568	0.000929197
0.00846839	0.00830397	-0.0084774
-0.0231312	0.0125226	0.0192398
0.00200064	0.0247743	-0.0195467
-0.0270535	0.00931122	0.0266384
0.00940377	1.1615	-1.16165
0.00739972	-0.0440807	0.0424183
0.0100024	-0.00737743	-0.00988085
0.00498681	0.0124211	-0.0115059
0.0126012	-0.0125106	-0.00505369
0.00214401	-0.0441992	0.0441684
0.00911752	0.00905674	-0.00913116
0.00317701	-0.0262343	0.0265328
-0.00137466	0.0277635	-0.020032
-0.0110139	0.00708164	0.0107783
0.000179958	-0.0377432	0.0393133
0.00819564	0.00426522	-0.00556045
0.0038025	-0.00791898	0.00867919
-0.00222586	-0.000846408	0.00296202
-0.00383963	-0.00214851	0.00198397
0.00397044	-0.00520666	0.00553913
-0.0162628	0.0141508	0.0122267
0.00469839	-0.0119186	0.0131037
0.00155414	0.00114027	-0.00159527
-0.000471041	-4.89118e-05	0.00267445
-0.0115096	0.020991	-0.0251449
-0.0162081	0.014036	0.0142928
-0.0028146	0.349839	-0.349118
0.00605448	0.00652304	-0.00603482
-0.00545805	0.00934872	0.00700224
-0.00128066	0.00354275	-0.0028762
-0.0161402	0.0157837	0.0122897
-0.00215737	0.0162989	-0.0163237
-0.00469946	0.0128882	-0.0104213
0.00736762	-0.0317659	0.0304874
-0.0288911	-0.0308363	0.0288896
0.000733739	0.00291705	-0.000285625
0.00639357	-0.0203494	0.0202223
0.00498681	0.0124211	-0.0115059
-0.0298421	0.0240235	-0.0253718
0.00435272	0.0159286	-0.0126302
-0.019032	0.0187877	0.0191632
-0.0218094	0.012193	-0.0101903
-0.00708507	0.00864292	0.00754069
0.00639357	-0.0203494	0.0202223
-0.0175614	-0.0687438	0.0686985
-0.0138148	0.000678216	0.0138974
0.000312802	-0.036845	0.0381562
0.00409174	-0.00441013	-0.00310676
0.0045308	-0.0264143	0.0270698
-0.0148294	0.00917477	0.0137291
0.0536774	-0.0664817	-0.034495
0.00376206	0.0514187	-0.0449436
0.0844598	-0.0951319	-0.0841675
0.00287803	-0.014506	0.0146999
0.00509016	0.00516569	-0.00510829
0.0140518	-0.0136428	-0.0142995
-0.00395658	0.021504	-0.0116404
-0.00397656	-0.00623544	0.00822418
-0.0382047	0.0873213	-0.0875821
-0.0014017	-0.00133344	0.0013938
0.0159032	0.111263	-0.126032
0.00508289	0.00586156	-0.00506174
-0.0034011	0.00272139	0.00349645
0.00297124	-0.0151206	0.0148467
0.00654742	-0.0183938	0.0137943
0.00627732	-0.0241898	0.024438
0.00344878	0.00620005	-0.00564875
-0.0122368	0.012026	0.0126474
0.00405386	-0.0119983	0.012731
0.108342	-0.108017	-0.108242
0.000179958	-0.0377432	0.0393133
-0.0155389	-0.045867	0.0444254
0.0079857	-0.00802673	-0.00800948
-0.00152343	0.0235776	-0.0175939
-0.00961553	0.00906023	0.00982004
-0.0069487	0.192934	-0.192788
-0.00566981	-0.445484	0.4448
0.0177159	-0.00500548	-0.0176655
-0.00487735	-0.0714332	0.0625675
0.0206879	0.0043784	-0.020699
-0.00538419	0.0435985	-0.0435597
-0.0144227	-0.0431967	0.0538578
-0.00177681	-0.0243394	0.0282168
-0.00087701	-3.01391e-05	0.000906197
-0.00719501	0.00912026	0.0032715
0.00120458	-0.0375263	0.0376973
0.00146143	0.00111628	-0.00146876
0.0206589	0.128804	-0.144198
-0.0407426	-0.0407122	0.0407148
0.0149898	-0.0153886	-0.014999
0.00177604	-0.00445476	0.0045117
0.00249403	-0.00133431	-0.0031056
0.002472	-0.0255208	0.0256415
0.000899351	0.00068912	-0.000909602
-0.00234302	0.00615325	0.0010382
0.00076306	-0.0428117	0.0444927
-0.00440774	0.00407847	0.00585375
-0.00691361	-0.00364222	0.00532515
-0.00195413	-0.266006	0.263502
0.0155749	-0.0263187	-0.0117497
-0.00319748	-0.019177	0.0250039
0.0547013	-0.0513492	-0.0547026
0.000819805	-0.0418823	0.0417022
0.00440519	0.00236528	-0.00447047
-0.00934477	0.00880086	0.00710128
0.000223058	0.0144118	-0.0155955
0.0159332	0.00822459	-0.0250705
0.00746367	-0.0110988	0.00983123
-0.000983476	0.00709038	-0.00639651
-0.00507025	-0.00132828	0.0048942
0.0108128	0.0503797	-0.0523875
0.0646892	-0.0661793	-0.0647897
0.0061422	0.574282	-0.577087
-0.0110657	0.0188872	0.0112237
0.00648247	-0.0308847	0.0306202
0.00445163	-0.000113071	-0.00157947
-0.0125759	0.0133387	0.00856291
0.0061396	-0.0429555	0.0418561
0.00157281	-0.00215583	0.000437078
0.0209242	-0.0210388	0.0156974
-0.00590298	0.0107295	0.00570474
-0.0251727	0.00956745	0.0255341
-0.00396211	0.00166755	-0.00135411
0.134691	-0.134155	-0.134463
-0.00334313	0.0268824	-0.025892
0.00243658	0.00489786	-0.00201079
0.0316165	-0.0296739	-0.0301453
0.00431813	0.00941334	-0.00814901
0.125082	-0.074059	-0.129761
-0.00415699	-0.000168089	0.00278217
-0.00841327	-0.00856805	0.00840112
0.0055203	-0.0221716	0.0211501
-0.0113175	-0.0358915	0.0476071
-0.00573786	0.000830859	0.0093345
0.00474748	0.00974066	-0.0119685
-0.0213335	-0.0198919	0.0211795
-0.0318206	0.0326834	-0.00608782
-0.0759402	-0.0759939	0.0759306
0.0137503	-0.0108794	-0.0128353
0.00571374	-0.0160711	0.0156103
0.000477865	0.000430861	0.00151251
0.00430208	-0.026836	0.0275658
0.00562374	0.00183335	-0.00568236
0.0258395	-0.0434233	-0.0258406
-0.000809769	-0.027576	0.0301812
0.0138679	-0.0143059	-0.0139033
0.00548548	-0.010219	0.00946964
-0.14428	-0.0502562	0.144974
-0.000125969	-6.05391e-05	0.000695271
0.0103743	0.0053174	-0.00980136
-0.00874741	0.00210912	0.00791805
-0.00516855	-0.0158431	0.0167354
0.00292298	0.00876485	-0.00328265
0.0170585	-0.0189392	-0.016297
-0.00805134	0.0124166	-0.0319924
-0.00988594	-0.00554645	0.00940639
-0.00338816	-0.00717004	0.00773049
0.00405329	0.00442748	-0.00404563
-0.00967914	0.0100393	-0.0102508
-0.00185856	-0.00183917	0.00251526
0.0283446	-0.0283502	-0.0261978
-0.0157994	-0.0150388	0.020064
-0.00704459	0.00758971	0.00773988
0.00454807	-0.047834	0.0467746
-0.000922956	0.0271611	-0.0205796
0.0222776	-0.0237515	-0.0216696
-0.00189283	0.0543122	-0.0537036
-0.00502774	0.00505475	0.00418897
0.00327518	-0.0495054	0.0500848
-0.00582278	0.0393613	-0.0335749
-0.00480525	0.00808265	0.00343038
0.00237367	0.0252706	-0.0207505
-0.0226302	0.0176996	0.0230826
0.00439835	-0.0485569	0.0479878
0.00284968	0.00138252	-0.00269087
0.0849088	-0.0841642	-0.0857235
0.0126408	0.00607174	-0.00757772
-0.0232247	0.0125934	0.0183118
0.00294242	-0.04993	0.0503068
0.00911752	0.00905674	-0.00913116
-0.0324347	0.0324848	-0.0277532
-0.000289501	0.00049288	0.00295805
-0.0104445	0.0105226	0.0103338
0.00476492	-0.0123877	0.014923
0.00608767	0.00746445	-0.00790313
0.00667406	-0.0299628	0.027919
-0.151542	-0.131443	0.151549
0.155782	-0.156208	-0.155733
0.00538918	-0.0421209	0.0419317
0.0187923	-0.0216564	-0.0188296
0.00546802	-0.015585	0.0166361
0.00605448	0.00652304	-0.00603482
-0.00944023	0.00711383	0.009327
0.00204809	-0.0200078	0.0234804
-0.000632348	0.00349781	-0.000637295
-0.00392882	0.0114423	-0.0130204
0.00503938	0.0533033	-0.0532074
-0.015021	0.0151289	0.0117608
-0.00687401	0.0392661	-0.034553
0.0371112	-0.0413085	-0.0370594
0.00439086	0.00096729	-0.000954793
-0.0195887	-0.0195957	0.0195847
0.00124572	-0.01749	0.0203392
-0.027949	-0.0324276	0.0279518
-0.0097948	0.0112813	0.00980978
0.00474748	0.00974066	-0.0119685
-0.000622458	-0.00245412	0.00366575
-0.00161081	0.0242693	-0.0214932
-0.00158278	0.0348253	-0.0303308
0.0485462	-0.0514187	-0.0474992
-0.00200154	0.00286481	-0.00278842
-0.0267651	0.0251548	0.0265833
-0.00187062	0.00285817	-0.00291088
0.00633323	0.00101118	-0.0022015
0.0117502	-0.0110225	-0.0160253
0.00238536	-0.039292	0.0393437
-0.0186695	0.0117238	0.0184343
0.000631749	-0.012628	0.0127972
-0.00416357	0.00916026	0.00430255
-0.0171271	0.0166463	0.0125475
0.0130709	0.0113327	-0.0176958
-0.00647216	0.00281476	0.00938194
0.00222731	0.0389714	-0.0386815
0.00241663	0.00326093	-0.00301827
-0.0034011	0.00272139	0.00349645
-0.00874142	0.0150948	-0.00525668
-0.0251727	0.00956745	0.0255341
0.00515455	-0.0661202	0.0646355
0.000170632	0.00044084	-0.000168209
-0.0187709	0.00721483	-0.00936121
-0.00990807	-0.00415588	0.00983407
-0.0153227	0.0161879	0.0153082
0.00395145	-0.00911092	0.011754
0.00713397	0.00480273	-0.00682863
0.00660737	-0.0185219	0.0182691
0.00421665	0.00498742	-0.00501523
-0.0145195	0.0140788	0.010407
0.00640425	-0.0486543	0.0485753
-0.0101865	0.0152081	0.00963629
0.00621005	-0.00610449	0.00583689
-0.0220654	-0.0218105	0.0220541
-0.00545608	0.00200296	0.00766939
0.00256685	-0.0139057	0.0142493
0.0214649	-0.0222713	-0.0214649
0.00151846	-0.0166356	0.0180506
0.0028505	-0.01189	0.0125632
0.0431106	-0.0517992	-0.0427629
-0.00188642	0.0405999	-0.0384136
0.0337982	-0.00684833	-0.0351078
0.00258584	0.0131112	-0.0132535
-0.0206369	-0.0144049	0.02065
0.00479783	0.162417	-0.194105
0.00491588	0.0279485	-0.0256431
0.00481736	-0.00734575	-0.00604187
0.00314031	-0.0419671	0.0406003
0.00573271	0.00479499	-0.00568099
0.00385785	-0.0285187	0.0280197
0.00134177	0.00235127	-0.00137931
-0.00764147	0.00631311	0.00971006
-0.0214697	0.0658556	-0.0665441
0.00181406	-0.000449945	0.000886442
0.00345161	-0.00271133	0.00403953
-0.00087701	-3.01391e-05	0.000906197
0.0183616	-0.0100923	-0.0169069
-0.00636081	-0.0397872	0.0436508
-0.0108915	0.00957949	0.0100459
0.00029389	-0.0367011	0.0369251
0.000397169	0.00036794	-0.000383493
-0.00204513	0.00534825	0.00420769
-0.0080765	0.00854282	-0.00437374
0.0735472	-0.0384399	-0.0748346
-0.0022341	0.0700107	-0.0704267
-0.0023001	-0.00966895	0.00887103
0.0186372	-0.0181606	-0.0188042
0.00298004	0.0264398	-0.0226692
0.018767	-0.0230433	-0.0172305
0.00693563	0.000354923	-0.000175951
-0.0431732	-0.042993	0.0431893
0.00319408	0.000917165	0.00237715
0.00508289	0.00586156	-0.00506174
0.00573626	-0.00521016	-0.00576071
0.00229356	-0.0442409	0.044157
0.0188306	-0.111818	0.0819114
0.00392293	-0.0343985	0.0343678
0.00426548	0.0196339	-0.0151646
-0.00837926	0.00817712	0.00527994
0.002472	-0.0255208	0.0256415
0.00731735	-0.00665431	-0.014882
0.00296166	0.0409446	-0.0412501
0.00954068	-0.0644801	0.0603681
-0.00222565	0.00982435	-0.00581993
-0.0172265	-0.0529698	0.0468872
-0.00780631	0.00804677	0.00856606
0.00104802	-0.0198329	0.0200966
0.000397169	0.00036794	-0.000383493
-0.0200707	0.015477	0.0194369
-0.00524292	0.0109147	-0.00517945
0.120177	-0.119663	-0.0374703
-0.00193492	0.0521395	-0.0515686
0.00352961	0.00398005	-0.00352222
-0.00930988	-0.0139536	0.017145
0.00739972	-0.0440807	0.0424183
0.0157056	-0.00847399	-0.0148917
-0.00148575	0.043831	-0.0436376
0.00455528	4.76805e-05	0.00338732
0.00744139	-0.0306035	0.0272355
-0.25602	0.0592889	0.169767
-0.000591135	0.00353556	0.00076146
0.000671423	0.00693081	-0.00682065
-0.0168549	0.0153281	0.0169054
-0.0346744	0.107683	-0.108339
0.00435877	0.00465529	-0.00435447
0.169396	-0.169149	-0.16997
-0.0014436	-0.0166127	0.0198704
-0.00108441	0.00127874	0.000979629
0.00555544	-0.0445978	0.0431562
0.000752325	0.0034655	-0.000837539
0.0111165	-0.010346	-0.0100722
0.00348693	0.00395795	-0.00447755
-0.0271901	0.016938	0.0265638
-0.0130346	0.0238322	-0.0239611
0.00485881	0.00399282	-0.00487952
-0.0302381	0.0116615	0.0303365
-0.210202	-0.20549	0.210206
0.0282638	-0.0308546	-0.0282662
0.000671423	0.00693081	-0.00682065
-0.0681963	-0.0684382	0.068208
-6.50498e-05	-0.0373373	0.0404159
0.00348693	0.00395795	-0.00447755
-0.00486966	0.00636714	0.00453533
0.00229356	-0.0442409	0.044157
-0.000325814	0.00548137	0.00216774
-0.00489709	-0.0210115	0.0221118
-0.00309954	-0.0191624	0.0200231
-0.0276383	0.00827667	0.0287962
0.00232269	-0.0294806	0.0284141
-0.00218191	0.00168911	0.00285662
0.00108143	-0.00953727	0.00935066
-0.00811255	-0.466663	0.46881
0.00771212	-0.00994405	-0.00783982
-0.0204932	-0.0611037	0.0648699
0.0486688	-0.048075	-0.04802
0.0010748	-0.0195268	0.0210249
0.00162502	0.00437423	-0.00164854
0.00170335	-0.00134473	-0.00236856
-0.010429	-0.038734	0.0322266
-0.00538117	0.00650034	0.00676469
-0.00151891	0.0123452	-0.0123557
0.0172964	0.0177936	-0.0172856
-0.0267846	0.0157114	-0.017945
0.000985472	0.000680581	-0.000990824
0.00166434	3.75513e-05	-0.00159594
0.0012753	0.00530074	-0.00543531
-0.0201519	-0.0312802	0.0270767
0.00111579	-0.0156758	0.0157921
-0.00492912	-0.00173137	0.000632116
0.0146664	-0.0109022	-0.0143241
0.00648247	-0.0308847	0.0306202
0.000773528	-7.03887e-05	-0.000620006
0.00667843	-0.0079264	0.00633105
0.000397169	0.00036794	-0.000383493
0.0571189	-0.0511117	-0.0573392
-0.000809769	-0.027576	0.0301812
0.0324492	-0.0342414	-0.0339437
-0.00265627	0.00547503	-0.00814804
0.00469886	0.118571	-0.123528
-0.0053911	-0.00120944	0.00566244
0.0032624	0.0193076	-0.0148404
0.00125566	-0.00392957	-0.00219894
0.00422096	-0.00977888	0.00982642
0.0141801	0.00501333	-0.00711611
-0.00361775	0.00868828	-0.0155838
-0.0165441	-0.0166165	0.0165552
-0.0314042	0.0177007	0.0246585
0.00690525	-0.0163544	0.0164866
0.00282318	0.00637193	-0.00541734
0.0010241	-0.00991949	0.0128284
-0.000336283	-0.203914	0.203412
0.0942887	-0.0960072	-0.0943337
-0.0593052	0.106701	-0.106509
0.0464657	-0.0482242	-0.0463319
-0.0432619	0.0107243	-0.0110066
0.00483996	0.00125753	-0.00444634
0.000654359	0.00275427	1.35176e-05
-0.00823681	0.00667104	-0.00574207
-0.00766775	0.0087879	0.00839561
-0.104538	0.104381	-0.110277
0.005781	0.0152762	-0.0188541
0.0540617	-0.0544321	-0.0538183
0.00953271	-0.00500411	-0.00155278
-0.0160711	0.0152014	0.0147935
0.002472	-0.0255208	0.0256415
-0.000171664	0.00368093	-1.79603e-05
0.00493948	-0.00680817	-0.00237431
0.00226944	0.00348082	-0.00308103
0.682517	-0.0310382	-0.68027
0.00327518	-0.0495054	0.0500848
-0.0166889	-0.0167193	0.0166893
-0.00507025	-0.00132828	0.0048942
-0.010323	-0.00937339	0.01036
-0.000183231	0.00344654	0.00109577
0.00527077	0.63082	-0.632197
0.00968493	0.0530115	-0.0542933
-0.00236365	0.0455522	-0.0455281
-0.000171664	0.00368093	-1.79603e-05
-0.003646	0.00364181	0.0022333
-0.0150402	0.0940369	-0.0950931
-0.0110346	0.0117667	0.010979
-0.0140333	0.025648	-0.027353
-0.000171664	0.00368093	-1.79603e-05
0.0146211	-0.0189678	-0.0144875
-0.0620521	-0.0661863	0.0621237
0.00484883	-0.0155194	-0.00324081
0.0040729	-0.048292	0.0486077
0.00164696	0.0112818	-0.00209368
-0.00368435	0.00661805	0.00413483
-0.0179217	0.0136983	-0.00610864
-0.00671874	-0.000541317	0.00159713
-0.0399417	0.0436887	-0.0440484
-0.00855885	-0.00868808	0.00855899
0.00926346	-0.0101061	0.00541853
-0.000264771	0.0003309	0.00026563
-0.00367479	0.00915932	0.00518485
-0.00444804	0.0715829	-0.071031
-0.00367916	-0.00368596	0.00364659
-0.0392183	0.0389314	-0.0373751
-0.00469556	-0.0435265	0.0374509
-0.00946261	0.0097201	0.00985583
0.000295375	-0.00255292	0.00213977
-0.00313551	0.0045564	0.00340486
-0.0294561	0.0361171	-0.0324488
-0.000978261	-0.00158298	0.00287135
0.00461298	0.00861345	-0.00538077
0.00224181	-0.00961671	0.00798526
-0.00742059	0.00734762	0.00620969
-0.06838	0.0822143	-0.0733814
-0.051454	-0.0547613	0.0516128
0.00545391	-0.0045378	-0.0056848
-0.00573491	-0.0220933	0.0256168
-0.00193796	-0.000648692	0.00279329
-0.00650122	0.0126207	-0.0127416
-0.00199018	0.00384827	0.0020169
-0.0109889	0.00574723	0.0102534
0.00473663	0.0162277	-0.014015
0.0153499	-0.0220267	-0.0150108
0.00228093	0.0461248	-0.0468164
-0.00776892	-0.00806309	0.00776931
0.0160972	-0.0161664	0.014869
-0.000264771	0.0003309	0.00026563
-0.0112112	0.00646477	0.0112472
0.00293863	-0.00936054	0.00965169
0.00173248	-0.0140489	0.0139528
0.00486801	-0.0466533	0.0466107
-0.00215222	-0.00656813	0.00621268
0.014202	-0.0138863	-0.0180271
-0.00672488	0.0503368	-0.0501923
0.00181406	-0.000449945	0.000886442
0.0017064	-0.0396792	0.0403337
-0.0019956	-0.00552667	0.00192522
-0.00920717	0.00921767	0.00920064
0.0160648	-0.0267131	0.0087881
-0.0083842	0.00638953	0.0109868
0.00248118	-0.00339615	0.00170511
-0.0238964	-0.0427072	0.0356293
0.0285758	-0.0276252	-0.0284663
0.0229999	0.0336761	-0.046965
0.00077043	0.0041472	-0.00230469
0.000281742	-0.0229816	0.0235112
-0.000438819	4.90408e-05	0.000469706
-0.0233134	0.0217312	-0.0100015
0.00605448	0.00652304	-0.00603482
-0.00811084	0.010563	0.00450024
0.00029389	-0.0367011	0.0369251
-0.0129445	-0.0421235	0.0373304
-0.00055686	-0.00841531	0.00342567
0.00911752	0.00905674	-0.00913116
-0.00110507	-0.00275558	-0.000341375
0.00392293	-0.0343985	0.0343678
0.00617731	0.00818133	-0.00640601
0.00330888	-0.0446383	0.0445491
0.000336142	0.00229309	-0.000513103
-0.00854631	0.0138531	0.00785224
-0.00139079	-0.0190482	0.0228198
-0.00928708	0.00783059	0.00932307
0.00227097	-0.0453161	0.0455883
-0.019421	-0.0207271	0.0194236
-0.00335524	0.00461726	0.00381728
0.000594769	0.0570841	-0.0514675
-0.0359535	0.00912801	0.0353653
-0.000421097	0.00508053	-0.00543183
-0.0108766	0.096688	-0.0940983
-0.0129185	0.0104393	0.0118314
0.0168304	0.0161965	-0.0168201
0.00500497	0.00116965	-0.00428296
-0.000955828	0.0117202	-0.0115379
-0.000890321	-0.00152606	0.00083751
0.0117314	0.0861285	-0.101286
0.0044018	0.00415162	-0.00441074
0.012957	-0.0125013	-0.0120807
0.00555544	-0.0445978	0.0431562
0.0403538	-0.0399755	-0.0404425
-0.0808923	0.0808051	-0.0843628
-0.00690664	-0.00485033	0.00691921
0.0313671	-0.0300555	-0.0191652
0.00423727	-0.0022867	0.00079353
0.00606223	-0.00714552	-0.00514557
0.0086213	0.00816622	-0.00984978
0.00607222	0.00334141	-0.00612219
-0.0038773	0.00616965	0.00228664
0.0207207	-0.0554764	0.0365797
0.118695	-0.122264	-0.118705
0.00598149	-0.0438228	0.0427977
0.00282318	0.00637193	-0.00541734
0.00255265	0.00917685	-0.00275198
0.00344878	0.00620005	-0.00564875
-0.00200574	0.00790233	0.00246455
-0.00269237	-0.00630334	0.00483219
-0.013482	-0.0135678	0.0134884
-0.00320693	0.00184647	-0.0030755
0.000752325	0.0034655	-0.000837539
-0.0103062	0.00804594	0.0109184
0.00515455	-0.0661202	0.0646355
0.0129382	0.00820757	-0.0165934
0.0161663	-0.0154207	0.0171982
0.00445163	-0.000113071	-0.00157947
0.0647298	-0.0699452	-0.0644759
0.00639357	-0.0203494	0.0202223
0.0117502	-0.0110225	-0.0160253
0.00260028	0.00367518	-0.00498029
-0.0777947	0.248036	-0.253071
-0.00769723	0.00522762	0.00147162
-0.00881945	0.0116515	-0.00826155
-0.0184138	0.0047834	0.0169245
0.00185118	-0.0346444	0.0339272
-0.00749476	0.0574757	-0.0633996
0.0153444	-0.0125302	-0.0152128
-0.0146282	0.0159147	-0.003286
0.00305845	-0.0137313	-0.00837529
0.0103457	-0.0263044	0.0265678
0.00509016	0.00516569	-0.00510829
-0.0848745	0.0862527	-0.0595377
-0.00607771	-0.00544539	0.00611386
0.0342185	-0.0373745	-0.0346676
0.00480632	-0.0290048	0.0292779
0.00846839	0.00830397	-0.0084774
0.00580298	0.00759538	-0.012417
0.00736375	0.00741534	-0.00735829
-0.0277154	0.0262315	0.0275136
-0.00708907	-0.0188923	0.0181907
0.0643515	-0.0635522	-0.0643435
0.00690525	-0.0163544	0.0164866
0.00083616	0.0047789	-0.000908941
0.030317	0.00176599	-0.0309582
0.00842318	0.0021224	-0.0033805
-0.00715084	0.00783313	0.00974294
0.00312621	-0.0532599	0.0525403
0.00289476	-0.0146908	0.00980598
-0.0161402	0.0157837	0.0122897
-0.0550408	0.0122526	0.00963103
0.0137016	-0.0106969	-0.0125085
0.00580866	0.00125055	-0.00319384
0.00573271	0.00479499	-0.00568099
-0.0104445	0.0105226	0.0103338
0.00824978	-0.0016629	0.00181254
-0.00300192	0.0032279	0.0031924
0.000819805	-0.0418823	0.0417022
-0.00204701	-0.00233113	0.00204203
0.00663892	-0.00686529	0.00482574
0.000686131	0.000355162	-0.000690173
-0.00652263	0.00687186	0.00720675
0.00303625	0.240889	-0.243405
-0.00519789	0.00634904	0.00557312
-0.00139079	-0.0190482	0.0228198
0.00083616	0.0047789	-0.000908941
-0.00115705	0.0115653	0.00138807
0.00571374	-0.0160711	0.0156103
-0.00961259	0.00541584	0.0096137
0.00288616	-0.0491828	0.0500504
-0.0115036	-0.00917224	0.0123299
0.00122486	-0.000697536	-0.00133346
-0.00139079	-0.0190482	0.0228198
0.0533533	-0.0296724	-0.0533185
0.00314853	-0.00346987	0.00632919
0.00312036	0.000377987	0.000402741
-0.0233292	0.00502273	0.0216758
-0.0255481	0.0541433	-0.0447434
-0.0277619	0.0164951	0.0272625
0.00248829	-0.0289333	0.0299696
0.000752325	0.0034655	-0.000837539
-0.00231819	2.09617	-2.08825
0.000397169	0.00036794	-0.000383493
-0.0212694	0.0127302	0.0200042
0.00357115	-0.0486847	0.0493447
0.001155	0.000937097	-0.00116858
-0.0148597	0.0624346	-0.0794421
-0.00504437	0.0112069	-0.00794393
-0.00709481	0.00698758	0.00671454
0.000295375	-0.00255292	0.00213977
-0.000653438	0.00244979	0.00454362
0.00137613	-0.0175915	0.017786
0.00316853	0.00045137	-0.00283152
0.0178967	-0.0128309	-0.0174371
0.0061396	-0.0429555	0.0418561
0.0364856	-0.0360101	-0.0374706
0.0108462	-0.0130261	0.0133926
0.00427904	0.000932675	-0.00389088
0.00562307	-0.00318911	-0.00712681
0.00377869	0.00985793	-0.00816654
-0.00480525	0.00808265	0.00343038
0.00186276	0.0176889	-0.0180972
0.00316853	0.00045137	-0.00283152
-0.00960799	0.0140101	0.00969784
-0.00579176	0.0403796	-0.0356367
0.000591	0.000359471	-0.00346021
0.00254411	-0.0492205	0.0493496
-0.166138	-0.166298	0.166034
0.00152615	-0.00960393	0.0129747
0.00479473	0.00551182	-0.00478836
0.0131252	-0.0135004	-0.0126509
-0.0455805	0.154107	-0.155698
-0.560161	-0.0386379	0.547338
-0.268682	0.2687	-0.269118
0.00713397	0.00480273	-0.00682863
-0.0127603	0.0155456	0.00859441
-0.000869412	-0.0396387	0.0398533
-0.01661	0.0133487	0.0129253
0.00311428	-0.0459792	0.0458363
0.00911752	0.00905674	-0.00913116
-0.00636057	0.00777118	0.0054285
0.00188295	0.0271084	-0.0222863
-0.00442903	0.0025097	0.00580633
-0.00757612	0.165285	-0.157303
-0.0131452	-0.0169276	0.0159124
0.0143159	-0.00458375	-0.0140472
-0.00209347	-0.00142238	0.00188469
0.0253403	-0.0134917	-0.0308441
0.00137613	-0.0175915	0.017786
-0.00087701	-3.01391e-05	0.000906197
-0.00867864	0.0278992	-0.026016
0.00508289	0.00586156	-0.00506174
-0.0215351	0.0217522	0.0215353
0.00011908	0.370452	-0.37315
0.00607222	0.00334141	-0.00612219
-0.00507025	-0.00132828	0.0048942
0.00433119	0.00843698	-0.00788175
0.0445192	-0.0451646	-0.0445154
0.00032108	0.0161454	-0.0150324
0.0533499	-0.0528115	-0.0537192
-0.00140509	0.01201	-0.0121259
0.0108324	0.00488718	-0.00936343
0.00492895	0.000158065	-0.00479272
0.00449471	0.0145316	-0.021681
-0.0168062	0.0165133	0.0168436
-0.00232603	0.00199481	0.000845069
-0.00306296	-0.00721972	0.00946981
0.0108376	-0.00894854	-0.0107389
0.0258618	0.00823589	-0.0244711
-0.020655	0.0099072	0.0203908
-0.00216974	0.00817181	-0.00761571
0.00243395	0.00444829	-0.00240383
0.0956343	-0.0281212	-0.0956434
0.00282318	0.00637193	-0.00541734
-0.0296653	0.00916547	0.031604
0.00849417	0.0280014	-0.0307601
0.00605448	0.00652304	-0.00603482
-0.010268	-0.0172177	0.0192944
0.00653558	-0.043687	0.0445907
0.00404025	-0.00385669	-0.00410862
0.00343268	-0.0230213	0.0215098
0.0830131	-0.0833444	-0.0830875
-0.0111212	0.0672106	-0.0670003
-0.0118977	-0.0139656	0.0133613
-0.00633566	0.0060244	-0.000525185
-0.0183871	0.0278141	-0.0270334
0.0080075	-0.00749444	-0.00267641
-0.00235859	0.0688455	-0.0668936
0.00734119	0.00590513	-0.00733382
0.00291265	-0.00304858	-0.00265826
-0.00217207	-0.0235846	0.0162621
0.0124944	-0.00804009	-0.0124888
0.00303625	0.240889	-0.243405
-0.00346448	-0.00293228	0.00346453
-0.000970239	-0.000373897	0.00312174
0.0104496	-0.0697861	0.0533264
0.00719252	-0.0169435	-0.00773748
0.00478099	0.0150338	-0.0147861
0.00619348	0.00458294	-0.00625669
-0.000882045	-0.0198742	0.0209046
0.00348693	0.00395795	-0.00447755
-0.0148412	0.0145798	0.0139581
0.00120458	-0.0375263	0.0376973
0.0019211	-0.0167459	0.0168884
-0.00992388	0.0372608	-0.0362367
0.00162502	0.00437423	-0.00164854
0.0453702	-0.0451187	-0.0410352
-0.00672488	0.0503368	-0.0501923
0.00755536	0.00591242	-0.00646102
0.00746367	-0.0110988	0.00983123
-0.039708	-0.0444201	0.0397185
0.0396445	-0.0322514	-0.0413326
0.00233647	-0.0166715	0.0194907
0.0422293	-0.0265526	-0.0422402
-0.00334313	0.0268824	-0.025892
0.00218395	0.00388324	-0.00189596
-0.0072052	0.00817115	0.000752428
-0.00610742	0.0246377	-0.0145542
0.0532365	-0.00825709	-0.0545608
-0.00381419	0.0747174	-0.0740477
0.00348693	0.00395795	-0.00447755
0.0141382	-0.0140779	0.0102833
-0.0328945	-0.371084	0.366476
0.0230804	-0.0355599	-0.0234081
0.00223891	-0.0122598	0.0119967
0.00982183	0.000956197	-0.00301308
0.00866418	0.0182277	-0.0246227
-0.0014017	-0.00133344	0.0013938
-0.00985311	0.00812973	0.00984224
0.00378509	-0.00115757	0.00107212
0.00193474	-0.0031081	-0.0020431
0.00376901	-0.00121934	0.000798251
0.0032624	0.0193076	-0.0148404
-0.00894344	0.00539442	0.00989036
-0.0054368	-0.0237305	0.0269818
0.00249403	-0.00133431	-0.0031056
-0.00337422	0.0662448	-0.0663892
-0.0347376	-0.136064	0.13185
0.0341139	-0.0344466	-0.0337345
-0.0170687	-0.0263907	0.00187372
0.00186449	1.43954e-05	-0.00224143
0.00418789	-0.0588562	0.0576756
0.00308205	0.040312	-0.0402363
0.00255265	0.00917685	-0.00275198
0.0183288	0.0585808	-0.0681494
-0.0158276	0.0177266	0.0104586
-0.00284317	0.0713915	-0.0709122
-0.00087701	-3.01391e-05	0.000906197
0.00926346	-0.0101061	0.00541853
0.00501365	0.00534748	-0.00502684
-0.0255445	0.0243168	0.0253924
0.00521652	-0.0216478	0.0223293
0.0100169	-0.00131166	-0.000371085
-0.00216359	0.00579311	-0.000218054
-0.0150086	-0.0108039	0.0146366
0.0315038	-0.00700775	-0.0323415
-0.00161906	0.0542711	-0.0536944
-0.0069532	0.018095	0.00709319
0.00415427	-0.0609456	0.0636042
0.00686464	0.0137964	-0.0149602
0.004727	0.0111981	-0.00546863
-0.000358943	-0.0102213	0.0133936
0.0390591	-0.0831205	-0.0310405
0.00314031	-0.0419671	0.0406003
-0.0256711	0.0319102	-0.0371141
-0.0187723	0.0190225	0.0187283
-0.0420753	0.0111308	0.0166134
0.0553844	-0.0564507	-0.0569723
-0.00373956	0.0351123	-0.0340211
-0.000349644	0.0214903	-0.0266993
-0.00597967	0.00613124	-0.0058706
0.00290214	-0.000178136	-0.00300295
0.0326066	0.00730648	-0.0365014
-0.0034985	0.0287645	-0.0274675
-0.000264771	0.0003309	0.00026563
-0.0114278	-0.0183792	0.0215672
0.000752325	0.0034655	-0.000837539
0.0611943	-0.0609832	-0.0627271
0.00606209	-0.0480769	0.0478008
-0.00430154	-0.00412704	0.00524085
-0.0126008	0.0283315	-0.0280474
-0.0232106	-0.00495609	0.0231954
0.0337982	-0.00684833	-0.0351078
-0.0204347	-0.00758659	0.0132889
0.0025772	-0.00386956	-0.00217162
0.00205784	-0.047216	0.0471342
0.0035622	0.00135135	-0.00316765
-0.0135743	0.00925409	0.01439
0.00241663	0.00326093	-0.00301827
-0.00650327	0.00797038	0.00566168
0.00800039	-0.0495952	0.0494849
-0.0249538	0.00492781	0.0241058
0.00227006	-0.00166496	0.000315102
-0.00785509	-0.23977	0.237697
0.0118715	-0.0111325	-0.0110833
-0.0345389	0.0342237	-0.0268491
-0.0370401	-0.0369871	0.0370022
-0.00519518	-0.0125397	0.0143894
0.00399104	0.0289564	-0.0258581
-0.00781027	0.00833263	0.00808714
0.00849417	0.0280014	-0.0307601
-0.0172696	-0.00486051	0.00446101
-0.0178428	0.0300272	-0.0336818
0.00658804	0.00577728	-0.00656321
-0.0360985	0.00703198	0.037151
-0.00312287	0.0171317	-0.0171041
-0.0111605	0.01143	0.00734145
-0.0104689	0.0654263	-0.0666935
0.000686131	0.000355162	-0.000690173
-0.00146357	0.00805416	0.000566951
-0.00451217	-0.0614185	0.0253398
0.0169687	-0.0173107	-0.0105259
0.00327518	-0.0495054	0.0500848
0.00292299	0.00241013	-0.00299168
0.00186692	-0.00519403	-0.00154802
-0.0175614	-0.0687438	0.0686985
-0.0115752	0.00837465	0.0101806
0.00473633	-0.00659508	0.00640329
0.000397169	0.00036794	-0.000383493
-0.00359872	-0.00968857	0.0124521
0.00479473	0.00551182	-0.00478836
-0.0125744	0.012575	0.0125448
-0.0126516	-0.0208285	0.0243317
-0.00518753	0.000862481	0.00520014
0.0025659	-0.0121319	0.0112617
-0.0174982	0.0105711	0.00512438
0.0346673	-0.0320926	-0.0345024
0.00660737	-0.0185219	0.0182691
-0.00692509	0.00604497	0.00701155
0.00439086	0.00096729	-0.000954793
0.00384907	0.00434744	-0.00382037
0.0494769	-0.0517369	-0.0501123
-0.00853978	0.0132903	-0.0150115
-0.00366937	0.00201912	0.00381592
-0.00191529	0.00757376	-0.00845571
0.00207776	0.00168044	-0.00165869
-0.0093809	0.00580473	0.00942293
-0.00247535	0.000124882	0.00107942
0.0118621	0.00973297	-0.0118956
0.00207322	-0.030669	0.0314836
0.00243395	0.00444829	-0.00240383
0.00911169	-0.015087	-0.00937846
-0.0054978	-0.00477698	0.0055139
0.100328	0.00568374	-0.121766
0.00410183	0.0035469	-0.00339263
0.00146143	0.00111628	-0.00146876
0.00730934	0.00199781	-0.00677815
0.00531402	0.0310037	-0.030303
0.00110286	-0.00164642	-0.00107977
0.00511735	-0.0454369	0.0438422
0.0244168	-0.0253539	-0.024266
0.00561552	-0.0260869	0.0257756
-0.023891	-0.00691531	0.0238945
-0.00709364	0.0120402	0.000456551
0.00338085	-0.0205198	0.0207173
-0.00551308	0.00625843	0.00435595
-0.0500629	0.0583026	-0.0618658
0.000336142	0.00229309	-0.000513103
-0.0148699	0.0150039	0.0150384
-0.0023356	0.00323253	-0.00196184
0.00386977	0.00548869	-0.0044509
0.00312922	-0.022415	0.0209239
-0.0396313	-0.0211399	0.0391876
0.00908066	-0.00879202	-0.00907871
-0.00367225	-0.00664946	0.0123704
-0.0106305	0.0111079	0.00488134
-0.00279958	0.0470645	-0.046821
-0.0113178	-0.0110331	0.0113249
0.00111579	-0.0156758	0.0157921
-0.0571666	-0.858282	0.861546
-0.00309268	0.0113649	0.00316441
-0.00193234	0.00168321	-0.000623203
0.00333854	0.0149611	-0.0177321
-0.0291575	0.0285296	-0.0539265
0.00177589	0.00108393	-0.00174751
-0.00839955	0.00722356	0.00846482
0.00392293	-0.0343985	0.0343678
-0.00187456	-0.000924943	0.00222555
-0.0125326	-0.0068911	0.00831423
0.00621461	0.00557234	-0.006226
-0.0101441	0.0121863	0.0107691
-0.00316471	-0.00800736	0.00279972
0.00205817	0.000639287	-0.000845369
0.00387757	-0.0243931	0.0241767
-0.000920163	-0.204012	0.200241
0.00771768	-0.00771602	-0.00778951
0.0133404	-0.0196275	0.000932767
0.168025	-0.00514509	-0.180292
0.00746367	-0.0110988	0.00983123
0.00846839	0.00830397	-0.0084774
0.00150546	0.00406112	-0.00141727
0.00490848	0.00511125	-0.00489489
0.0692153	-0.0692744	-0.0692028
-0.00235859	0.0688455	-0.0668936
-0.0115538	-0.0120569	0.0121027
0.00719757	-0.0172333	0.0133019
0.00713397	0.00480273	-0.00682863
0.0125329	-0.0105028	-0.0126037
0.00511735	-0.0454369	0.0438422
-0.000555648	0.000967092	0.000780315
0.00518367	-0.00915722	0.00872408
0.00363642	0.00484575	-0.00359186
-0.0179986	0.00636272	0.021081
-0.00318348	0.00966094	-0.0095568
-0.00285697	0.00350558	0.00165374
-0.00216661	0.00114943	-0.000803283
0.00290214	-0.000178136	-0.00300295
-0.0202298	0.0195876	0.0202264
-0.168508	-0.0104516	0.142029
-0.00423682	0.00427666	0.00281429
0.00124826	0.0225999	-0.0226689
0.00166791	0.00319486	-0.00287681
-0.0122846	0.00648958	0.0122531
-0.00134559	-0.0571746	0.0514547
0.0154455	-0.0160697	-0.0154521
-0.00538419	0.0435985	-0.0435597
-0.153057	-0.142804	0.143439
-0.00131793	0.032184	-0.0305399
0.00736375	0.00741534	-0.00735829
0.00547127	-0.00559288	-0.00528182
-0.0031915	-0.00343213	0.00473777
-0.00195563	-0.00164877	0.0098526
0.00212749	-0.00208497	0.00485381
-0.000993828	-0.00111198	0.000990859
-0.00769723	0.00522762	0.00147162
0.00669299	0.0312366	-0.0309505
0.0482504	-0.047133	-0.0483799
0.00702553	-0.0207354	0.0202462
-0.012103	0.0746836	-0.0707095
0.0112095	-0.0104006	-0.0118195
-0.00086813	-0.0179541	0.021307
0.0806271	-0.0771165	-0.0809449
0.000455236	0.0499475	-0.050548
0.00458485	0.00317315	-0.00346143
-0.00375789	0.00275109	0.00375844
-0.0191198	-0.071776	0.0790235
0.0118985	-0.00953081	-0.0120889
0.00478903	-0.00576703	0.00730983
0.000752325	0.0034655	-0.000837539
0.0372184	-0.0373616	0.0231359
0.00401806	0.00222629	-0.00408468
-0.0188007	0.00566029	0.00802675
-0.00189283	0.0543122	-0.0537036
0.00911752	0.00905674	-0.00913116
0.000923721	-0.025621	0.0235612
0.00218395	0.00388324	-0.00189596
0.00617808	-0.00802545	-0.00610298
0.00679085	-0.0492514	0.0492484
0.0145862	-0.0134256	-0.0105306
-0.00114669	8.72975e-05	-0.00018678
0.00483996	0.00125753	-0.00444634
0.0442785	-0.0443488	-0.0442013
0.00418789	-0.0588562	0.0576756
0.0337982	-0.00684833	-0.0351078
0.00311428	-0.0459792	0.0458363
0.00083616	0.0047789	-0.000908941
0.0284548	-0.0259239	-0.0281675
0.00531402	0.0310037	-0.030303
0.0108977	-0.00847728	-0.0106284
0.00330888	-0.0446383	0.0445491
0.00967257	0.00991799	-0.00967979
-0.00336327	0.00358285	0.00226391
0.00190776	0.00512817	-0.00472812
-0.0275746	0.0256647	0.0275734
0.00758228	0.0226882	-0.0253289
-0.0217895	-0.506418	0.509772
0.00051963	-0.0210864	0.0233286
0.00228744	0.00289965	-0.00272973
0.0210897	-0.018032	-0.02088
0.00474748	0.00974066	-0.0119685
0.00360485	0.0203337	-0.019406
0.00160013	-0.00825093	0.00879691
0.00243395	0.00444829	-0.00240383
-0.00998873	0.0101574	0.00771267
0.00272368	-0.0479499	0.0479455
-0.0118539	0.0148549	0.0121566
0.00357296	0.0371354	-0.0362446
-0.00245208	-0.000816279	-0.000301413
-0.00982634	0.00422787	0.00989657
0.00953271	-0.00500411	-0.00155278
-0.0169563	-0.00512609	0.0209486
0.0061396	-0.0429555	0.0418561
0.00134177	0.00235127	-0.00137931
-0.00404873	0.00281475	0.00471821
0.00684133	-0.0124441	0.0114387
0.00647472	0.00217844	-0.00650296
0.00307906	-0.00339137	0.00430817
0.0109757	0.0115011	-0.010972
0.00397615	-0.0284551	0.0248864
-0.00416357	0.00916026	0.00430255
-0.017794	0.00783227	0.0179276
0.00551403	-0.00638873	0.00593576
-0.0114249	-0.00657318	0.0114596
-0.0455832	0.0452867	-0.0306865
0.00104669	0.00918656	-0.00148606
0.00510849	-0.000624209	-0.00493582
0.00459058	-0.0536366	0.0533902
-0.00686402	0.00893785	0.0067192
0.002472	-0.0255208	0.0256415
-0.0489122	-0.042965	0.0417304
-0.0102341	0.0111857	0.00479467
0.00124955	-0.0290951	0.0310412
0.0082319	-0.0122699	-0.00878909
0.00472743	-0.029864	0.0302527
0.0034608	0.00267682	-0.0034397
0.0267033	-0.0244346	-0.0265127
-0.0321549	0.00849988	0.0210976
-0.000818519	0.00724953	0.00133012
-0.0290831	0.014194	-0.0151034
-0.012113	-0.0246422	0.037865
0.0176485	-0.0166282	-0.0171199
0.00306669	0.00520958	-0.00302157
0.00990007	-0.0304946	-0.0114051
-0.00827227	-0.0251913	0.0250327
-0.0370577	-0.0361795	0.0370466
-0.00139079	-0.0190482	0.0228198
0.00427904	0.000932675	-0.00389088
0.00647472	0.00217844	-0.00650296
-0.0364719	0.0340357	-0.0337185
0.00693685	-0.0199311	-0.00688867
-0.000207425	-0.000334735	-0.000130032
0.00728906	0.00593058	-0.00772365
0.0222776	-0.0237515	-0.0216696
0.000255034	0.251103	-0.249783
-0.00946261	0.0097201	0.00985583
-0.0167137	0.00536081	-0.00520893
-0.0147388	-0.0326682	0.0257929
0.000466399	0.00181922	-0.000744578
-0.00270906	0.0224881	-0.0138704
0.129553	-0.125973	-0.129553
-0.00432773	0.463674	-0.458553
-0.00518753	0.000862481	0.00520014
-0.0129056	0.00911658	0.0127504
0.00498681	0.0124211	-0.0115059
0.00782057	-0.00775072	-0.00774327
3.10523e-05	-0.00174878	0.00197748
0.00427904	0.000932675	-0.00389088
0.0025659	-0.0121319	0.0112617
-0.00367231	-0.00710628	0.00382711
0.0218104	-0.0179239	-0.0207841
-0.00414494	-0.0063317	0.00855585
-0.00434641	-0.00167627	0.00436954
-0.00320693	0.00184647	-0.0030755
0.00155414	0.00114027	-0.00159527
0.00103946	-0.000411168	-0.00103412
0.00357458	-0.0446629	0.0447005
-0.0021919	0.000399126	0.00348398
0.00276366	-0.0249107	0.0235786
0.00508289	0.00586156	-0.00506174
-0.00387681	0.00437801	0.003932
-0.0179913	0.144554	-0.144243
0.000131983	0.00449636	-0.00109597
0.00120458	-0.0375263	0.0376973
-0.0172305	-0.0236452	0.0227975
-0.0132089	0.0151452	0.013588
-0.0128947	-0.00198672	0.0158781
-0.0232716	0.00970711	0.0244897
0.00233115	-0.0310992	0.0316543
0.00455961	0.00899478	-0.0079753
0.0281165	-0.0277318	-0.0279398
-0.0529924	-0.0257342	0.0529032
0.00259519	-0.0123117	1.06962e-06
-0.00312522	0.0103945	-0.0095723
-0.00994742	-0.0134512	0.00978815
0.00111579	-0.0156758	0.0157921
0.00531402	0.0310037	-0.030303
0.00205817	0.000639287	-0.000845369
0.00338085	-0.0205198	0.0207173
-0.00726201	0.00395747	0.00767073
0.00713819	-0.0173207	0.0172479
-0.00518753	0.000862481	0.00520014
-0.00373341	0.000455879	0.00827331
0.00185118	-0.0346444	0.0339272
-0.00536834	0.00183304	0.00826018
0.00101174	0.0129085	-0.013654
-0.000336283	-0.203914	0.203412
-0.00713289	0.0115656	0.00655893
0.0244102	0.0233194	-0.0418295
-0.0106483	0.00677132	0.0108196
0.00349981	-0.0550711	0.0541274
0.00824978	-0.0016629	0.00181254
-0.0126466	0.00916872	0.0134068
0.00421665	0.00498742	-0.00501523
-0.0283987	0.00726775	0.0265512
-0.00965206	0.0635529	-0.0647716
-0.063928	-0.0317483	0.0641552
0.00680809	-0.021516	0.0205005
-0.000983476	0.00709038	-0.00639651
-0.00902085	0.00776346	0.00901505
0.00960351	-0.0117024	0.0135915
-0.0399241	-0.0228268	0.0565268
0.00916656	0.0100042	-0.0129458
0.00363642	0.00484575	-0.00359186
-0.00571897	0.00302968	0.00614286
0.00232182	0.00648564	-0.00664644
0.026682	-0.0254235	-0.0267349
-0.0157994	-0.0150388	0.020064
0.00422589	0.00143432	-0.00144354
0.0108977	-0.00847728	-0.0106284
0.0012215	0.00666751	-0.00561406
0.000882252	-0.000672216	-0.000780249
0.00151846	-0.0166356	0.0180506
0.00218395	0.00388324	-0.00189596
0.00484215	0.00208771	-0.0041186
-0.00874142	0.0150948	-0.00525668
0.0113935	-0.00137276	-0.0113723
-0.0165362	0.272871	-0.271012
-0.00247982	0.00224405	0.00374015
0.00613183	-0.00606235	0.0035492
-0.0480346	-0.049337	0.0478025
-0.0530111	0.00669835	0.0538728
-0.00272141	0.0151025	-0.015109
0.00422096	-2.00978	2.00983
-0.0847792	0.0851988	-0.0666346
0.00440519	0.00236528	-0.00447047
-0.00502069	0.00546376	0.00499294
-0.00372658	0.00975438	-0.00990056
0.00100405	-0.00139072	0.000850262
-0.00398879	0.0408101	-0.0404825
0.00455528	4.76805e-05	0.00338732
0.00616506	-0.00546597	-0.00630946
0.00449329	-0.0653876	0.0677881
-0.0155558	0.0120778	0.0152591
-0.00169443	-0.0335954	0.0338306
0.0044018	0.00415162	-0.00441074
-0.0327037	0.00983329	0.0340923
-0.186058	-0.0488097	0.202584
0.0150306	-0.0160368	-0.0157584
0.003827	-0.0449012	0.044858
0.00551125	0.0545841	-0.0544094
0.034955	-0.034993	-0.0335931
0.00379261	0.000576491	-0.00326501
-0.0212694	0.0127302	0.0200042
0.00713819	-0.0173207	0.0172479
0.00455961	0.00899478	-0.0079753
-0.00086813	-0.0179541	0.021307
-0.06204	-0.0756789	0.0731568
0.0608386	-0.0614263	-0.0608036
0.000312802	-0.036845	0.0381562
0.0104289	-0.026189	0.018241
-0.0361568	0.0886386	-0.0884721
-0.000780643	0.00378052	0.000886147
-0.00614607	0.00495204	0.0040761
-0.0219271	0.036883	-0.036454
-0.00601553	0.00781301	0.00597484
-0.00334313	0.0268824	-0.025892
0.00440519	0.00236528	-0.00447047
-0.0118186	0.00954924	0.0126971
-0.350628	-0.293084	0.491802
-0.00288604	0.00290773	0.00121387
-0.0114578	0.0605895	-0.0625963
-0.0165928	-0.00771291	0.0166439
-0.00119945	-0.00212123	0.000962236
0.00824978	-0.0016629	0.00181254
0.00360954	-0.0124475	0.000292163
-0.00312287	0.0171317	-0.0171041
-0.00607771	-0.00544539	0.00611386
-0.142801	1.56834	-1.5564
0.00421274	0.00843712	-0.00425148
0.00650558	-0.0052977	-0.00383605
0.0019461	-0.00918637	0.0109978
-0.00786786	-0.00909432	0.00788888
0.0151173	-0.0179697	0.0151049
0.00713397	0.00480273	-0.00682863
-0.0109471	0.0117371	0.00713458
0.00800039	-0.0495952	0.0494849
0.000477865	0.000430861	0.00151251
0.00330888	-0.0446383	0.0445491
0.0114013	0.0480796	-0.0510158
0.031371	-0.0292735	-0.0316088
0.00358881	0.00325853	-0.00176607
-0.0181674	0.0110942	0.0189368
0.0015904	0.0295722	-0.0286269
0.0141801	0.00501333	-0.00711611
-0.01138	0.0105167	0.0114445
0.00924521	-0.00959531	0.00568583
0.0160741	0.00878323	-0.017033
-0.00140925	-0.00919948	0.00933658
-0.000993828	-0.00111198	0.000990859
-0.00276901	0.00705946	0.00145682
0.000985472	0.000680581	-0.000990824
-0.0212694	0.0127302	0.0200042
0.000908391	-0.0257511	0.0271686
0.00483996	0.00125753	-0.00444634
0.0080066	-0.0126512	0.0085914
0.00207776	0.00168044	-0.00165869
-0.00491315	0.00624015	0.00448273
0.00338085	-0.0205198	0.0207173
0.0160852	0.010054	-0.0131577
0.00627732	-0.0241898	0.024438
0.0044125	-0.139793	0.136039
-0.0192226	0.0104378	0.0190892
0.002472	-0.0255208	0.0256415
0.0118621	0.00973297	-0.0118956
0.00391661	-0.0069003	0.00983349
-6.77314e-05	0.0965926	-0.0912012
0.0226695	-0.023579	-0.0215947
0.00200226	-0.00910626	0.0107005
0.0197729	-0.022482	-0.0200062
0.0024676	0.244195	-0.245876
0.00344878	0.00620005	-0.00564875
0.0315836	-0.0294186	-0.0316512
-0.000335004	0.00281551	0.000568637
0.0627715	-0.0575303	-0.0648594
3.10523e-05	-0.00174878	0.00197748
0.00428358	0.00149782	-0.00221511
3.09209e-05	-0.00956614	0.0132192
0.000336142	0.00229309	-0.000513103
-0.000847835	0.00141952	0.00261671
0.00508997	0.00443682	-0.00417529
-0.00506173	-0.0144302	0.0161886
-0.000867874	0.0062128	-0.00774083
-0.0727015	-0.0186496	0.0727978
0.00617731	0.00818133	-0.00640601
0.00392293	-0.0343985	0.0343678
-0.00766775	0.0087879	0.00839561
-0.00272116	0.0359123	-0.0360766
0.00218395	0.00388324	-0.00189596
-0.0076001	0.00936568	0.00909153
-0.000809769	-0.027576	0.0301812
-0.00709364	0.0120402	0.000456551
0.00427326	-0.0413094	0.0410422
0.00435272	0.0159286	-0.0126302
0.0319944	-0.0316977	-0.0319945
0.00364906	0.00329835	0.00348039
0.0082319	-0.0122699	-0.00878909
0.00115063	-0.0427959	0.0426902
0.00458831	0.000921871	-0.00449933
0.103717	-0.103562	-0.103627
-0.187801	-1.3075	1.30815
-0.0177457	-0.00353135	0.0203869
-0.000594969	-0.0109631	0.0110106
-0.0223761	0.0126227	0.00651305
0.00498479	-0.00498267	0.0039442
0.00926703	0.00891667	-0.00928222
-0.00308341	0.00595731	0.00401481
0.00686913	-0.0154764	0.0174734
0.0218828	-0.0167536	-0.0211567
0.0069095	-0.0125621	0.0125706
-0.00524292	0.0109147	-0.00517945
0.373159	-0.032194	-0.381211
0.000312802	-0.036845	0.0381562
-0.00242805	0.0077212	0.00141273
-0.00359777	0.0172121	-0.0177891
0.00819564	0.00426522	-0.00556045
-0.00376293	0.00490182	0.00356317
0.00241663	0.00326093	-0.00301827
0.0257588	-0.0259088	-0.0258114
0.0040729	-0.048292	0.0486077
0.00292298	0.00876485	-0.00328265
-0.00131867	0.00165899	0.00128363
0.00603323	0.00741529	-0.00736828
0.0471642	-0.0366134	-0.0551797
0.00422096	-0.00977888	0.00982642
-0.0115538	-0.0120569	0.0121027
-0.00519518	-0.0125397	0.0143894
0.00083616	0.0047789	-0.000908941
0.00807685	-0.00685602	-0.00847345
0.00418789	-0.0588562	0.0576756
-0.00558178	-0.0146122	0.0116287
-0.00465608	-0.0318697	0.0329798
0.0031829	0.0077089	-0.00332779
-0.0155558	0.0120778	0.0152591
-0.00363498	0.0220338	-0.0219886
-0.0135948	0.0127642	0.0133999
0.00294242	-0.04993	0.0503068
0.0113888	0.0537775	-0.0580099
-0.0257615	0.0262215	0.025767
-0.00316471	-0.00800736	0.00279972
0.0509976	-0.0479006	-0.0511635
-0.000841096	0.00913165	-0.00954458
0.00377869	0.00985793	-0.00816654
-0.00787708	0.00328311	0.00613617
-0.0172265	-0.0529698	0.0468872
0.012003	-0.0107404	-0.00971899
0.00186276	0.0176889	-0.0180972
-0.000333604	-0.00206048	0.00379002
-0.000639828	-0.000458686	0.00337075
0.0464214	0.0400401	-0.0464256
-0.00234302	0.00615325	0.0010382
-0.0127379	0.0166182	-0.019658
0.00508289	0.00586156	-0.00506174
0.000540692	-0.0119065	0.0147041
-0.000612997	0.0209077	-0.0128406
-0.0119291	0.0134049	0.0114163
0.00214401	-0.0441992	0.0441684
0.0449318	-0.0454914	-0.044984
0.00439086	0.00096729	-0.000954793
-0.0229112	-0.102867	0.10375
0.0083575	-0.00460294	-0.00804201
0.00454807	-0.047834	0.0467746
-0.00910842	0.00647136	0.00899119
0.00469839	-0.0119186	0.0131037
0.00532736	-0.45417	0.45514
0.0668284	-0.0581366	-0.0679079
0.00377869	0.00985793	-0.00816654
-0.00542463	0.00330251	0.0057135
0.00337953	0.00974983	-0.00977692
0.00573271	0.00479499	-0.00568099
-0.00662801	0.00504602	0.00671888
0.00431813	0.00941334	-0.00814901
0.00744171	-0.00858579	-0.00841694
-0.00157421	0.0278054	-0.0274054
0.000726606	-0.00176626	0.00294501
0.0180881	-0.0178123	0.0164936
-0.000446798	-0.00766606	0.00403538
-0.0111278	0.0112442	0.0109567
-0.00509833	1.32504	-1.32633
-0.00310684	-0.006017	0.00700644
0.00440748	-0.0116387	0.0115696
0.00162502	0.00437423	-0.00164854
-0.00571897	0.00302968	0.00614286
-0.00114136	0.0405621	-0.0418322
-0.00366937	0.00201912	0.00381592
-0.000859577	0.0674315	-0.0678888
-0.00234815	-0.0181306	0.0139424
0.0244749	-0.0254004	-0.0244653
-0.0134856	0.00294129	0.00348523
-0.0105912	0.00921471	0.0105949
0.00145059	-0.0387199	0.0383845
0.00710709	0.000656493	-0.00222989
0.00282921	0.00309913	-0.00387424
-0.017125	-0.0560724	0.0512523
0.00424713	0.0020532	-0.00711563
0.00571374	-0.0160711	0.0156103
-0.00135404	0.0319704	-0.0274032
-0.00086813	-0.0179541	0.021307
0.00348693	0.00395795	-0.00447755
-0.0167612	0.0172241	0.0117815
-0.026628	0.0274553	-0.027391
-0.000264771	0.0003309	0.00026563
-0.00458641	0.0125652	-0.0170189
0.000686131	0.000355162	-0.000690173
